{
  "version": "1.0",
  "truncation": null,
  "padding": null,
  "added_tokens": [
    {
      "id": 0,
      "content": "[UNK]",
      "single_word": false,
      "lstrip": false,
      "rstrip": false,
      "normalized": false,
      "special": true
    },
    {
      "id": 1,
      "content": "[CLS]",
      "single_word": false,
      "lstrip": false,
      "rstrip": false,
      "normalized": false,
      "special": true
    },
    {
      "id": 2,
      "content": "[SEP]",
      "single_word": false,
      "lstrip": false,
      "rstrip": false,
      "normalized": false,
      "special": true
    },
    {
      "id": 3,
      "content": "[PAD]",
      "single_word": false,
      "lstrip": false,
      "rstrip": false,
      "normalized": false,
      "special": true
    },
    {
      "id": 4,
      "content": "[MASK]",
      "single_word": false,
      "lstrip": false,
      "rstrip": false,
      "normalized": false,
      "special": true
    }
  ],
  "normalizer": null,
  "pre_tokenizer": {
    "type": "Whitespace"
  },
  "post_processor": null,
  "decoder": null,
  "model": {
    "type": "BPE",
    "dropout": null,
    "unk_token": null,
    "continuing_subword_prefix": null,
    "end_of_word_suffix": null,
    "fuse_unk": false,
    "vocab": {
      "[UNK]": 0,
      "[CLS]": 1,
      "[SEP]": 2,
      "[PAD]": 3,
      "[MASK]": 4,
      "!": 5,
      "\"": 6,
      "#": 7,
      "$": 8,
      "%": 9,
      "&": 10,
      "'": 11,
      "(": 12,
      ")": 13,
      "*": 14,
      "+": 15,
      ",": 16,
      "-": 17,
      ".": 18,
      "/": 19,
      "0": 20,
      "1": 21,
      "2": 22,
      "3": 23,
      "4": 24,
      "5": 25,
      "6": 26,
      "7": 27,
      "8": 28,
      "9": 29,
      ":": 30,
      ";": 31,
      "<": 32,
      "=": 33,
      ">": 34,
      "?": 35,
      "@": 36,
      "[": 37,
      "\\": 38,
      "]": 39,
      "^": 40,
      "_": 41,
      "`": 42,
      "a": 43,
      "b": 44,
      "c": 45,
      "d": 46,
      "e": 47,
      "f": 48,
      "g": 49,
      "h": 50,
      "i": 51,
      "j": 52,
      "k": 53,
      "l": 54,
      "m": 55,
      "n": 56,
      "o": 57,
      "p": 58,
      "q": 59,
      "r": 60,
      "s": 61,
      "t": 62,
      "u": 63,
      "v": 64,
      "w": 65,
      "x": 66,
      "y": 67,
      "z": 68,
      "{": 69,
      "|": 70,
      "}": 71,
      "~": 72,
      "¡": 73,
      "£": 74,
      "¥": 75,
      "§": 76,
      "©": 77,
      "«": 78,
      "­": 79,
      "®": 80,
      "°": 81,
      "²": 82,
      "³": 83,
      "´": 84,
      "µ": 85,
      "¶": 86,
      "·": 87,
      "º": 88,
      "»": 89,
      "¿": 90,
      "×": 91,
      "ß": 92,
      "à": 93,
      "á": 94,
      "ã": 95,
      "ä": 96,
      "ç": 97,
      "è": 98,
      "é": 99,
      "ë": 100,
      "í": 101,
      "ñ": 102,
      "ò": 103,
      "ó": 104,
      "ö": 105,
      "ù": 106,
      "ú": 107,
      "ü": 108,
      "ă": 109,
      "ı": 110,
      "š": 111,
      "ū": 112,
      "ž": 113,
      "ș": 114,
      "ə": 115,
      "ʖ": 116,
      "ˈ": 117,
      "˙": 118,
      "́": 119,
      "̇": 120,
      "̯": 121,
      "̶": 122,
      "͜": 123,
      "͞": 124,
      "͡": 125,
      "·": 126,
      "α": 127,
      "ε": 128,
      "θ": 129,
      "ι": 130,
      "κ": 131,
      "λ": 132,
      "ν": 133,
      "ο": 134,
      "π": 135,
      "ς": 136,
      "σ": 137,
      "τ": 138,
      "ό": 139,
      "ύ": 140,
      "а": 141,
      "б": 142,
      "в": 143,
      "г": 144,
      "д": 145,
      "е": 146,
      "ж": 147,
      "з": 148,
      "и": 149,
      "й": 150,
      "к": 151,
      "л": 152,
      "м": 153,
      "н": 154,
      "о": 155,
      "п": 156,
      "р": 157,
      "с": 158,
      "т": 159,
      "у": 160,
      "ф": 161,
      "х": 162,
      "ц": 163,
      "ч": 164,
      "ш": 165,
      "щ": 166,
      "ъ": 167,
      "ы": 168,
      "ь": 169,
      "э": 170,
      "ю": 171,
      "я": 172,
      "ё": 173,
      "ђ": 174,
      "ѓ": 175,
      "є": 176,
      "і": 177,
      "ї": 178,
      "ѝ": 179,
      "ѣ": 180,
      "ң": 181,
      "ҩ": 182,
      "ܓ": 183,
      "ॐ": 184,
      "๏": 185,
      "ἔ": 186,
      "ἠ": 187,
      "ὁ": 188,
      "​": 189,
      "‎": 190,
      "‏": 191,
      "‑": 192,
      "–": 193,
      "—": 194,
      "‘": 195,
      "’": 196,
      "“": 197,
      "”": 198,
      "„": 199,
      "†": 200,
      "‡": 201,
      "•": 202,
      "…": 203,
      "′": 204,
      "″": 205,
      "‹": 206,
      "›": 207,
      "‿": 208,
      "€": 209,
      "₽": 210,
      "№": 211,
      "™": 212,
      "↑": 213,
      "→": 214,
      "⇒": 215,
      "∀": 216,
      "∃": 217,
      "−": 218,
      "∙": 219,
      "√": 220,
      "∝": 221,
      "∞": 222,
      "≈": 223,
      "⌒": 224,
      "ⓐ": 225,
      "ⓔ": 226,
      "ⓚ": 227,
      "ⓡ": 228,
      "ⓥ": 229,
      "ⓨ": 230,
      "┗": 231,
      "▬": 232,
      "▲": 233,
      "▶": 234,
      "►": 235,
      "▼": 236,
      "○": 237,
      "◕": 238,
      "★": 239,
      "☆": 240,
      "☨": 241,
      "☯": 242,
      "☺": 243,
      "☻": 244,
      "♀": 245,
      "♂": 246,
      "♆": 247,
      "♌": 248,
      "♐": 249,
      "♠": 250,
      "♡": 251,
      "♣": 252,
      "♥": 253,
      "♪": 254,
      "♫": 255,
      "♬": 256,
      "⚽": 257,
      "✈": 258,
      "✉": 259,
      "✌": 260,
      "✔": 261,
      "✨": 262,
      "✬": 263,
      "✿": 264,
      "❆": 265,
      "❤": 266,
      "➕": 267,
      "➖": 268,
      "➦": 269,
      "➪": 270,
      "➽": 271,
      "シ": 272,
      "チ": 273,
      "ツ": 274,
      "ヅ": 275,
      "ハ": 276,
      "㋛": 277,
      "作": 278,
      "公": 279,
      "合": 280,
      "더": 281,
      "폰": 282,
      "": 283,
      "️": 284,
      "﻿": 285,
      "！": 286,
      "ｄ": 287,
      "ｘ": 288,
      "то": 289,
      "не": 290,
      "но": 291,
      "на": 292,
      "по": 293,
      "..": 294,
      "ть": 295,
      "ко": 296,
      "ра": 297,
      "ро": 298,
      "ка": 299,
      "ни": 300,
      "та": 301,
      "))": 302,
      "ли": 303,
      "те": 304,
      "го": 305,
      "ре": 306,
      "во": 307,
      "ва": 308,
      "де": 309,
      "мо": 310,
      "да": 311,
      "ль": 312,
      "ла": 313,
      "за": 314,
      "ет": 315,
      "ло": 316,
      "ст": 317,
      "ри": 318,
      "че": 319,
      "до": 320,
      "ма": 321,
      "се": 322,
      "ме": 323,
      "ся": 324,
      "ки": 325,
      "ле": 326,
      "ве": 327,
      "же": 328,
      "про": 329,
      "ны": 330,
      "бо": 331,
      "хо": 332,
      "ви": 333,
      "это": 334,
      "что": 335,
      "бы": 336,
      "со": 337,
      "ди": 338,
      "ру": 339,
      "ес": 340,
      "ку": 341,
      "вы": 342,
      "...": 343,
      "ми": 344,
      "ти": 345,
      "му": 346,
      "ше": 347,
      "ну": 348,
      "от": 349,
      "бе": 350,
      "чи": 351,
      "!!": 352,
      "са": 353,
      "си": 354,
      "пе": 355,
      "все": 356,
      "лю": 357,
      "ча": 358,
      "ду": 359,
      "нь": 360,
      "па": 361,
      "при": 362,
      "лу": 363,
      "бу": 364,
      "))))": 365,
      "сто": 366,
      "ля": 367,
      "жи": 368,
      "ня": 369,
      "ста": 370,
      "мож": 371,
      "пи": 372,
      "сь": 373,
      "ты": 374,
      "га": 375,
      "об": 376,
      "ще": 377,
      "раз": 378,
      "если": 379,
      "как": 380,
      "шь": 381,
      "нет": 382,
      "ба": 383,
      "ши": 384,
      "ту": 385,
      "так": 386,
      "зна": 387,
      "ры": 388,
      "би": 389,
      "лько": 390,
      "гда": 391,
      "чно": 392,
      "ют": 393,
      "мы": 394,
      "льно": 395,
      "....": 396,
      "сти": 397,
      "ный": 398,
      "ря": 399,
      "ние": 400,
      "ги": 401,
      "из": 402,
      "жа": 403,
      "ться": 404,
      "дет": 405,
      "или": 406,
      "можно": 407,
      "ско": 408,
      "ци": 409,
      "ска": 410,
      ")))": 411,
      "ша": 412,
      "только": 413,
      "он": 414,
      "су": 415,
      "есть": 416,
      "сть": 417,
      "ке": 418,
      "гу": 419,
      "тся": 420,
      "кой": 421,
      "нно": 422,
      "ные": 423,
      "меня": 424,
      "це": 425,
      "ния": 426,
      "пу": 427,
      "под": 428,
      "ется": 429,
      "мне": 430,
      "ву": 431,
      "луч": 432,
      "смо": 433,
      "пра": 434,
      "ин": 435,
      "для": 436,
      "вер": 437,
      "дела": 438,
      "ха": 439,
      "вать": 440,
      "пре": 441,
      "может": 442,
      "надо": 443,
      "щи": 444,
      "ски": 445,
      "дно": 446,
      "ная": 447,
      "чем": 448,
      "оче": 449,
      "фи": 450,
      "ды": 451,
      "сы": 452,
      "кра": 453,
      "смот": 454,
      "ком": 455,
      "лучше": 456,
      "сво": 457,
      "дру": 458,
      "там": 459,
      "вно": 460,
      "пере": 461,
      "бя": 462,
      "вет": 463,
      "мно": 464,
      "очень": 465,
      "будет": 466,
      "чу": 467,
      "боль": 468,
      "кто": 469,
      "пото": 470,
      "когда": 471,
      "вот": 472,
      "просто": 473,
      "уже": 474,
      "00": 475,
      "его": 476,
      "сте": 477,
      "лы": 478,
      "вс": 479,
      "чего": 480,
      "жно": 481,
      "дума": 482,
      "хоро": 483,
      "она": 484,
      "сле": 485,
      "стра": 486,
      "пер": 487,
      "рабо": 488,
      "йте": 489,
      "!!!": 490,
      "они": 491,
      "зы": 492,
      "гра": 493,
      "гла": 494,
      "без": 495,
      "дь": 496,
      "воз": 497,
      "ходи": 498,
      "ешь": 499,
      "тя": 500,
      "их": 501,
      "ца": 502,
      "сло": 503,
      "сно": 504,
      "зи": 505,
      "??": 506,
      "мя": 507,
      "))))))))": 508,
      "спо": 509,
      "пла": 510,
      "коне": 511,
      "еще": 512,
      "вре": 513,
      "лет": 514,
      "зо": 515,
      "обще": 516,
      "шо": 517,
      "жен": 518,
      "всё": 519,
      "ге": 520,
      "дол": 521,
      "много": 522,
      "ем": 523,
      "кон": 524,
      "конечно": 525,
      "ных": 526,
      "тебе": 527,
      "нима": 528,
      "кото": 529,
      "ят": 530,
      "кие": 531,
      "больше": 532,
      "вь": 533,
      "рма": 534,
      "фо": 535,
      "нра": 536,
      "тоже": 537,
      "быть": 538,
      "мер": 539,
      "день": 540,
      "жу": 541,
      "ща": 542,
      "тра": 543,
      "нее": 544,
      "люби": 545,
      "гово": 546,
      "кого": 547,
      "слу": 548,
      "ство": 549,
      "кая": 550,
      "вообще": 551,
      "ск": 552,
      "инте": 553,
      "вопро": 554,
      "любо": 555,
      "каж": 556,
      "ей": 557,
      "лове": 558,
      "само": 559,
      "чита": 560,
      "жиз": 561,
      "стве": 562,
      "было": 563,
      "!!!!": 564,
      "доро": 565,
      "тельно": 566,
      "пол": 567,
      "где": 568,
      "вам": 569,
      "пло": 570,
      "кла": 571,
      "ему": 572,
      "знаю": 573,
      "вый": 574,
      "ное": 575,
      "нрави": 576,
      "даже": 577,
      "ан": 578,
      "тель": 579,
      "нужно": 580,
      "вает": 581,
      ":)": 582,
      "тебя": 583,
      "((": 584,
      "ней": 585,
      "челове": 586,
      "пока": 587,
      "вто": 588,
      "стро": 589,
      "после": 590,
      "бле": 591,
      "мен": 592,
      "тре": 593,
      "ничего": 594,
      "потом": 595,
      "рас": 596,
      "ции": 597,
      "всегда": 598,
      "работа": 599,
      "шу": 600,
      "ков": 601,
      "кое": 602,
      "оста": 603,
      "помо": 604,
      "бра": 605,
      "потому": 606,
      "вой": 607,
      "том": 608,
      "зе": 609,
      "вле": 610,
      "юсь": 611,
      "нас": 612,
      "муж": 613,
      "пы": 614,
      "сту": 615,
      "зу": 616,
      "ным": 617,
      "ной": 618,
      "лся": 619,
      "полу": 620,
      "думаю": 621,
      "ит": 622,
      "рова": 623,
      "вас": 624,
      "ром": 625,
      "спа": 626,
      "норма": 627,
      "люб": 628,
      "одно": 629,
      "точно": 630,
      "могу": 631,
      "им": 632,
      "рь": 633,
      "сла": 634,
      "име": 635,
      "час": 636,
      "зя": 637,
      "делать": 638,
      "чтобы": 639,
      "ник": 640,
      "себя": 641,
      "чь": 642,
      "какой": 643,
      "ский": 644,
      "которы": 645,
      "фе": 646,
      "навер": 647,
      "кро": 648,
      "щё": 649,
      "боле": 650,
      "мой": 651,
      "сей": 652,
      "рт": 653,
      "нача": 654,
      "нию": 655,
      "гру": 656,
      "сси": 657,
      "вя": 658,
      "чит": 659,
      "чка": 660,
      "кре": 661,
      "шка": 662,
      "кру": 663,
      "вку": 664,
      "вра": 665,
      "ную": 666,
      "хи": 667,
      "оди": 668,
      "интере": 669,
      "ещё": 670,
      "кар": 671,
      "ются": 672,
      "них": 673,
      "купи": 674,
      "смотри": 675,
      "прав": 676,
      "ёт": 677,
      "буду": 678,
      "тер": 679,
      "стоя": 680,
      "пред": 681,
      "ете": 682,
      "спе": 683,
      "прави": 684,
      "лась": 685,
      "нка": 686,
      "себе": 687,
      "сам": 688,
      "тут": 689,
      "вари": 690,
      "ний": 691,
      "кры": 692,
      "ких": 693,
      "всего": 694,
      "ее": 695,
      "фа": 696,
      "ез": 697,
      "него": 698,
      "стре": 699,
      "рез": 700,
      "сейчас": 701,
      "вопрос": 702,
      "зави": 703,
      "най": 704,
      "ров": 705,
      "хорошо": 706,
      "время": 707,
      "дей": 708,
      "дер": 709,
      "бли": 710,
      "ответ": 711,
      "цы": 712,
      "попро": 713,
      "такой": 714,
      "ника": 715,
      "краси": 716,
      "год": 717,
      "тно": 718,
      "тов": 719,
      "учи": 720,
      "тво": 721,
      "чет": 722,
      "лось": 723,
      "писа": 724,
      "сказа": 725,
      "нии": 726,
      "смотря": 727,
      "од": 728,
      "сколько": 729,
      "доб": 730,
      "голо": 731,
      "чему": 732,
      "будь": 733,
      "дите": 734,
      "три": 735,
      "чки": 736,
      "дать": 737,
      "вые": 738,
      "зачем": 739,
      "вро": 740,
      "разу": 741,
      "нравится": 742,
      "лка": 743,
      "дом": 744,
      "зыва": 745,
      "тем": 746,
      "ху": 747,
      "ньше": 748,
      "друго": 749,
      "хотя": 750,
      "сама": 751,
      "филь": 752,
      "шки": 753,
      "рить": 754,
      "тру": 755,
      "бло": 756,
      "вля": 757,
      "вая": 758,
      "эти": 759,
      "игра": 760,
      "смотре": 761,
      "ску": 762,
      "ред": 763,
      "обы": 764,
      "лись": 765,
      "стоит": 766,
      "значит": 767,
      "ства": 768,
      "вное": 769,
      "мет": 770,
      "бой": 771,
      "ция": 772,
      "моло": 773,
      "всем": 774,
      "сме": 775,
      "всех": 776,
      "стви": 777,
      "дя": 778,
      "этого": 779,
      "года": 780,
      "ню": 781,
      "сит": 782,
      "аа": 783,
      "нный": 784,
      "пой": 785,
      "возможно": 786,
      "вить": 787,
      "--": 788,
      "люблю": 789,
      "тор": 790,
      "тогда": 791,
      "ству": 792,
      "10": 793,
      "жить": 794,
      "тро": 795,
      "сов": 796,
      "был": 797,
      "через": 798,
      "спи": 799,
      "зде": 800,
      "поло": 801,
      "того": 802,
      "чё": 803,
      "вод": 804,
      "уда": 805,
      "обо": 806,
      "сли": 807,
      "бес": 808,
      "пробле": 809,
      "куда": 810,
      "обра": 811,
      "поня": 812,
      "такое": 813,
      "хва": 814,
      "мужчи": 815,
      "род": 816,
      "жизнь": 817,
      "почему": 818,
      "бира": 819,
      "главное": 820,
      "ак": 821,
      "авто": 822,
      "ально": 823,
      "сты": 824,
      "вай": 825,
      "виде": 826,
      "поз": 827,
      "пример": 828,
      "этом": 829,
      "такие": 830,
      "кор": 831,
      "ший": 832,
      "пом": 833,
      "один": 834,
      "нормально": 835,
      "жела": 836,
      "буде": 837,
      "нить": 838,
      "нт": 839,
      "чер": 840,
      "деву": 841,
      "рю": 842,
      "кс": 843,
      "аль": 844,
      "бывает": 845,
      "пря": 846,
      "плохо": 847,
      "сс": 848,
      "мини": 849,
      "кому": 850,
      "ад": 851,
      "жизни": 852,
      "осо": 853,
      "женщи": 854,
      "кий": 855,
      "пле": 856,
      "сер": 857,
      "дра": 858,
      "вают": 859,
      "ссы": 860,
      "человек": 861,
      "ственно": 862,
      "нуж": 863,
      "фу": 864,
      "теле": 865,
      ")))))": 866,
      "маши": 867,
      "любовь": 868,
      "ход": 869,
      "нуть": 870,
      "наверное": 871,
      "была": 872,
      "ино": 873,
      "дой": 874,
      "бро": 875,
      "сами": 876,
      "ор": 877,
      "меся": 878,
      "пор": 879,
      "гре": 880,
      "20": 881,
      "случа": 882,
      "сдела": 883,
      "нов": 884,
      "нибудь": 885,
      "попробу": 886,
      "деньги": 887,
      "уме": 888,
      "скоре": 889,
      "чку": 890,
      "бор": 891,
      "жде": 892,
      "други": 893,
      "рен": 894,
      "похо": 895,
      "ваться": 896,
      "ек": 897,
      "ман": 898,
      "такая": 899,
      "пусть": 900,
      "100": 901,
      "росси": 902,
      "её": 903,
      "соба": 904,
      "пода": 905,
      "дома": 906,
      "ющи": 907,
      "получи": 908,
      "бере": 909,
      "лично": 910,
      "чтоб": 911,
      "цу": 912,
      "зависит": 913,
      "рой": 914,
      "мый": 915,
      "мар": 916,
      "лег": 917,
      "ская": 918,
      "ал": 919,
      "ном": 920,
      "люди": 921,
      "ним": 922,
      "нам": 923,
      "реше": 924,
      "чески": 925,
      "говори": 926,
      "све": 927,
      "сча": 928,
      "отно": 929,
      "более": 930,
      "ru": 931,
      "посмотри": 932,
      "нем": 933,
      "счита": 934,
      "вое": 935,
      "уж": 936,
      "дит": 937,
      "мага": 938,
      "хоть": 939,
      "вали": 940,
      "сразу": 941,
      "тив": 942,
      "in": 943,
      "чув": 944,
      "льный": 945,
      "ходит": 946,
      "вся": 947,
      "пь": 948,
      "дить": 949,
      "поку": 950,
      "гото": 951,
      "неде": 952,
      "гля": 953,
      "какая": 954,
      "лень": 955,
      "\".": 956,
      "er": 957,
      "ис": 958,
      "йся": 959,
      "пар": 960,
      "шать": 961,
      "начала": 962,
      "оо": 963,
      "обя": 964,
      "чный": 965,
      "ного": 966,
      "здоро": 967,
      "цо": 968,
      "хоте": 969,
      "мало": 970,
      "прода": 971,
      "клю": 972,
      "ум": 973,
      "холо": 974,
      "глу": 975,
      "проси": 976,
      "кую": 977,
      "отве": 978,
      "кни": 979,
      "нные": 980,
      "нель": 981,
      "соб": 982,
      "кажды": 983,
      "равно": 984,
      "ток": 985,
      "доста": 986,
      "рот": 987,
      "чать": 988,
      "таки": 989,
      "дело": 990,
      "пес": 991,
      "рус": 992,
      "обяза": 993,
      "смотреть": 994,
      "иногда": 995,
      "нок": 996,
      "скорее": 997,
      "либо": 998,
      "обычно": 999,
      "ран": 1000,
      "вроде": 1001,
      "меньше": 1002,
      "ведь": 1003,
      "бан": 1004,
      "вз": 1005,
      "будут": 1006,
      "ками": 1007,
      "вание": 1008,
      "рят": 1009,
      "правда": 1010,
      "фото": 1011,
      "=)": 1012,
      "здесь": 1013,
      "воло": 1014,
      "време": 1015,
      "шая": 1016,
      "слы": 1017,
      "этот": 1018,
      "ской": 1019,
      "понима": 1020,
      "нут": 1021,
      "проек": 1022,
      "поле": 1023,
      "каза": 1024,
      "може": 1025,
      "an": 1026,
      "пить": 1027,
      "хоче": 1028,
      "блоки": 1029,
      "коло": 1030,
      "ники": 1031,
      "тери": 1032,
      "зай": 1033,
      "хочу": 1034,
      "кажется": 1035,
      "лё": 1036,
      "ар": 1037,
      "нельзя": 1038,
      "той": 1039,
      "фильм": 1040,
      "которые": 1041,
      "никогда": 1042,
      "лей": 1043,
      "этому": 1044,
      "смы": 1045,
      "лек": 1046,
      "поч": 1047,
      "???": 1048,
      "месте": 1049,
      "мм": 1050,
      "сом": 1051,
      "совет": 1052,
      "пя": 1053,
      "бери": 1054,
      "страции": 1055,
      "ссылка": 1056,
      "15": 1057,
      "каждый": 1058,
      "жать": 1059,
      "ваю": 1060,
      "дут": 1061,
      "например": 1062,
      "ными": 1063,
      "перед": 1064,
      "одна": 1065,
      "шку": 1066,
      "поль": 1067,
      "тот": 1068,
      "нег": 1069,
      "ходить": 1070,
      "on": 1071,
      "называ": 1072,
      "лом": 1073,
      "цвет": 1074,
      "админи": 1075,
      "какие": 1076,
      "правильно": 1077,
      "долж": 1078,
      "нер": 1079,
      "нки": 1080,
      "друг": 1081,
      "свои": 1082,
      "вар": 1083,
      "ках": 1084,
      "гор": 1085,
      "ряд": 1086,
      "пои": 1087,
      "фор": 1088,
      "сказать": 1089,
      "жо": 1090,
      "пиши": 1091,
      "хе": 1092,
      "кли": 1093,
      "поста": 1094,
      "хочешь": 1095,
      "хороше": 1096,
      "таких": 1097,
      "вал": 1098,
      "давно": 1099,
      "интересно": 1100,
      "кол": 1101,
      "интер": 1102,
      "нете": 1103,
      "ww": 1104,
      "проекта": 1105,
      "\",": 1106,
      "вых": 1107,
      "туда": 1108,
      "покупа": 1109,
      "рована": 1110,
      "жда": 1111,
      "заблоки": 1112,
      "сай": 1113,
      "ья": 1114,
      "тить": 1115,
      "администрации": 1116,
      "занима": 1117,
      "нная": 1118,
      "дово": 1119,
      "вую": 1120,
      "решению": 1121,
      "шко": 1122,
      "самое": 1123,
      "особе": 1124,
      "чай": 1125,
      "могут": 1126,
      "спроси": 1127,
      "согла": 1128,
      "заблокирована": 1129,
      "были": 1130,
      "оно": 1131,
      "работать": 1132,
      "два": 1133,
      "горо": 1134,
      "наде": 1135,
      "тесь": 1136,
      "льные": 1137,
      "щу": 1138,
      "цию": 1139,
      "место": 1140,
      "спор": 1141,
      "льше": 1142,
      "иди": 1143,
      "лен": 1144,
      "гли": 1145,
      "уве": 1146,
      "шие": 1147,
      "особенно": 1148,
      "написа": 1149,
      "ность": 1150,
      "никто": 1151,
      "уу": 1152,
      "мор": 1153,
      "тай": 1154,
      "вариан": 1155,
      "узна": 1156,
      "сделать": 1157,
      "сторо": 1158,
      "послед": 1159,
      "дви": 1160,
      "образ": 1161,
      "ребе": 1162,
      "чик": 1163,
      "брать": 1164,
      "оде": 1165,
      "ar": 1166,
      "рок": 1167,
      "ского": 1168,
      "никак": 1169,
      "кти": 1170,
      "нием": 1171,
      "заме": 1172,
      "50": 1173,
      "встре": 1174,
      "коро": 1175,
      "пси": 1176,
      "начи": 1177,
      "ница": 1178,
      "будешь": 1179,
      "кт": 1180,
      "моз": 1181,
      "человека": 1182,
      "еха": 1183,
      "обязательно": 1184,
      "чется": 1185,
      "ём": 1186,
      "взя": 1187,
      "вкус": 1188,
      "перь": 1189,
      "сен": 1190,
      "кан": 1191,
      "st": 1192,
      "теперь": 1193,
      "200": 1194,
      "нах": 1195,
      "такого": 1196,
      "помога": 1197,
      "сред": 1198,
      "над": 1199,
      "тей": 1200,
      "хочется": 1201,
      "вала": 1202,
      "дов": 1203,
      "30": 1204,
      "or": 1205,
      "пове": 1206,
      "людей": 1207,
      "свой": 1208,
      "купить": 1209,
      "низ": 1210,
      "нд": 1211,
      "ок": 1212,
      "спра": 1213,
      "тех": 1214,
      "моск": 1215,
      "сить": 1216,
      "совсем": 1217,
      "попробуй": 1218,
      "магази": 1219,
      "ские": 1220,
      "вается": 1221,
      "тки": 1222,
      "тур": 1223,
      "моя": 1224,
      "хочет": 1225,
      "моему": 1226,
      "стно": 1227,
      "))))))": 1228,
      "тан": 1229,
      "прият": 1230,
      "денег": 1231,
      "рия": 1232,
      "доба": 1233,
      "зад": 1234,
      "лки": 1235,
      "объ": 1236,
      "тами": 1237,
      "тит": 1238,
      "прове": 1239,
      "деть": 1240,
      "кри": 1241,
      "цве": 1242,
      "хороший": 1243,
      "сна": 1244,
      "самый": 1245,
      "лый": 1246,
      "види": 1247,
      "плю": 1248,
      "жале": 1249,
      "тка": 1250,
      "дёт": 1251,
      "дели": 1252,
      "нку": 1253,
      "знако": 1254,
      "годня": 1255,
      "разве": 1256,
      "туа": 1257,
      "долго": 1258,
      "12": 1259,
      "ровать": 1260,
      "вол": 1261,
      "сегодня": 1262,
      "орга": 1263,
      "((((": 1264,
      "получа": 1265,
      "нять": 1266,
      "нали": 1267,
      "))))))))))))))))": 1268,
      "специ": 1269,
      "щь": 1270,
      "льное": 1271,
      "жду": 1272,
      "именно": 1273,
      "шла": 1274,
      "найти": 1275,
      "дня": 1276,
      "en": 1277,
      "страш": 1278,
      "сни": 1279,
      "шей": 1280,
      "вне": 1281,
      "поли": 1282,
      "шься": 1283,
      "слуша": 1284,
      "наверно": 1285,
      "жение": 1286,
      "тает": 1287,
      "спорт": 1288,
      "иг": 1289,
      "стой": 1290,
      "который": 1291,
      "деле": 1292,
      "зада": 1293,
      "ское": 1294,
      "отноше": 1295,
      "понрави": 1296,
      "раньше": 1297,
      "наз": 1298,
      "чить": 1299,
      "ить": 1300,
      "друз": 1301,
      "откры": 1302,
      "часто": 1303,
      "нужен": 1304,
      "поте": 1305,
      "скоро": 1306,
      "стри": 1307,
      "ой": 1308,
      "эк": 1309,
      "рая": 1310,
      "музы": 1311,
      "любой": 1312,
      "оби": 1313,
      "мые": 1314,
      "фиг": 1315,
      "малень": 1316,
      "логи": 1317,
      "свет": 1318,
      "случае": 1319,
      "скать": 1320,
      "-)": 1321,
      "al": 1322,
      "еди": 1323,
      "чные": 1324,
      "говорят": 1325,
      "ните": 1326,
      "вого": 1327,
      "вания": 1328,
      "чная": 1329,
      "большо": 1330,
      "лку": 1331,
      "сем": 1332,
      "выше": 1333,
      "цен": 1334,
      "роди": 1335,
      "попа": 1336,
      "вым": 1337,
      "свя": 1338,
      "стя": 1339,
      "этим": 1340,
      ").": 1341,
      "супер": 1342,
      "типа": 1343,
      "сса": 1344,
      "рень": 1345,
      "должен": 1346,
      "счасть": 1347,
      "лов": 1348,
      "быстро": 1349,
      "отды": 1350,
      "испо": 1351,
      "каче": 1352,
      "нит": 1353,
      "вом": 1354,
      "верь": 1355,
      "вла": 1356,
      "сильно": 1357,
      "скажи": 1358,
      "уго": 1359,
      "подо": 1360,
      "удачи": 1361,
      "слова": 1362,
      "разные": 1363,
      "льная": 1364,
      "почти": 1365,
      "эта": 1366,
      "мужи": 1367,
      "нг": 1368,
      "дли": 1369,
      "возь": 1370,
      "думать": 1371,
      "две": 1372,
      "нное": 1373,
      "глаза": 1374,
      "дорого": 1375,
      "прой": 1376,
      "руб": 1377,
      "знает": 1378,
      "свою": 1379,
      "сек": 1380,
      "лять": 1381,
      "возра": 1382,
      "сначала": 1383,
      "ших": 1384,
      "th": 1385,
      "ина": 1386,
      "держи": 1387,
      "подру": 1388,
      "пли": 1389,
      "шком": 1390,
      "поэтому": 1391,
      "крас": 1392,
      "реально": 1393,
      "сол": 1394,
      "интерес": 1395,
      "любит": 1396,
      "класс": 1397,
      "лли": 1398,
      "цев": 1399,
      "работу": 1400,
      "19": 1401,
      "совету": 1402,
      "скажу": 1403,
      "действи": 1404,
      "тах": 1405,
      "май": 1406,
      "своей": 1407,
      "фут": 1408,
      "собой": 1409,
      "оши": 1410,
      "ском": 1411,
      "язы": 1412,
      "ев": 1413,
      "бер": 1414,
      "иде": 1415,
      "мир": 1416,
      "начина": 1417,
      "помню": 1418,
      "йтесь": 1419,
      "позво": 1420,
      "поя": 1421,
      "хра": 1422,
      "зать": 1423,
      "сим": 1424,
      "живот": 1425,
      "бол": 1426,
      "нной": 1427,
      "немного": 1428,
      "ночь": 1429,
      "побе": 1430,
      "мат": 1431,
      "гри": 1432,
      "отли": 1433,
      "пет": 1434,
      "зем": 1435,
      "рак": 1436,
      ":))": 1437,
      "зав": 1438,
      "пара": 1439,
      "дё": 1440,
      "зда": 1441,
      "деше": 1442,
      "дальше": 1443,
      "пера": 1444,
      "изме": 1445,
      "девушка": 1446,
      "нда": 1447,
      "всю": 1448,
      "ага": 1449,
      "пита": 1450,
      "осно": 1451,
      "шло": 1452,
      "тите": 1453,
      "россии": 1454,
      "шли": 1455,
      "кур": 1456,
      "тия": 1457,
      "живу": 1458,
      "любви": 1459,
      "многи": 1460,
      "каждо": 1461,
      "нови": 1462,
      "столько": 1463,
      "кам": 1464,
      "лит": 1465,
      "полез": 1466,
      "вместе": 1467,
      "первый": 1468,
      "этой": 1469,
      "знать": 1470,
      "вну": 1471,
      "новый": 1472,
      "et": 1473,
      "обрати": 1474,
      "полне": 1475,
      "внима": 1476,
      "должно": 1477,
      "бла": 1478,
      "опре": 1479,
      "рубле": 1480,
      "поро": 1481,
      "моро": 1482,
      "настоя": 1483,
      "мина": 1484,
      "вление": 1485,
      "нужна": 1486,
      "дят": 1487,
      "вели": 1488,
      "родите": 1489,
      "стать": 1490,
      "вятся": 1491,
      "рии": 1492,
      "000": 1493,
      ")))))))": 1494,
      "18": 1495,
      "произ": 1496,
      "нор": 1497,
      "спать": 1498,
      "можешь": 1499,
      "съ": 1500,
      "рую": 1501,
      "пыта": 1502,
      "чек": 1503,
      "меч": 1504,
      "чуть": 1505,
      "груп": 1506,
      "дро": 1507,
      "почита": 1508,
      "пей": 1509,
      "али": 1510,
      "сходи": 1511,
      "ужа": 1512,
      "привет": 1513,
      "называется": 1514,
      "здоровь": 1515,
      "евро": 1516,
      "лия": 1517,
      "аааа": 1518,
      "?!": 1519,
      "красно": 1520,
      "опа": 1521,
      "раза": 1522,
      "кури": 1523,
      ",,": 1524,
      "другой": 1525,
      "лан": 1526,
      "пару": 1527,
      "проще": 1528,
      "тура": 1529,
      "клу": 1530,
      "запа": 1531,
      "жет": 1532,
      "пора": 1533,
      "дает": 1534,
      "мон": 1535,
      "чаще": 1536,
      ":)))": 1537,
      "удоб": 1538,
      "рать": 1539,
      "вопросы": 1540,
      "хватает": 1541,
      "оне": 1542,
      "женщина": 1543,
      "пусти": 1544,
      "14": 1545,
      "шек": 1546,
      "рублей": 1547,
      "ап": 1548,
      "прин": 1549,
      "помогает": 1550,
      "кг": 1551,
      "суще": 1552,
      "пуска": 1553,
      "дере": 1554,
      "масло": 1555,
      "серд": 1556,
      "бить": 1557,
      "re": 1558,
      "вода": 1559,
      "ван": 1560,
      "ули": 1561,
      "эту": 1562,
      "дают": 1563,
      "ким": 1564,
      "прико": 1565,
      "успе": 1566,
      "тол": 1567,
      "нность": 1568,
      "обе": 1569,
      "дней": 1570,
      "at": 1571,
      "коле": 1572,
      "нес": 1573,
      "вес": 1574,
      "ствует": 1575,
      "мом": 1576,
      "завтра": 1577,
      "дво": 1578,
      "ут": 1579,
      "видно": 1580,
      "ян": 1581,
      "любя": 1582,
      "дай": 1583,
      "причи": 1584,
      "постоя": 1585,
      "вайте": 1586,
      "рук": 1587,
      "рый": 1588,
      "????": 1589,
      "нар": 1590,
      "блин": 1591,
      "рое": 1592,
      "воды": 1593,
      "жки": 1594,
      "нару": 1595,
      "теля": 1596,
      "настро": 1597,
      "доволь": 1598,
      "бри": 1599,
      "высо": 1600,
      "мая": 1601,
      "рей": 1602,
      "маль": 1603,
      "вижу": 1604,
      "любить": 1605,
      "рка": 1606,
      "води": 1607,
      "привы": 1608,
      "говорить": 1609,
      "пят": 1610,
      "гать": 1611,
      "других": 1612,
      "нач": 1613,
      "бар": 1614,
      "стер": 1615,
      "карто": 1616,
      "спокой": 1617,
      "il": 1618,
      "зло": 1619,
      "кем": 1620,
      "льта": 1621,
      "сове": 1622,
      "детей": 1623,
      "весь": 1624,
      "дево": 1625,
      "проблема": 1626,
      "ствен": 1627,
      "зин": 1628,
      "кот": 1629,
      "счаст": 1630,
      "серь": 1631,
      "заня": 1632,
      "ch": 1633,
      "уста": 1634,
      "диа": 1635,
      "похоже": 1636,
      "кси": 1637,
      "вкусно": 1638,
      "дети": 1639,
      "ешься": 1640,
      "пожа": 1641,
      "кле": 1642,
      "сро": 1643,
      "сок": 1644,
      "мент": 1645,
      "укра": 1646,
      "ваше": 1647,
      "чера": 1648,
      "менять": 1649,
      "врачу": 1650,
      "времени": 1651,
      "am": 1652,
      "el": 1653,
      "чат": 1654,
      "ходят": 1655,
      "мол": 1656,
      "шел": 1657,
      "гар": 1658,
      "кроме": 1659,
      "слишком": 1660,
      "город": 1661,
      "пять": 1662,
      "сви": 1663,
      "жаю": 1664,
      "тый": 1665,
      "лить": 1666,
      "лые": 1667,
      "40": 1668,
      "дох": 1669,
      "минут": 1670,
      "яй": 1671,
      "легко": 1672,
      "море": 1673,
      "ложи": 1674,
      "везде": 1675,
      "чения": 1676,
      "мама": 1677,
      ";)": 1678,
      "мужчины": 1679,
      "дже": 1680,
      "посмотреть": 1681,
      "сю": 1682,
      "оборот": 1683,
      "спраши": 1684,
      "смер": 1685,
      "ден": 1686,
      "спаси": 1687,
      "советую": 1688,
      "сложно": 1689,
      "выра": 1690,
      "выбира": 1691,
      "помощь": 1692,
      "нами": 1693,
      "лишь": 1694,
      "мери": 1695,
      "практи": 1696,
      "другое": 1697,
      "om": 1698,
      "гло": 1699,
      "обща": 1700,
      "ских": 1701,
      "реши": 1702,
      "меша": 1703,
      "женщины": 1704,
      "!)": 1705,
      "руки": 1706,
      "кола": 1707,
      "проблем": 1708,
      "любом": 1709,
      "ехать": 1710,
      "чение": 1711,
      "ников": 1712,
      "пти": 1713,
      "ува": 1714,
      "радо": 1715,
      "зака": 1716,
      "вка": 1717,
      "тать": 1718,
      "жения": 1719,
      "свое": 1720,
      "беспла": 1721,
      "иначе": 1722,
      "it": 1723,
      "бал": 1724,
      "проблемы": 1725,
      "волосы": 1726,
      "месяц": 1727,
      "пробо": 1728,
      "мину": 1729,
      "должны": 1730,
      "ou": 1731,
      "стей": 1732,
      "вид": 1733,
      "исто": 1734,
      "ности": 1735,
      "поможет": 1736,
      "компа": 1737,
      "хаха": 1738,
      "?)": 1739,
      "друга": 1740,
      "вариант": 1741,
      "виду": 1742,
      "должна": 1743,
      "тера": 1744,
      "собира": 1745,
      "грам": 1746,
      "сала": 1747,
      "жал": 1748,
      "сайт": 1749,
      "дове": 1750,
      "ставля": 1751,
      "достаточно": 1752,
      "объя": 1753,
      "www": 1754,
      "зве": 1755,
      "щий": 1756,
      "способ": 1757,
      "фон": 1758,
      "золо": 1759,
      "чо": 1760,
      "вполне": 1761,
      "проф": 1762,
      "ана": 1763,
      "дале": 1764,
      "стати": 1765,
      "пользу": 1766,
      "кло": 1767,
      "пля": 1768,
      "мои": 1769,
      "мум": 1770,
      "научи": 1771,
      "закон": 1772,
      "хорошая": 1773,
      "нужны": 1774,
      "счастли": 1775,
      "дешь": 1776,
      "получится": 1777,
      "большой": 1778,
      "году": 1779,
      "любят": 1780,
      "спасибо": 1781,
      "рядом": 1782,
      "слыша": 1783,
      "отдыха": 1784,
      "уче": 1785,
      "знаешь": 1786,
      "наоборот": 1787,
      "ницы": 1788,
      "шке": 1789,
      "16": 1790,
      "тен": 1791,
      "своих": 1792,
      "(((": 1793,
      ".)": 1794,
      "воду": 1795,
      "чём": 1796,
      "квар": 1797,
      "ситуа": 1798,
      "праз": 1799,
      "нету": 1800,
      "рит": 1801,
      "сра": 1802,
      "голову": 1803,
      "попробуйте": 1804,
      "джи": 1805,
      "рого": 1806,
      "мыш": 1807,
      "ствие": 1808,
      "опы": 1809,
      "дной": 1810,
      "см": 1811,
      "зато": 1812,
      "корми": 1813,
      "25": 1814,
      "сне": 1815,
      "шим": 1816,
      "посту": 1817,
      "секс": 1818,
      "видимо": 1819,
      "сказал": 1820,
      "11": 1821,
      "офи": 1822,
      "нова": 1823,
      "взять": 1824,
      "друзья": 1825,
      "бывают": 1826,
      "мира": 1827,
      "мужчина": 1828,
      "бки": 1829,
      "оч": 1830,
      "вки": 1831,
      "тока": 1832,
      "мое": 1833,
      "рут": 1834,
      "делают": 1835,
      "бом": 1836,
      "форма": 1837,
      "пью": 1838,
      "es": 1839,
      "хотите": 1840,
      "против": 1841,
      "тон": 1842,
      "гуля": 1843,
      "__": 1844,
      "уди": 1845,
      "прости": 1846,
      "боя": 1847,
      "есте": 1848,
      "дется": 1849,
      "ат": 1850,
      "места": 1851,
      "принима": 1852,
      "работы": 1853,
      "хватит": 1854,
      "бога": 1855,
      "гро": 1856,
      "кино": 1857,
      "разно": 1858,
      "красо": 1859,
      "иск": 1860,
      "другие": 1861,
      "семь": 1862,
      "ними": 1863,
      "проду": 1864,
      "сня": 1865,
      "вести": 1866,
      "фир": 1867,
      "образо": 1868,
      "дву": 1869,
      "усло": 1870,
      "назад": 1871,
      "получается": 1872,
      "несколько": 1873,
      "ждать": 1874,
      "приро": 1875,
      "станет": 1876,
      "сда": 1877,
      "неделю": 1878,
      "ново": 1879,
      "одной": 1880,
      "ради": 1881,
      "дель": 1882,
      "жена": 1883,
      "ческий": 1884,
      "бре": 1885,
      "дура": 1886,
      "нравятся": 1887,
      "лая": 1888,
      "стью": 1889,
      "следу": 1890,
      "трудно": 1891,
      "ющий": 1892,
      "хуже": 1893,
      "тая": 1894,
      "ен": 1895,
      "какое": 1896,
      "уби": 1897,
      "свобо": 1898,
      "щая": 1899,
      "организ": 1900,
      "уро": 1901,
      "сосе": 1902,
      "изве": 1903,
      "нал": 1904,
      "резу": 1905,
      "сон": 1906,
      "стара": 1907,
      "ори": 1908,
      "часа": 1909,
      "постоянно": 1910,
      "песня": 1911,
      "кет": 1912,
      "проти": 1913,
      "таким": 1914,
      "жка": 1915,
      "каждого": 1916,
      "ква": 1917,
      "уни": 1918,
      "ищи": 1919,
      "вен": 1920,
      "бен": 1921,
      "своего": 1922,
      "действительно": 1923,
      "is": 1924,
      "элек": 1925,
      "тие": 1926,
      "кварти": 1927,
      "ид": 1928,
      "ставить": 1929,
      "щей": 1930,
      "примерно": 1931,
      "бь": 1932,
      "щее": 1933,
      "дре": 1934,
      "тяже": 1935,
      "красиво": 1936,
      "отношения": 1937,
      "точ": 1938,
      "сят": 1939,
      "зара": 1940,
      "фан": 1941,
      "вос": 1942,
      "душе": 1943,
      "мых": 1944,
      "коман": 1945,
      "жай": 1946,
      "слово": 1947,
      "редко": 1948,
      "исполь": 1949,
      "профес": 1950,
      "аб": 1951,
      "кофе": 1952,
      "важно": 1953,
      "тому": 1954,
      "блю": 1955,
      "такую": 1956,
      "между": 1957,
      "пры": 1958,
      "вряд": 1959,
      "рай": 1960,
      "край": 1961,
      "ктор": 1962,
      "настрое": 1963,
      "физ": 1964,
      "реди": 1965,
      "сожале": 1966,
      "скую": 1967,
      "рожде": 1968,
      "жем": 1969,
      "...)": 1970,
      "работе": 1971,
      "видел": 1972,
      "неё": 1973,
      "воспи": 1974,
      "тик": 1975,
      "сут": 1976,
      "чувство": 1977,
      "ген": 1978,
      "результа": 1979,
      "амери": 1980,
      "магазине": 1981,
      "одного": 1982,
      "зво": 1983,
      "писать": 1984,
      "встреча": 1985,
      "празд": 1986,
      "фот": 1987,
      "нена": 1988,
      "нечего": 1989,
      "дел": 1990,
      "состоя": 1991,
      "13": 1992,
      "нако": 1993,
      "сери": 1994,
      "нности": 1995,
      "подой": 1996,
      "лер": 1997,
      "саха": 1998,
      "держа": 1999,
      "сайте": 2000,
      "утра": 2001,
      "эт": 2002,
      "ваешь": 2003,
      "весе": 2004,
      "совер": 2005,
      "остальное": 2006,
      "нных": 2007,
      "ноги": 2008,
      "нику": 2009,
      "потре": 2010,
      "бей": 2011,
      "зывать": 2012,
      "играть": 2013,
      "ваются": 2014,
      "бабу": 2015,
      "мной": 2016,
      "зь": 2017,
      "больно": 2018,
      "сор": 2019,
      "читать": 2020,
      "ma": 2021,
      "моей": 2022,
      "мед": 2023,
      "имеет": 2024,
      ":-)": 2025,
      "гов": 2026,
      "принци": 2027,
      "твой": 2028,
      "жь": 2029,
      "горя": 2030,
      "бело": 2031,
      "которая": 2032,
      "месяца": 2033,
      "расте": 2034,
      "другу": 2035,
      "ro": 2036,
      "ил": 2037,
      "второй": 2038,
      "хле": 2039,
      "полно": 2040,
      "около": 2041,
      "коно": 2042,
      "лучший": 2043,
      "вления": 2044,
      "интернете": 2045,
      "тар": 2046,
      "биз": 2047,
      "понятно": 2048,
      "идет": 2049,
      "паль": 2050,
      "девушки": 2051,
      "the": 2052,
      "хозя": 2053,
      "самой": 2054,
      "матери": 2055,
      "графи": 2056,
      "сало": 2057,
      "рять": 2058,
      "тный": 2059,
      "эф": 2060,
      "англи": 2061,
      "близ": 2062,
      "зеле": 2063,
      "снима": 2064,
      "коли": 2065,
      "стави": 2066,
      "возду": 2067,
      "to": 2068,
      "хов": 2069,
      "напиши": 2070,
      "нного": 2071,
      "терпе": 2072,
      "ra": 2073,
      "ээ": 2074,
      "шам": 2075,
      "хорошие": 2076,
      "хотят": 2077,
      "сила": 2078,
      "вни": 2079,
      "ыы": 2080,
      "сум": 2081,
      "возьми": 2082,
      "зар": 2083,
      "которых": 2084,
      "зре": 2085,
      "жир": 2086,
      "искать": 2087,
      "удоволь": 2088,
      "обходи": 2089,
      "ях": 2090,
      "тые": 2091,
      "нера": 2092,
      "реги": 2093,
      "рекла": 2094,
      "честно": 2095,
      "чество": 2096,
      "вном": 2097,
      "увере": 2098,
      "нс": 2099,
      "гом": 2100,
      "чей": 2101,
      "док": 2102,
      "значно": 2103,
      "угодно": 2104,
      "нке": 2105,
      "сма": 2106,
      "мета": 2107,
      "мере": 2108,
      "предло": 2109,
      "сожалению": 2110,
      "уча": 2111,
      "лиш": 2112,
      "льных": 2113,
      "отда": 2114,
      "подро": 2115,
      "прям": 2116,
      "тере": 2117,
      "реб": 2118,
      "няя": 2119,
      "дешевле": 2120,
      "жешь": 2121,
      "какую": 2122,
      "легче": 2123,
      "ств": 2124,
      "видела": 2125,
      "луй": 2126,
      "баты": 2127,
      "тели": 2128,
      "професси": 2129,
      "обу": 2130,
      "чке": 2131,
      "слад": 2132,
      "обраща": 2133,
      "счастье": 2134,
      "мясо": 2135,
      "двига": 2136,
      "сет": 2137,
      "игры": 2138,
      "сл": 2139,
      "мати": 2140,
      "грани": 2141,
      "карти": 2142,
      "зву": 2143,
      "тобой": 2144,
      "души": 2145,
      "самая": 2146,
      "фран": 2147,
      "17": 2148,
      "закры": 2149,
      "машина": 2150,
      "мости": 2151,
      "пен": 2152,
      "улы": 2153,
      "однозначно": 2154,
      "la": 2155,
      "идти": 2156,
      "зон": 2157,
      "говорит": 2158,
      "готов": 2159,
      "давай": 2160,
      "продол": 2161,
      "созда": 2162,
      "шту": 2163,
      "мора": 2164,
      "приходи": 2165,
      "бок": 2166,
      "ёр": 2167,
      "каком": 2168,
      "понять": 2169,
      "нется": 2170,
      "будете": 2171,
      "посмотрите": 2172,
      "эффе": 2173,
      "бред": 2174,
      "китай": 2175,
      "желание": 2176,
      "сердце": 2177,
      "моби": 2178,
      "разви": 2179,
      "верх": 2180,
      "банк": 2181,
      "дев": 2182,
      "попу": 2183,
      "ветери": 2184,
      "...)))": 2185,
      "обла": 2186,
      "кстати": 2187,
      "лета": 2188,
      "пан": 2189,
      "став": 2190,
      "смотрю": 2191,
      "устро": 2192,
      "согласна": 2193,
      "наше": 2194,
      "стар": 2195,
      "сказ": 2196,
      "льник": 2197,
      "пать": 2198,
      "тыся": 2199,
      "случай": 2200,
      "ic": 2201,
      "le": 2202,
      "нике": 2203,
      "мин": 2204,
      "чувству": 2205,
      "зет": 2206,
      "рые": 2207,
      "уй": 2208,
      "нения": 2209,
      "работает": 2210,
      "глупо": 2211,
      "быстре": 2212,
      "лам": 2213,
      "щин": 2214,
      "зависи": 2215,
      "страи": 2216,
      "шкой": 2217,
      "меди": 2218,
      "верю": 2219,
      "дне": 2220,
      "тора": 2221,
      "необходи": 2222,
      "систе": 2223,
      "жив": 2224,
      "цеп": 2225,
      "наши": 2226,
      "меру": 2227,
      "ющие": 2228,
      "считаю": 2229,
      "мать": 2230,
      "россия": 2231,
      "заниматься": 2232,
      "500": 2233,
      "лага": 2234,
      "пече": 2235,
      "городе": 2236,
      "играет": 2237,
      "----": 2238,
      "дар": 2239,
      "береме": 2240,
      "можете": 2241,
      "приятно": 2242,
      "шно": 2243,
      "влека": 2244,
      "дка": 2245,
      "летом": 2246,
      "хожу": 2247,
      "зов": 2248,
      "многие": 2249,
      "дный": 2250,
      "оце": 2251,
      "ваш": 2252,
      "часов": 2253,
      "прямо": 2254,
      "поез": 2255,
      "воро": 2256,
      "волос": 2257,
      "**": 2258,
      "нешь": 2259,
      "нья": 2260,
      "вчера": 2261,
      "шокола": 2262,
      "ребенка": 2263,
      "мей": 2264,
      "оба": 2265,
      "ката": 2266,
      "трени": 2267,
      "психоло": 2268,
      "лицо": 2269,
      "эмо": 2270,
      "тепло": 2271,
      "тельный": 2272,
      "менты": 2273,
      "спар": 2274,
      "жды": 2275,
      "отра": 2276,
      "жит": 2277,
      "отлично": 2278,
      "пишу": 2279,
      "делаю": 2280,
      "голу": 2281,
      "пись": 2282,
      "шить": 2283,
      "ёл": 2284,
      "гами": 2285,
      "вредно": 2286,
      "клас": 2287,
      "програм": 2288,
      "чает": 2289,
      "лай": 2290,
      "пари": 2291,
      "круг": 2292,
      "выгля": 2293,
      "чемпи": 2294,
      "побольше": 2295,
      "лин": 2296,
      "лья": 2297,
      "бега": 2298,
      "тят": 2299,
      "взгля": 2300,
      "тю": 2301,
      "ходя": 2302,
      "вок": 2303,
      "стру": 2304,
      "стов": 2305,
      "харак": 2306,
      ")))))))))": 2307,
      "понимаю": 2308,
      "жный": 2309,
      "чики": 2310,
      "болез": 2311,
      "di": 2312,
      "гия": 2313,
      "жку": 2314,
      "судь": 2315,
      "полови": 2316,
      "опять": 2317,
      "москве": 2318,
      "de": 2319,
      "дки": 2320,
      "смысл": 2321,
      "шен": 2322,
      "инди": 2323,
      "нди": 2324,
      "зарпла": 2325,
      "бка": 2326,
      "фф": 2327,
      "мире": 2328,
      "своим": 2329,
      "пель": 2330,
      "части": 2331,
      "взро": 2332,
      "ово": 2333,
      "название": 2334,
      "бесплатно": 2335,
      "lo": 2336,
      "чкой": 2337,
      "дож": 2338,
      "лето": 2339,
      "откуда": 2340,
      "витами": 2341,
      "щего": 2342,
      "цена": 2343,
      "положи": 2344,
      "жалко": 2345,
      "оте": 2346,
      "чисто": 2347,
      "людя": 2348,
      "конце": 2349,
      "гря": 2350,
      "ёшь": 2351,
      "парень": 2352,
      "призна": 2353,
      "подума": 2354,
      "мут": 2355,
      "стал": 2356,
      "магазин": 2357,
      "срочно": 2358,
      "ума": 2359,
      "кова": 2360,
      "зали": 2361,
      "пережи": 2362,
      "помни": 2363,
      "вклю": 2364,
      "дж": 2365,
      "сва": 2366,
      "сан": 2367,
      "глаз": 2368,
      "нау": 2369,
      "заве": 2370,
      "!)))": 2371,
      "некоторые": 2372,
      "мов": 2373,
      "клуб": 2374,
      "бля": 2375,
      "тин": 2376,
      "этих": 2377,
      "музыка": 2378,
      "солн": 2379,
      "серьез": 2380,
      "имя": 2381,
      "соль": 2382,
      "одну": 2383,
      "боюсь": 2384,
      "подари": 2385,
      "жнее": 2386,
      "счет": 2387,
      "делай": 2388,
      "поздра": 2389,
      "мужа": 2390,
      "самые": 2391,
      "ностью": 2392,
      "внеш": 2393,
      "охо": 2394,
      "вами": 2395,
      "вной": 2396,
      "упа": 2397,
      "силь": 2398,
      "нул": 2399,
      "также": 2400,
      "другого": 2401,
      "собака": 2402,
      "бог": 2403,
      "щас": 2404,
      "хотелось": 2405,
      "чных": 2406,
      "защи": 2407,
      "мысли": 2408,
      "здоровье": 2409,
      "подоб": 2410,
      "поздно": 2411,
      "конец": 2412,
      "вдруг": 2413,
      "посте": 2414,
      "рано": 2415,
      "хорошее": 2416,
      "шта": 2417,
      "стить": 2418,
      "конкре": 2419,
      "рий": 2420,
      "чаю": 2421,
      "женщин": 2422,
      "помочь": 2423,
      "фанта": 2424,
      "класси": 2425,
      "машину": 2426,
      "лечи": 2427,
      "месяцев": 2428,
      "!))": 2429,
      "60": 2430,
      "какого": 2431,
      "сомне": 2432,
      "написано": 2433,
      "кошка": 2434,
      "раду": 2435,
      "замет": 2436,
      "естественно": 2437,
      "),": 2438,
      "ии": 2439,
      "огу": 2440,
      "придума": 2441,
      "самом": 2442,
      "ческие": 2443,
      "ног": 2444,
      "услови": 2445,
      "пр": 2446,
      "реша": 2447,
      "поху": 2448,
      "ницу": 2449,
      "одино": 2450,
      "желательно": 2451,
      "далеко": 2452,
      "игру": 2453,
      "эн": 2454,
      "мость": 2455,
      "дам": 2456,
      "недели": 2457,
      "надое": 2458,
      "ственный": 2459,
      "нос": 2460,
      "песни": 2461,
      "русский": 2462,
      "видеть": 2463,
      "двух": 2464,
      "оли": 2465,
      "ожи": 2466,
      "ником": 2467,
      "вещи": 2468,
      "боли": 2469,
      "сил": 2470,
      "))))))))))": 2471,
      "мым": 2472,
      "собственно": 2473,
      "надеюсь": 2474,
      "кате": 2475,
      "мера": 2476,
      "контак": 2477,
      "красивая": 2478,
      "учиться": 2479,
      "молоде": 2480,
      "ay": 2481,
      "наш": 2482,
      "тали": 2483,
      "обре": 2484,
      "уууу": 2485,
      "един": 2486,
      "ётся": 2487,
      "пери": 2488,
      "жает": 2489,
      "сбор": 2490,
      "делает": 2491,
      "зер": 2492,
      "рье": 2493,
      "полезно": 2494,
      "физи": 2495,
      "коль": 2496,
      "нин": 2497,
      "стом": 2498,
      "мыть": 2499,
      "щие": 2500,
      "дорога": 2501,
      "чёр": 2502,
      "пройдет": 2503,
      "яя": 2504,
      "помина": 2505,
      "лем": 2506,
      "компле": 2507,
      "цвета": 2508,
      "ребё": 2509,
      "тика": 2510,
      "платить": 2511,
      "никаких": 2512,
      "смысле": 2513,
      "поми": 2514,
      "вит": 2515,
      "интересу": 2516,
      ":-": 2517,
      "одинако": 2518,
      "интернет": 2519,
      "ребенок": 2520,
      "яйца": 2521,
      "li": 2522,
      "ске": 2523,
      "сидеть": 2524,
      "любы": 2525,
      "пиво": 2526,
      "пользо": 2527,
      "sh": 2528,
      "шую": 2529,
      "выход": 2530,
      "етесь": 2531,
      "относи": 2532,
      "пот": 2533,
      "соответ": 2534,
      "милли": 2535,
      "дую": 2536,
      "макси": 2537,
      "вза": 2538,
      "роман": 2539,
      "кана": 2540,
      "забо": 2541,
      "езди": 2542,
      "поиско": 2543,
      "потеря": 2544,
      "прошло": 2545,
      "разница": 2546,
      "рки": 2547,
      "тек": 2548,
      "чие": 2549,
      "часть": 2550,
      "станови": 2551,
      "появи": 2552,
      "комен": 2553,
      "вече": 2554,
      "хорошего": 2555,
      "нько": 2556,
      "хотел": 2557,
      "свер": 2558,
      "лят": 2559,
      "пуск": 2560,
      "хотела": 2561,
      "замеча": 2562,
      "ot": 2563,
      "пон": 2564,
      "рост": 2565,
      "лез": 2566,
      "причем": 2567,
      "минимум": 2568,
      "км": 2569,
      "муль": 2570,
      "альный": 2571,
      "нему": 2572,
      "сень": 2573,
      "солю": 2574,
      "запре": 2575,
      "щем": 2576,
      "слушать": 2577,
      "ющих": 2578,
      "друзей": 2579,
      "язык": 2580,
      "90": 2581,
      "?))": 2582,
      "дороже": 2583,
      "пожалуй": 2584,
      "тыс": 2585,
      "шин": 2586,
      "права": 2587,
      "никому": 2588,
      "кать": 2589,
      "куль": 2590,
      "фигу": 2591,
      "зом": 2592,
      "груз": 2593,
      "домаш": 2594,
      "чёт": 2595,
      "любишь": 2596,
      "основном": 2597,
      "быстрее": 2598,
      "живут": 2599,
      "ссо": 2600,
      "незнаю": 2601,
      "неплохо": 2602,
      "щение": 2603,
      "опасно": 2604,
      "сходить": 2605,
      "чен": 2606,
      "нормальный": 2607,
      "мечта": 2608,
      "людям": 2609,
      "21": 2610,
      "бои": 2611,
      "вин": 2612,
      "нном": 2613,
      "держать": 2614,
      "поищи": 2615,
      "80": 2616,
      "еш": 2617,
      "моде": 2618,
      "дал": 2619,
      "вляю": 2620,
      "нове": 2621,
      "..)": 2622,
      "ваши": 2623,
      "зывает": 2624,
      "клады": 2625,
      "обожаю": 2626,
      "ужас": 2627,
      "сюда": 2628,
      "мяг": 2629,
      "футбол": 2630,
      "норм": 2631,
      "практически": 2632,
      "ган": 2633,
      "изви": 2634,
      "емся": 2635,
      "зенит": 2636,
      "se": 2637,
      "эй": 2638,
      "выбор": 2639,
      "право": 2640,
      "спросить": 2641,
      "бур": 2642,
      "чное": 2643,
      "цены": 2644,
      "готовить": 2645,
      "остро": 2646,
      "доку": 2647,
      "нравиться": 2648,
      "рам": 2649,
      "придется": 2650,
      "ай": 2651,
      "номер": 2652,
      "прос": 2653,
      "сили": 2654,
      "купите": 2655,
      "ve": 2656,
      "тё": 2657,
      "симпа": 2658,
      "дина": 2659,
      "жаль": 2660,
      "темпера": 2661,
      "давать": 2662,
      "забы": 2663,
      "чий": 2664,
      "кредит": 2665,
      "попробо": 2666,
      "еду": 2667,
      "ог": 2668,
      "стая": 2669,
      "стала": 2670,
      "телей": 2671,
      "апте": 2672,
      "абсолю": 2673,
      "наро": 2674,
      "момент": 2675,
      "очере": 2676,
      "тяги": 2677,
      "мужчин": 2678,
      "опыт": 2679,
      "электро": 2680,
      "бю": 2681,
      "ций": 2682,
      "=)))": 2683,
      "дная": 2684,
      "явля": 2685,
      "памя": 2686,
      "чной": 2687,
      "цей": 2688,
      "краса": 2689,
      "самому": 2690,
      "найди": 2691,
      "понравилось": 2692,
      "внимание": 2693,
      "удобно": 2694,
      "инете": 2695,
      "..))": 2696,
      "слабо": 2697,
      "добро": 2698,
      "ох": 2699,
      "масса": 2700,
      "недель": 2701,
      "оооо": 2702,
      "хер": 2703,
      "бизнес": 2704,
      "убе": 2705,
      "веро": 2706,
      "ставь": 2707,
      "мнение": 2708,
      "зимой": 2709,
      "новые": 2710,
      "вато": 2711,
      "тики": 2712,
      "своё": 2713,
      "пки": 2714,
      "цес": 2715,
      "поса": 2716,
      "особо": 2717,
      "города": 2718,
      "дные": 2719,
      "даю": 2720,
      "кер": 2721,
      "алкого": 2722,
      "повто": 2723,
      "опера": 2724,
      "ческая": 2725,
      "похож": 2726,
      "вместо": 2727,
      "испа": 2728,
      "ваюсь": 2729,
      "льной": 2730,
      "информа": 2731,
      "мента": 2732,
      "другим": 2733,
      "ce": 2734,
      "невозможно": 2735,
      "носить": 2736,
      "заби": 2737,
      "рует": 2738,
      "бук": 2739,
      "рыба": 2740,
      "ав": 2741,
      "каких": 2742,
      "душа": 2743,
      "слов": 2744,
      "разному": 2745,
      "водить": 2746,
      "печа": 2747,
      "бая": 2748,
      "гут": 2749,
      "иметь": 2750,
      "сделай": 2751,
      "улице": 2752,
      "утром": 2753,
      "исклю": 2754,
      "англий": 2755,
      "кровь": 2756,
      "ствия": 2757,
      "видео": 2758,
      "фига": 2759,
      "ответы": 2760,
      "одни": 2761,
      "поставить": 2762,
      "рр": 2763,
      "мона": 2764,
      "мого": 2765,
      "тий": 2766,
      "бана": 2767,
      "большая": 2768,
      "начало": 2769,
      "другому": 2770,
      "будем": 2771,
      "книги": 2772,
      "go": 2773,
      "корот": 2774,
      "рома": 2775,
      "таком": 2776,
      "поискови": 2777,
      "рами": 2778,
      "гоня": 2779,
      "рекомен": 2780,
      "мец": 2781,
      "зор": 2782,
      "?)))": 2783,
      "вли": 2784,
      "яр": 2785,
      "лог": 2786,
      "суп": 2787,
      "ездить": 2788,
      "натура": 2789,
      "совето": 2790,
      "катего": 2791,
      "кос": 2792,
      "разных": 2793,
      "плать": 2794,
      "самого": 2795,
      "испол": 2796,
      "ёз": 2797,
      "лете": 2798,
      "боро": 2799,
      "требу": 2800,
      "ощу": 2801,
      "эконо": 2802,
      "знаком": 2803,
      "снять": 2804,
      "народ": 2805,
      "горе": 2806,
      "нуться": 2807,
      "знают": 2808,
      "хими": 2809,
      "300": 2810,
      "разо": 2811,
      "скажет": 2812,
      "носи": 2813,
      "смотрела": 2814,
      "берите": 2815,
      "плюс": 2816,
      "подроб": 2817,
      "зм": 2818,
      "зая": 2819,
      "думы": 2820,
      "жие": 2821,
      "группа": 2822,
      "воде": 2823,
      "правля": 2824,
      "рию": 2825,
      "полностью": 2826,
      "специали": 2827,
      "поряд": 2828,
      "гле": 2829,
      "оре": 2830,
      "напря": 2831,
      "кача": 2832,
      "ваще": 2833,
      "мест": 2834,
      "живе": 2835,
      "мети": 2836,
      "страшно": 2837,
      "майоне": 2838,
      "мешает": 2839,
      "узнать": 2840,
      "мужик": 2841,
      "\"...": 2842,
      "блу": 2843,
      "влия": 2844,
      "дали": 2845,
      "зако": 2846,
      "сия": 2847,
      "добавить": 2848,
      "тные": 2849,
      "дости": 2850,
      "машины": 2851,
      "другую": 2852,
      "ус": 2853,
      "жига": 2854,
      "говор": 2855,
      "=))": 2856,
      "серви": 2857,
      "воспита": 2858,
      "ri": 2859,
      "мили": 2860,
      "красивые": 2861,
      "собаки": 2862,
      "девочка": 2863,
      "гр": 2864,
      "рису": 2865,
      "своему": 2866,
      "возраст": 2867,
      "продук": 2868,
      "ne": 2869,
      "розо": 2870,
      "годи": 2871,
      "вей": 2872,
      "понял": 2873,
      "бря": 2874,
      "окру": 2875,
      ")))))))))))": 2876,
      "зайди": 2877,
      "цска": 2878,
      "дное": 2879,
      "гры": 2880,
      "фри": 2881,
      "пози": 2882,
      "реа": 2883,
      "откро": 2884,
      "бель": 2885,
      "сих": 2886,
      "твоя": 2887,
      "съе": 2888,
      "зарабаты": 2889,
      "опла": 2890,
      "пит": 2891,
      "абсолютно": 2892,
      "be": 2893,
      "водой": 2894,
      "ление": 2895,
      "чувства": 2896,
      "do": 2897,
      "чая": 2898,
      "дороги": 2899,
      "вайся": 2900,
      "стороны": 2901,
      "спартак": 2902,
      "нец": 2903,
      "отка": 2904,
      "щать": 2905,
      "анти": 2906,
      "молоко": 2907,
      "70": 2908,
      "влю": 2909,
      "упра": 2910,
      "рецеп": 2911,
      "кушать": 2912,
      "буты": 2913,
      "уверен": 2914,
      "мозг": 2915,
      "зал": 2916,
      "чел": 2917,
      "малы": 2918,
      "белый": 2919,
      "цов": 2920,
      "последний": 2921,
      "принципе": 2922,
      "as": 2923,
      "новую": 2924,
      "водите": 2925,
      "ошиба": 2926,
      "соверше": 2927,
      "вный": 2928,
      "прош": 2929,
      "банка": 2930,
      "креп": 2931,
      "счастья": 2932,
      "анали": 2933,
      "кота": 2934,
      "лок": 2935,
      "жени": 2936,
      "прекрасно": 2937,
      "странно": 2938,
      "тяжело": 2939,
      "хло": 2940,
      "ям": 2941,
      "циона": 2942,
      "круп": 2943,
      "круто": 2944,
      "пья": 2945,
      "кал": 2946,
      "голове": 2947,
      "стране": 2948,
      "скры": 2949,
      "варить": 2950,
      "покупать": 2951,
      "курить": 2952,
      "труд": 2953,
      "настроение": 2954,
      "домой": 2955,
      "жел": 2956,
      "гам": 2957,
      "ским": 2958,
      "первые": 2959,
      "адре": 2960,
      "слушай": 2961,
      "лица": 2962,
      "...))": 2963,
      "цент": 2964,
      "стут": 2965,
      "телефон": 2966,
      "ам": 2967,
      "недо": 2968,
      "ваете": 2969,
      "билет": 2970,
      "попробовать": 2971,
      "рено": 2972,
      "всему": 2973,
      "бай": 2974,
      "гей": 2975,
      "ветеринару": 2976,
      "тысяч": 2977,
      "энер": 2978,
      "неа": 2979,
      "недавно": 2980,
      "капу": 2981,
      "гости": 2982,
      "шусь": 2983,
      "брю": 2984,
      "поменя": 2985,
      "которой": 2986,
      "остальные": 2987,
      ".))": 2988,
      "нк": 2989,
      "никого": 2990,
      "деля": 2991,
      "менее": 2992,
      "сыпа": 2993,
      "психи": 2994,
      "специально": 2995,
      "тр": 2996,
      "устраи": 2997,
      "кошки": 2998,
      "логу": 2999,
      "цион": 3000,
      "))))))))))))": 3001,
      "существует": 3002,
      "поме": 3003,
      "моего": 3004,
      "лон": 3005,
      "любимый": 3006,
      "твои": 3007,
      "бку": 3008,
      "лик": 3009,
      "консу": 3010,
      "симпати": 3011,
      "дю": 3012,
      "пуга": 3013,
      "жут": 3014,
      "тельные": 3015,
      "получить": 3016,
      "ck": 3017,
      "жрать": 3018,
      "находи": 3019,
      "судя": 3020,
      "зову": 3021,
      "школе": 3022,
      "родителей": 3023,
      "com": 3024,
      "нным": 3025,
      "восто": 3026,
      "дете": 3027,
      "бин": 3028,
      "результат": 3029,
      "мело": 3030,
      "хом": 3031,
      "обма": 3032,
      "плати": 3033,
      "чками": 3034,
      "врача": 3035,
      "готови": 3036,
      "прикольно": 3037,
      "экономи": 3038,
      "мени": 3039,
      "процен": 3040,
      "сах": 3041,
      "сыр": 3042,
      "ing": 3043,
      "мозги": 3044,
      "ночью": 3045,
      "гни": 3046,
      "дку": 3047,
      "замуж": 3048,
      "другом": 3049,
      "нарко": 3050,
      "солнце": 3051,
      "чным": 3052,
      "выки": 3053,
      "1000": 3054,
      "фет": 3055,
      "шан": 3056,
      "говорю": 3057,
      "учить": 3058,
      "книга": 3059,
      "дения": 3060,
      "зам": 3061,
      "отсут": 3062,
      "шок": 3063,
      "говари": 3064,
      "даст": 3065,
      "забудь": 3066,
      "зерка": 3067,
      "99": 3068,
      "джа": 3069,
      "увы": 3070,
      "расти": 3071,
      "тело": 3072,
      "пропа": 3073,
      "соли": 3074,
      "снова": 3075,
      "служи": 3076,
      "человеку": 3077,
      "кисло": 3078,
      "шер": 3079,
      "знаете": 3080,
      "треть": 3081,
      "автомоби": 3082,
      "корм": 3083,
      "черный": 3084,
      "тет": 3085,
      "стои": 3086,
      "щик": 3087,
      "спокойно": 3088,
      "слышала": 3089,
      "кими": 3090,
      "пласти": 3091,
      "трен": 3092,
      "салат": 3093,
      "мас": 3094,
      "тина": 3095,
      "бума": 3096,
      "ию": 3097,
      "желу": 3098,
      "жид": 3099,
      "долла": 3100,
      "тельная": 3101,
      "работаю": 3102,
      "понравился": 3103,
      "закончи": 3104,
      "проверь": 3105,
      "берут": 3106,
      "россий": 3107,
      "согласен": 3108,
      "москва": 3109,
      "чную": 3110,
      "валась": 3111,
      "рых": 3112,
      "друж": 3113,
      "родители": 3114,
      "поп": 3115,
      "первое": 3116,
      "стараюсь": 3117,
      "пп": 3118,
      "ура": 3119,
      "бара": 3120,
      "музыку": 3121,
      "зря": 3122,
      "чере": 3123,
      "мел": 3124,
      "проис": 3125,
      "хода": 3126,
      "тых": 3127,
      "противо": 3128,
      "вечером": 3129,
      "no": 3130,
      "никакой": 3131,
      "пиро": 3132,
      "комна": 3133,
      "страхо": 3134,
      "альные": 3135,
      "качество": 3136,
      "скажут": 3137,
      "вста": 3138,
      "мах": 3139,
      "магазинах": 3140,
      "красный": 3141,
      "тку": 3142,
      "фрук": 3143,
      "чного": 3144,
      "скачать": 3145,
      "сходите": 3146,
      "кормить": 3147,
      "\"?": 3148,
      "иску": 3149,
      "хм": 3150,
      "напи": 3151,
      "насту": 3152,
      "бак": 3153,
      "крови": 3154,
      "желания": 3155,
      "умею": 3156,
      "ждение": 3157,
      "знакоми": 3158,
      "секре": 3159,
      "гал": 3160,
      "гулять": 3161,
      "спортом": 3162,
      "использу": 3163,
      "рэ": 3164,
      "тож": 3165,
      "ладно": 3166,
      "запи": 3167,
      "рисо": 3168,
      "выпи": 3169,
      "отде": 3170,
      "герма": 3171,
      "врач": 3172,
      "парня": 3173,
      "эро": 3174,
      "кура": 3175,
      "живет": 3176,
      "думаешь": 3177,
      "общаться": 3178,
      "звез": 3179,
      "взаи": 3180,
      "вероят": 3181,
      "23": 3182,
      "you": 3183,
      "ления": 3184,
      "вич": 3185,
      "рождения": 3186,
      "me": 3187,
      "тему": 3188,
      "струк": 3189,
      "крем": 3190,
      "короче": 3191,
      "янде": 3192,
      "огур": 3193,
      "молодец": 3194,
      "эх": 3195,
      "кости": 3196,
      "быв": 3197,
      "человеком": 3198,
      "измени": 3199,
      "посе": 3200,
      "конца": 3201,
      "метро": 3202,
      "пенси": 3203,
      "инсти": 3204,
      "американ": 3205,
      "ol": 3206,
      "здра": 3207,
      "напра": 3208,
      "дение": 3209,
      "верить": 3210,
      "первая": 3211,
      "правило": 3212,
      "индивиду": 3213,
      "дни": 3214,
      "исти": 3215,
      "ксе": 3216,
      "рези": 3217,
      "зага": 3218,
      "ческое": 3219,
      "бов": 3220,
      "чика": 3221,
      "пригла": 3222,
      "взгляд": 3223,
      "of": 3224,
      "др": 3225,
      "жди": 3226,
      "назна": 3227,
      "чивать": 3228,
      "гина": 3229,
      "цель": 3230,
      "хая": 3231,
      "сной": 3232,
      "фильмы": 3233,
      "переста": 3234,
      "полный": 3235,
      "смотрел": 3236,
      "вперед": 3237,
      "еги": 3238,
      "нём": 3239,
      "вери": 3240,
      "жают": 3241,
      "тран": 3242,
      "красивый": 3243,
      "собак": 3244,
      "фигня": 3245,
      "совершенно": 3246,
      "хво": 3247,
      "рение": 3248,
      "пута": 3249,
      "переда": 3250,
      "тельство": 3251,
      "строй": 3252,
      "блонди": 3253,
      "офор": 3254,
      "тная": 3255,
      "воль": 3256,
      "подруга": 3257,
      "внимания": 3258,
      "двор": 3259,
      "использо": 3260,
      "ночи": 3261,
      "сой": 3262,
      "собра": 3263,
      "выбра": 3264,
      "спосо": 3265,
      "сказала": 3266,
      "скучно": 3267,
      "пойти": 3268,
      "смысла": 3269,
      "ситуации": 3270,
      "вная": 3271,
      "каким": 3272,
      "мень": 3273,
      "вечер": 3274,
      "прочита": 3275,
      "дие": 3276,
      "отдох": 3277,
      "вьте": 3278,
      "увели": 3279,
      "сексу": 3280,
      "здоровья": 3281,
      "хрен": 3282,
      "шет": 3283,
      "режи": 3284,
      "льным": 3285,
      "сезон": 3286,
      "туры": 3287,
      "льного": 3288,
      "возвра": 3289,
      "бросить": 3290,
      "банке": 3291,
      "временем": 3292,
      "маленький": 3293,
      "зависимости": 3294,
      "24": 3295,
      "гна": 3296,
      "лл": 3297,
      "раздо": 3298,
      "мыс": 3299,
      "фина": 3300,
      "которое": 3301,
      "показа": 3302,
      "голова": 3303,
      "отдых": 3304,
      "рко": 3305,
      "стан": 3306,
      "гай": 3307,
      "ближе": 3308,
      "написать": 3309,
      "обратитесь": 3310,
      "ита": 3311,
      "намного": 3312,
      "лес": 3313,
      "выми": 3314,
      "тивно": 3315,
      "стало": 3316,
      "аллер": 3317,
      "глупы": 3318,
      "мся": 3319,
      "дадут": 3320,
      "любу": 3321,
      "папа": 3322,
      "кай": 3323,
      "жная": 3324,
      "ищу": 3325,
      "ябло": 3326,
      "летки": 3327,
      "факт": 3328,
      "арми": 3329,
      "узнаешь": 3330,
      "определи": 3331,
      "45": 3332,
      "экс": 3333,
      "явно": 3334,
      "сиди": 3335,
      "зубы": 3336,
      "стые": 3337,
      "внутри": 3338,
      "ожида": 3339,
      "ом": 3340,
      "годы": 3341,
      "вало": 3342,
      "руют": 3343,
      "стол": 3344,
      "тупо": 3345,
      "сухо": 3346,
      "щих": 3347,
      "грамо": 3348,
      "предпочита": 3349,
      "22": 3350,
      "вные": 3351,
      "вале": 3352,
      "вался": 3353,
      "богу": 3354,
      "большин": 3355,
      "зии": 3356,
      "da": 3357,
      "кали": 3358,
      "винова": 3359,
      "нье": 3360,
      "найдешь": 3361,
      "добрый": 3362,
      "цветы": 3363,
      "новая": 3364,
      "чества": 3365,
      "пах": 3366,
      "первого": 3367,
      "времен": 3368,
      "осталось": 3369,
      "грудь": 3370,
      "?...": 3371,
      "утро": 3372,
      "дор": 3373,
      "мари": 3374,
      "гер": 3375,
      "беспо": 3376,
      "организм": 3377,
      "сериал": 3378,
      "нашей": 3379,
      "кость": 3380,
      "дость": 3381,
      "процес": 3382,
      "нули": 3383,
      "такими": 3384,
      "еда": 3385,
      "нение": 3386,
      "досто": 3387,
      "прово": 3388,
      "вино": 3389,
      "руками": 3390,
      "тихо": 3391,
      "муча": 3392,
      "пола": 3393,
      "ниже": 3394,
      "стоят": 3395,
      "расска": 3396,
      "шампу": 3397,
      "ави": 3398,
      "алек": 3399,
      "ничем": 3400,
      "варе": 3401,
      "масла": 3402,
      "вень": 3403,
      "зови": 3404,
      "которую": 3405,
      "одном": 3406,
      "фар": 3407,
      "казать": 3408,
      "ir": 3409,
      "ибо": 3410,
      "куша": 3411,
      "гии": 3412,
      "хать": 3413,
      "связа": 3414,
      "запах": 3415,
      "поверь": 3416,
      "рах": 3417,
      "кара": 3418,
      "каль": 3419,
      "никуда": 3420,
      "таб": 3421,
      "чесно": 3422,
      "щения": 3423,
      "пишите": 3424,
      "колба": 3425,
      "хре": 3426,
      "эле": 3427,
      "чета": 3428,
      "дон": 3429,
      "мате": 3430,
      "куча": 3431,
      "многих": 3432,
      "рф": 3433,
      "уров": 3434,
      "тое": 3435,
      "некоторых": 3436,
      "гой": 3437,
      "био": 3438,
      "похожа": 3439,
      "слушаю": 3440,
      "смерти": 3441,
      "пожалуйста": 3442,
      "немец": 3443,
      "насколько": 3444,
      "детстве": 3445,
      "ждения": 3446,
      "диаг": 3447,
      "рек": 3448,
      "беру": 3449,
      "началь": 3450,
      "поняла": 3451,
      "нежно": 3452,
      "лых": 3453,
      "любому": 3454,
      "обратиться": 3455,
      "35": 3456,
      "bo": 3457,
      "жные": 3458,
      "ограни": 3459,
      "гораздо": 3460,
      "изба": 3461,
      "форму": 3462,
      "тала": 3463,
      "вещь": 3464,
      "пойдет": 3465,
      "терпеть": 3466,
      ".)))": 3467,
      "каро": 3468,
      "таре": 3469,
      "ческой": 3470,
      "доме": 3471,
      "кило": 3472,
      "вил": 3473,
      "мужем": 3474,
      "бегать": 3475,
      "няка": 3476,
      "лучшее": 3477,
      "джин": 3478,
      "гл": 3479,
      "идут": 3480,
      "обез": 3481,
      "срок": 3482,
      "сочи": 3483,
      "микро": 3484,
      "лук": 3485,
      "своими": 3486,
      "пожале": 3487,
      "вае": 3488,
      "паспорт": 3489,
      "зия": 3490,
      "обычный": 3491,
      "однако": 3492,
      "семья": 3493,
      "дёшь": 3494,
      "пишут": 3495,
      "vi": 3496,
      "вашей": 3497,
      "заболе": 3498,
      "мую": 3499,
      "приходит": 3500,
      "ляет": 3501,
      "гаре": 3502,
      "стиль": 3503,
      "подходит": 3504,
      "хие": 3505,
      "---": 3506,
      "ссе": 3507,
      "хх": 3508,
      "нака": 3509,
      "лежа": 3510,
      ")))))))))))))": 3511,
      "считать": 3512,
      "серьезно": 3513,
      ":))))": 3514,
      "us": 3515,
      "резать": 3516,
      "вокруг": 3517,
      "сков": 3518,
      "чужо": 3519,
      "первую": 3520,
      "играл": 3521,
      "смета": 3522,
      "ствием": 3523,
      "мышцы": 3524,
      "максимум": 3525,
      "зовут": 3526,
      "тест": 3527,
      "дая": 3528,
      "руко": 3529,
      "ственная": 3530,
      "книгу": 3531,
      "пользуюсь": 3532,
      "умер": 3533,
      "наи": 3534,
      "лого": 3535,
      "лома": 3536,
      "нят": 3537,
      "подарок": 3538,
      "красота": 3539,
      "еру": 3540,
      "осень": 3541,
      "печат": 3542,
      "тельства": 3543,
      "стый": 3544,
      "средство": 3545,
      "извест": 3546,
      "ава": 3547,
      "кля": 3548,
      "дайте": 3549,
      "достой": 3550,
      "сать": 3551,
      "сади": 3552,
      "прия": 3553,
      "зная": 3554,
      "компью": 3555,
      "выйдет": 3556,
      "смотрите": 3557,
      "света": 3558,
      "хлеб": 3559,
      "любую": 3560,
      "кожа": 3561,
      "ваша": 3562,
      "сижу": 3563,
      "тым": 3564,
      "ужели": 3565,
      "контро": 3566,
      "украи": 3567,
      "ук": 3568,
      "даль": 3569,
      "шее": 3570,
      "приве": 3571,
      "твор": 3572,
      "нюю": 3573,
      "органи": 3574,
      "офици": 3575,
      "сахар": 3576,
      "порядке": 3577,
      "тара": 3578,
      "деся": 3579,
      "заработать": 3580,
      "мато": 3581,
      "син": 3582,
      "приз": 3583,
      "сколь": 3584,
      "страны": 3585,
      "фер": 3586,
      "становится": 3587,
      "зла": 3588,
      "поменять": 3589,
      "льную": 3590,
      "числе": 3591,
      "пресс": 3592,
      "жур": 3593,
      "работают": 3594,
      "ступ": 3595,
      "правду": 3596,
      "нную": 3597,
      "нагруз": 3598,
      "воли": 3599,
      "мок": 3600,
      "рис": 3601,
      "любая": 3602,
      "путе": 3603,
      "случи": 3604,
      "водки": 3605,
      "сделал": 3606,
      "холодно": 3607,
      "животных": 3608,
      "слышал": 3609,
      "образование": 3610,
      "тря": 3611,
      "семей": 3612,
      "лями": 3613,
      "пила": 3614,
      "которым": 3615,
      "идите": 3616,
      "поце": 3617,
      "сохра": 3618,
      "разницы": 3619,
      "следо": 3620,
      "начать": 3621,
      "известно": 3622,
      "францу": 3623,
      "ими": 3624,
      "испор": 3625,
      "ото": 3626,
      "среди": 3627,
      "уз": 3628,
      "буд": 3629,
      "гаран": 3630,
      "грамм": 3631,
      "план": 3632,
      "вопросов": 3633,
      "стыдно": 3634,
      "and": 3635,
      "школу": 3636,
      "сверху": 3637,
      "продать": 3638,
      "ляр": 3639,
      "чок": 3640,
      "наша": 3641,
      "гол": 3642,
      "лоша": 3643,
      "лечить": 3644,
      "____": 3645,
      "щет": 3646,
      "неве": 3647,
      "кожи": 3648,
      "альная": 3649,
      "возрасте": 3650,
      "определе": 3651,
      "платье": 3652,
      "посовето": 3653,
      "нице": 3654,
      "мак": 3655,
      "желе": 3656,
      "живо": 3657,
      "стано": 3658,
      "газ": 3659,
      "переди": 3660,
      "гент": 3661,
      "ответить": 3662,
      "холоди": 3663,
      "секса": 3664,
      "профессиона": 3665,
      "очередь": 3666,
      "твер": 3667,
      "ужи": 3668,
      "неужели": 3669,
      "мото": 3670,
      "лени": 3671,
      "туре": 3672,
      "девушек": 3673,
      "дётся": 3674,
      "ик": 3675,
      "пка": 3676,
      "точка": 3677,
      "коше": 3678,
      "мою": 3679,
      "заба": 3680,
      "кин": 3681,
      "нула": 3682,
      "нью": 3683,
      "приме": 3684,
      "думал": 3685,
      "головой": 3686,
      "телем": 3687,
      "((((((((": 3688,
      "фрукты": 3689,
      "mo": 3690,
      "точки": 3691,
      "вили": 3692,
      "вопроса": 3693,
      "сказали": 3694,
      "отношусь": 3695,
      "питание": 3696,
      "комплек": 3697,
      "космети": 3698,
      "шлю": 3699,
      "теря": 3700,
      "мастер": 3701,
      "жей": 3702,
      "стали": 3703,
      "гах": 3704,
      "скажите": 3705,
      "конкретно": 3706,
      "лад": 3707,
      "мето": 3708,
      "цели": 3709,
      "думала": 3710,
      "работ": 3711,
      "автобу": 3712,
      "ческих": 3713,
      "повезло": 3714,
      "na": 3715,
      "вались": 3716,
      "мешь": 3717,
      "старый": 3718,
      "рази": 3719,
      "твоей": 3720,
      "беремен": 3721,
      "фотографи": 3722,
      "взрослы": 3723,
      "поздравляю": 3724,
      "зона": 3725,
      "решать": 3726,
      "жены": 3727,
      "руках": 3728,
      "тельное": 3729,
      "четы": 3730,
      "друзьями": 3731,
      "пку": 3732,
      "внутрен": 3733,
      "благода": 3734,
      "аааааааа": 3735,
      "ов": 3736,
      "хз": 3737,
      "локо": 3738,
      "лую": 3739,
      "живи": 3740,
      "гада": 3741,
      "лым": 3742,
      "общем": 3743,
      "ствовать": 3744,
      "нормальные": 3745,
      "коллек": 3746,
      "вашего": 3747,
      "смерть": 3748,
      "весело": 3749,
      "ала": 3750,
      "идёт": 3751,
      "повы": 3752,
      "подумать": 3753,
      "делаешь": 3754,
      "глубо": 3755,
      "вариантов": 3756,
      "маслом": 3757,
      "приходится": 3758,
      "карма": 3759,
      "госу": 3760,
      "добра": 3761,
      "прока": 3762,
      "дия": 3763,
      "купа": 3764,
      "большие": 3765,
      "след": 3766,
      "наверняка": 3767,
      "земля": 3768,
      "ищите": 3769,
      "te": 3770,
      "ti": 3771,
      "вечно": 3772,
      "сад": 3773,
      "тури": 3774,
      "степе": 3775,
      "жизне": 3776,
      "заняться": 3777,
      "праздник": 3778,
      "свадь": 3779,
      "поисковике": 3780,
      "новое": 3781,
      "поря": 3782,
      "растут": 3783,
      "ресто": 3784,
      "лее": 3785,
      "вечера": 3786,
      "поднима": 3787,
      "анге": 3788,
      "пойду": 3789,
      "дри": 3790,
      "ого": 3791,
      "реак": 3792,
      "забыть": 3793,
      "стю": 3794,
      "няет": 3795,
      "разли": 3796,
      "езжай": 3797,
      "фильма": 3798,
      "скорей": 3799,
      "дорогой": 3800,
      "шение": 3801,
      "цией": 3802,
      "своя": 3803,
      "многое": 3804,
      "представля": 3805,
      "помнить": 3806,
      "отношение": 3807,
      "мальчик": 3808,
      "што": 3809,
      "япон": 3810,
      "моё": 3811,
      "размер": 3812,
      "суб": 3813,
      "кей": 3814,
      "думай": 3815,
      "плане": 3816,
      "ющим": 3817,
      "оригина": 3818,
      "ur": 3819,
      "нести": 3820,
      "руй": 3821,
      "всей": 3822,
      "душу": 3823,
      "парь": 3824,
      "буль": 3825,
      "гули": 3826,
      "нормальная": 3827,
      "купила": 3828,
      "спросите": 3829,
      "история": 3830,
      "po": 3831,
      "употре": 3832,
      "фли": 3833,
      "яи": 3834,
      "раство": 3835,
      "знания": 3836,
      "первых": 3837,
      "граду": 3838,
      "вред": 3839,
      "яйцо": 3840,
      "уха": 3841,
      "пошли": 3842,
      "ходу": 3843,
      "мур": 3844,
      "пец": 3845,
      "бух": 3846,
      "строи": 3847,
      "предлага": 3848,
      "возможность": 3849,
      "умный": 3850,
      "группы": 3851,
      "пробовала": 3852,
      "чувствую": 3853,
      "недоста": 3854,
      "лучшая": 3855,
      "трав": 3856,
      "слава": 3857,
      "ключи": 3858,
      "временно": 3859,
      "компании": 3860,
      "впечат": 3861,
      "еже": 3862,
      "кл": 3863,
      "почки": 3864,
      "кош": 3865,
      "лена": 3866,
      "бит": 3867,
      "креди": 3868,
      "крути": 3869,
      "править": 3870,
      "продают": 3871,
      "курс": 3872,
      "комеди": 3873,
      "тари": 3874,
      "ложить": 3875,
      "прекра": 3876,
      "говоря": 3877,
      "любое": 3878,
      "никакого": 3879,
      "головы": 3880,
      "трудо": 3881,
      "решение": 3882,
      "песню": 3883,
      "помощью": 3884,
      "классно": 3885,
      "интересует": 3886,
      "мё": 3887,
      "спу": 3888,
      "тела": 3889,
      "дат": 3890,
      "шего": 3891,
      "отпуск": 3892,
      "чается": 3893,
      "духо": 3894,
      "туалет": 3895,
      "страшного": 3896,
      "подойдет": 3897,
      "государ": 3898,
      "ест": 3899,
      "наших": 3900,
      "рик": 3901,
      "тива": 3902,
      "паро": 3903,
      "прили": 3904,
      "пил": 3905,
      "футбо": 3906,
      "крайней": 3907,
      "un": 3908,
      "нкой": 3909,
      "наблю": 3910,
      "коми": 3911,
      "дак": 3912,
      "лой": 3913,
      "думает": 3914,
      "стран": 3915,
      "первой": 3916,
      "спец": 3917,
      "плохой": 3918,
      "здорово": 3919,
      "дан": 3920,
      "забей": 3921,
      "доби": 3922,
      "читы": 3923,
      "дур": 3924,
      "лях": 3925,
      "прежде": 3926,
      "ствуют": 3927,
      "довольно": 3928,
      "интересный": 3929,
      "отличный": 3930,
      "молча": 3931,
      "судьба": 3932,
      "отказа": 3933,
      "силы": 3934,
      "сигаре": 3935,
      "душ": 3936,
      "пива": 3937,
      "раздра": 3938,
      "покажи": 3939,
      "слышу": 3940,
      "ммм": 3941,
      "щую": 3942,
      "спорта": 3943,
      "net": 3944,
      "воб": 3945,
      "воспо": 3946,
      "вело": 3947,
      "разме": 3948,
      "бил": 3949,
      "библи": 3950,
      "платят": 3951,
      "смеш": 3952,
      "благо": 3953,
      "аптеке": 3954,
      "ad": 3955,
      "зма": 3956,
      "лке": 3957,
      "сбер": 3958,
      "тесто": 3959,
      "сере": 3960,
      "нулся": 3961,
      "жайте": 3962,
      "второе": 3963,
      "ровки": 3964,
      "похожи": 3965,
      "займи": 3966,
      "видишь": 3967,
      "почитай": 3968,
      "ер": 3969,
      "ила": 3970,
      "умно": 3971,
      "ясно": 3972,
      "лев": 3973,
      "лежит": 3974,
      "жима": 3975,
      "стакан": 3976,
      "верно": 3977,
      "встрети": 3978,
      "серьёз": 3979,
      "уши": 3980,
      "распо": 3981,
      "роли": 3982,
      "семе": 3983,
      "выс": 3984,
      "няк": 3985,
      "зывают": 3986,
      "телеви": 3987,
      "всякие": 3988,
      "хозяй": 3989,
      "характер": 3990,
      "si": 3991,
      "льти": 3992,
      "суд": 3993,
      "которого": 3994,
      "фана": 3995,
      "машине": 3996,
      "мальчи": 3997,
      "гы": 3998,
      "фру": 3999,
      "фин": 4000,
      "кафе": 4001,
      "болит": 4002,
      "зить": 4003,
      "карты": 4004,
      "ееее": 4005,
      "обратно": 4006,
      "собаку": 4007,
      "взял": 4008,
      "ситуация": 4009,
      "чник": 4010,
      "эм": 4011,
      "товари": 4012,
      "моих": 4013,
      "шах": 4014,
      "путь": 4015,
      "брат": 4016,
      "добавля": 4017,
      "my": 4018,
      "жё": 4019,
      "нашла": 4020,
      "реза": 4021,
      "сос": 4022,
      "сутки": 4023,
      "чудо": 4024,
      "думают": 4025,
      "творо": 4026,
      "влияет": 4027,
      "ах": 4028,
      "шёл": 4029,
      "това": 4030,
      "немно": 4031,
      "вов": 4032,
      "вица": 4033,
      "разбира": 4034,
      "тянет": 4035,
      "плохая": 4036,
      "помоему": 4037,
      "зелё": 4038,
      "желаю": 4039,
      "всяких": 4040,
      "ужасно": 4041,
      "радость": 4042,
      "удовольствием": 4043,
      "co": 4044,
      "диет": 4045,
      "руга": 4046,
      "скре": 4047,
      "зуб": 4048,
      "ссия": 4049,
      "играют": 4050,
      "количество": 4051,
      "динамо": 4052,
      "упраж": 4053,
      "sp": 4054,
      "ани": 4055,
      "влюби": 4056,
      "ниче": 4057,
      "медве": 4058,
      "кух": 4059,
      "скор": 4060,
      "цем": 4061,
      "щим": 4062,
      "терпи": 4063,
      "правила": 4064,
      "девушку": 4065,
      "отвечать": 4066,
      "сторону": 4067,
      "удовольствие": 4068,
      "сети": 4069,
      "штука": 4070,
      "лайн": 4071,
      "валя": 4072,
      "ваем": 4073,
      "провод": 4074,
      "рынке": 4075,
      "сын": 4076,
      "положить": 4077,
      "шоколад": 4078,
      "!?": 4079,
      "осторо": 4080,
      "хрень": 4081,
      "госпо": 4082,
      "проте": 4083,
      "туру": 4084,
      "ктов": 4085,
      "ментов": 4086,
      "умные": 4087,
      "состояние": 4088,
      "описа": 4089,
      "регуля": 4090,
      "дари": 4091,
      "стят": 4092,
      "миро": 4093,
      "геро": 4094,
      "конфет": 4095,
      "попроси": 4096,
      "одним": 4097,
      "тивный": 4098,
      "fe": 4099,
      "ева": 4100,
      "услу": 4101,
      "мамы": 4102,
      "приви": 4103,
      "кончи": 4104,
      "вторая": 4105,
      "ооо": 4106,
      "любые": 4107,
      "кно": 4108,
      "неш": 4109,
      "носит": 4110,
      "мене": 4111,
      "делали": 4112,
      "показать": 4113,
      "обеща": 4114,
      "универ": 4115,
      "for": 4116,
      "указа": 4117,
      "чко": 4118,
      "штра": 4119,
      "живать": 4120,
      "сможешь": 4121,
      "учеб": 4122,
      "пру": 4123,
      "успо": 4124,
      "кало": 4125,
      "речь": 4126,
      "лье": 4127,
      "ложе": 4128,
      "людь": 4129,
      "любимого": 4130,
      "клад": 4131,
      "роваться": 4132,
      "покупаю": 4133,
      "земле": 4134,
      "эффект": 4135,
      "сильнее": 4136,
      "происходит": 4137,
      "зажига": 4138,
      "вее": 4139,
      "придет": 4140,
      "жало": 4141,
      "пути": 4142,
      "преда": 4143,
      "каждой": 4144,
      "останется": 4145,
      "смешно": 4146,
      "родствен": 4147,
      "ответах": 4148,
      "минус": 4149,
      "электри": 4150,
      "пс": 4151,
      "тема": 4152,
      "водо": 4153,
      "вак": 4154,
      "мали": 4155,
      "баба": 4156,
      "шанс": 4157,
      "хай": 4158,
      "читала": 4159,
      "рассла": 4160,
      "помогут": 4161,
      "купил": 4162,
      "классный": 4163,
      "пустить": 4164,
      "боятся": 4165,
      ":(": 4166,
      "отель": 4167,
      "затем": 4168,
      "кир": 4169,
      "лям": 4170,
      "станда": 4171,
      "суши": 4172,
      "дного": 4173,
      "расста": 4174,
      "жок": 4175,
      "воздух": 4176,
      "пользоваться": 4177,
      "ошибаюсь": 4178,
      "ak": 4179,
      "аэро": 4180,
      "лла": 4181,
      "умне": 4182,
      "зале": 4183,
      "всеми": 4184,
      "последнее": 4185,
      "28": 4186,
      "понравится": 4187,
      "тащи": 4188,
      "темно": 4189,
      "сона": 4190,
      "выро": 4191,
      "выго": 4192,
      "выпить": 4193,
      "старо": 4194,
      "пира": 4195,
      "обес": 4196,
      "вернуть": 4197,
      "возраста": 4198,
      "доверя": 4199,
      "людьми": 4200,
      "аж": 4201,
      "днем": 4202,
      "ношу": 4203,
      "нитель": 4204,
      "давайте": 4205,
      "жаре": 4206,
      "шар": 4207,
      "плани": 4208,
      "опреде": 4209,
      "растет": 4210,
      "память": 4211,
      "ору": 4212,
      "рту": 4213,
      "снег": 4214,
      "духов": 4215,
      "мыло": 4216,
      "голос": 4217,
      "предпочитаю": 4218,
      "ахаха": 4219,
      "эго": 4220,
      "нового": 4221,
      "пох": 4222,
      "ремо": 4223,
      "модель": 4224,
      "зап": 4225,
      "150": 4226,
      "средства": 4227,
      "мужики": 4228,
      "талант": 4229,
      "нком": 4230,
      "фона": 4231,
      "поду": 4232,
      "посла": 4233,
      "поговорить": 4234,
      "познакоми": 4235,
      "проходит": 4236,
      "дипло": 4237,
      "цами": 4238,
      "парк": 4239,
      "amp": 4240,
      "точку": 4241,
      "нен": 4242,
      "ноз": 4243,
      "кака": 4244,
      "запе": 4245,
      "гиб": 4246,
      "имеют": 4247,
      "сматри": 4248,
      "ge": 4249,
      "крова": 4250,
      "тв": 4251,
      "потра": 4252,
      "гон": 4253,
      "горь": 4254,
      "ремон": 4255,
      "чении": 4256,
      "шем": 4257,
      "чистить": 4258,
      "развод": 4259,
      "превра": 4260,
      "форт": 4261,
      "разуме": 4262,
      "ненави": 4263,
      "искус": 4264,
      "нафиг": 4265,
      "пое": 4266,
      "посы": 4267,
      "лимо": 4268,
      "дем": 4269,
      "мило": 4270,
      "сик": 4271,
      "пала": 4272,
      "разговари": 4273,
      "0000": 4274,
      "возможности": 4275,
      "держит": 4276,
      "пускай": 4277,
      "ni": 4278,
      "обой": 4279,
      "уходит": 4280,
      "кори": 4281,
      "рина": 4282,
      "чивается": 4283,
      "фору": 4284,
      "начале": 4285,
      "молоды": 4286,
      "другая": 4287,
      "кнуть": 4288,
      "кора": 4289,
      "нигде": 4290,
      "реть": 4291,
      "рения": 4292,
      "ват": 4293,
      "закан": 4294,
      "рур": 4295,
      "тую": 4296,
      "жан": 4297,
      "зоо": 4298,
      "ством": 4299,
      "метров": 4300,
      "волну": 4301,
      "солне": 4302,
      "обратись": 4303,
      "квартиру": 4304,
      "ненавижу": 4305,
      "ето": 4306,
      "гос": 4307,
      "педи": 4308,
      "скому": 4309,
      "хах": 4310,
      "гражда": 4311,
      "сделала": 4312,
      "начни": 4313,
      "отдыхать": 4314,
      "случайно": 4315,
      "болезнь": 4316,
      "клей": 4317,
      "ями": 4318,
      "носят": 4319,
      "тип": 4320,
      "сидит": 4321,
      "приня": 4322,
      "привлека": 4323,
      "ht": 4324,
      "оп": 4325,
      "снить": 4326,
      "чком": 4327,
      "навли": 4328,
      "посу": 4329,
      "заку": 4330,
      "нутся": 4331,
      "инструк": 4332,
      "сделайте": 4333,
      "ent": 4334,
      "парься": 4335,
      "lu": 4336,
      "рку": 4337,
      "копи": 4338,
      "стный": 4339,
      "дочь": 4340,
      "проща": 4341,
      "лети": 4342,
      "третий": 4343,
      "бояться": 4344,
      "тд": 4345,
      "тату": 4346,
      "весна": 4347,
      "фило": 4348,
      "хороших": 4349,
      "страна": 4350,
      "любим": 4351,
      "любимой": 4352,
      "назвать": 4353,
      "уверена": 4354,
      "прошлом": 4355,
      "ауди": 4356,
      "гром": 4357,
      "опти": 4358,
      "лице": 4359,
      "ваз": 4360,
      "дала": 4361,
      "дания": 4362,
      "рин": 4363,
      "вец": 4364,
      "проя": 4365,
      "прие": 4366,
      "баб": 4367,
      "лучшие": 4368,
      "инстру": 4369,
      "делала": 4370,
      "перевод": 4371,
      "первом": 4372,
      "читай": 4373,
      "круче": 4374,
      "совме": 4375,
      "поставь": 4376,
      "принимать": 4377,
      "еды": 4378,
      "мю": 4379,
      "порт": 4380,
      "пробе": 4381,
      "бора": 4382,
      "чают": 4383,
      "питер": 4384,
      "преду": 4385,
      "насчет": 4386,
      "бирать": 4387,
      "ственное": 4388,
      "ственность": 4389,
      "поискать": 4390,
      "ехал": 4391,
      "проверя": 4392,
      "радио": 4393,
      "сказки": 4394,
      "огром": 4395,
      "отдельно": 4396,
      "индивидуально": 4397,
      "26": 4398,
      "агент": 4399,
      "вд": 4400,
      "едят": 4401,
      "масте": 4402,
      "тим": 4403,
      "бами": 4404,
      "рым": 4405,
      "стихи": 4406,
      "любимая": 4407,
      "любого": 4408,
      "хирур": 4409,
      "обычная": 4410,
      "199": 4411,
      "сравни": 4412,
      "овощи": 4413,
      "сервис": 4414,
      "дд": 4415,
      "сша": 4416,
      "ун": 4417,
      "нев": 4418,
      "нень": 4419,
      "пома": 4420,
      "моря": 4421,
      "мес": 4422,
      "сии": 4423,
      "дурак": 4424,
      "тупы": 4425,
      "стика": 4426,
      "делал": 4427,
      "спит": 4428,
      "открыть": 4429,
      "маленькие": 4430,
      "пройдёт": 4431,
      "позвони": 4432,
      "спрашивать": 4433,
      "медле": 4434,
      "печень": 4435,
      "гряз": 4436,
      "оны": 4437,
      "пю": 4438,
      "юри": 4439,
      "наме": 4440,
      "пов": 4441,
      "повод": 4442,
      "коз": 4443,
      "конья": 4444,
      "ниж": 4445,
      "ворот": 4446,
      "чисти": 4447,
      "мяса": 4448,
      "каждом": 4449,
      "площа": 4450,
      "уметь": 4451,
      "постара": 4452,
      "мороз": 4453,
      "улыба": 4454,
      "ba": 4455,
      "мог": 4456,
      "завод": 4457,
      "детям": 4458,
      "делайте": 4459,
      "фио": 4460,
      "контра": 4461,
      "берешь": 4462,
      "колле": 4463,
      "влади": 4464,
      "начинается": 4465,
      "выглядит": 4466,
      "ас": 4467,
      "лле": 4468,
      "ухо": 4469,
      "набери": 4470,
      "рода": 4471,
      "руку": 4472,
      "отме": 4473,
      "стую": 4474,
      "получилось": 4475,
      "проверено": 4476,
      "настоящий": 4477,
      "гармо": 4478,
      "является": 4479,
      "четыре": 4480,
      "ремонт": 4481,
      "окон": 4482,
      "ср": 4483,
      "эль": 4484,
      "поменьше": 4485,
      "поводу": 4486,
      "вон": 4487,
      "выпол": 4488,
      "пригото": 4489,
      "общения": 4490,
      "генера": 4491,
      "пройти": 4492,
      "точнее": 4493,
      "новой": 4494,
      "тел": 4495,
      "боже": 4496,
      "кажет": 4497,
      "имею": 4498,
      "карту": 4499,
      "умеет": 4500,
      "матч": 4501,
      "причина": 4502,
      "устраивает": 4503,
      "мл": 4504,
      "сможет": 4505,
      "сдать": 4506,
      "коем": 4507,
      "роста": 4508,
      "содержа": 4509,
      "слабы": 4510,
      "холод": 4511,
      "москвы": 4512,
      "салон": 4513,
      "велоси": 4514,
      "шпи": 4515,
      "тона": 4516,
      "рет": 4517,
      "вании": 4518,
      "чуде": 4519,
      "вспомина": 4520,
      "скро": 4521,
      "болеть": 4522,
      "хвати": 4523,
      "телефо": 4524,
      "говорил": 4525,
      "цом": 4526,
      "сентя": 4527,
      "маленькая": 4528,
      "all": 4529,
      "каждому": 4530,
      "производ": 4531,
      "француз": 4532,
      "кошмар": 4533,
      "порой": 4534,
      "..)))": 4535,
      "дерь": 4536,
      "модно": 4537,
      "риться": 4538,
      "дольше": 4539,
      "меха": 4540,
      "тии": 4541,
      "читаю": 4542,
      "чках": 4543,
      "\"-": 4544,
      "поддержи": 4545,
      "предо": 4546,
      "своем": 4547,
      "тельности": 4548,
      "чья": 4549,
      "пление": 4550,
      "египет": 4551,
      "иду": 4552,
      "сдох": 4553,
      "пошла": 4554,
      "жете": 4555,
      "белые": 4556,
      "бир": 4557,
      "шает": 4558,
      "выйти": 4559,
      "трех": 4560,
      "имени": 4561,
      "убий": 4562,
      "чемпиона": 4563,
      "документы": 4564,
      "дверь": 4565,
      "уточ": 4566,
      "нета": 4567,
      "нара": 4568,
      "рица": 4569,
      "макаро": 4570,
      "пает": 4571,
      "жим": 4572,
      "детский": 4573,
      "преле": 4574,
      "помой": 4575,
      "хотеть": 4576,
      "игро": 4577,
      "природа": 4578,
      "уровень": 4579,
      "сосед": 4580,
      "au": 4581,
      "ki": 4582,
      "ver": 4583,
      "оказа": 4584,
      "насе": 4585,
      "растя": 4586,
      "секу": 4587,
      "кули": 4588,
      "мит": 4589,
      "нька": 4590,
      "жий": 4591,
      "гаи": 4592,
      "гине": 4593,
      "кефир": 4594,
      "целый": 4595,
      "ственные": 4596,
      "тельность": 4597,
      "плохие": 4598,
      "сторон": 4599,
      "ребенку": 4600,
      "футболи": 4601,
      "опас": 4602,
      "сердца": 4603,
      "необходимо": 4604,
      "ух": 4605,
      "вость": 4606,
      "дея": 4607,
      "зации": 4608,
      "прогу": 4609,
      "соле": 4610,
      "писы": 4611,
      "хороши": 4612,
      "2000": 4613,
      "появля": 4614,
      "чемпион": 4615,
      "продукты": 4616,
      "ровно": 4617,
      "ревно": 4618,
      "лови": 4619,
      "маме": 4620,
      "кусо": 4621,
      "комфорт": 4622,
      "))))))))))))))": 4623,
      "щает": 4624,
      "насла": 4625,
      "однажды": 4626,
      "идиот": 4627,
      "аппет": 4628,
      "следующий": 4629,
      "зеленый": 4630,
      "!...": 4631,
      "пробу": 4632,
      "тится": 4633,
      "цам": 4634,
      "смея": 4635,
      "мороже": 4636,
      "витамины": 4637,
      "gt": 4638,
      "op": 4639,
      "ока": 4640,
      "копей": 4641,
      "щен": 4642,
      "красить": 4643,
      "покупай": 4644,
      "собираюсь": 4645,
      "охота": 4646,
      "дорогая": 4647,
      "he": 4648,
      "ввиду": 4649,
      "дене": 4650,
      "заработа": 4651,
      "мимо": 4652,
      "жил": 4653,
      "знание": 4654,
      "ктора": 4655,
      "оставить": 4656,
      "фель": 4657,
      "поймешь": 4658,
      "животное": 4659,
      "выбирать": 4660,
      "природе": 4661,
      "организма": 4662,
      "команда": 4663,
      "сахара": 4664,
      "эффек": 4665,
      "диета": 4666,
      "su": 4667,
      "иска": 4668,
      "фло": 4669,
      "костю": 4670,
      "мощ": 4671,
      "сел": 4672,
      "выбрать": 4673,
      "меняй": 4674,
      "вного": 4675,
      "водка": 4676,
      "проверить": 4677,
      "офиге": 4678,
      "беременность": 4679,
      "извини": 4680,
      "увидеть": 4681,
      "хомя": 4682,
      "пушки": 4683,
      "простой": 4684,
      "твое": 4685,
      "мммм": 4686,
      "мечты": 4687,
      "иться": 4688,
      "договор": 4689,
      "серии": 4690,
      "хок": 4691,
      "рука": 4692,
      "бежать": 4693,
      "чительно": 4694,
      "паца": 4695,
      "жира": 4696,
      "мысле": 4697,
      "гугл": 4698,
      "пуль": 4699,
      "подъ": 4700,
      "ходите": 4701,
      "никам": 4702,
      "понятия": 4703,
      "женщину": 4704,
      "марш": 4705,
      "отдохнуть": 4706,
      "велосипе": 4707,
      "очки": 4708,
      "фей": 4709,
      "эпи": 4710,
      "топли": 4711,
      "нили": 4712,
      "водит": 4713,
      "вере": 4714,
      "дишь": 4715,
      "выпуска": 4716,
      "бас": 4717,
      "никами": 4718,
      "спир": 4719,
      "области": 4720,
      "старше": 4721,
      "использовать": 4722,
      "путеше": 4723,
      "мля": 4724,
      "рк": 4725,
      "юр": 4726,
      "жесто": 4727,
      "силу": 4728,
      "комп": 4729,
      "ходила": 4730,
      "любите": 4731,
      "смотрят": 4732,
      "ссылку": 4733,
      "считается": 4734,
      "называют": 4735,
      "пробовали": 4736,
      "состоянии": 4737,
      "улыб": 4738,
      "майонез": 4739,
      "финан": 4740,
      "счёт": 4741,
      "ука": 4742,
      "шлы": 4743,
      "нож": 4744,
      "лекар": 4745,
      "дире": 4746,
      "шай": 4747,
      "страх": 4748,
      "слома": 4749,
      "рование": 4750,
      "учись": 4751,
      "знакомых": 4752,
      "золото": 4753,
      "удиви": 4754,
      "помидо": 4755,
      "здрав": 4756,
      "хит": 4757,
      "толку": 4758,
      "реал": 4759,
      "данный": 4760,
      "руба": 4761,
      "выхо": 4762,
      "приобре": 4763,
      "гара": 4764,
      "мерт": 4765,
      "написал": 4766,
      "варианты": 4767,
      "окружа": 4768,
      "ke": 4769,
      "mi": 4770,
      "фы": 4771,
      "посо": 4772,
      "повыше": 4773,
      "кошек": 4774,
      "задума": 4775,
      "забыл": 4776,
      "видать": 4777,
      "куро": 4778,
      "знал": 4779,
      "знаем": 4780,
      "стира": 4781,
      "стесня": 4782,
      "скла": 4783,
      "водку": 4784,
      "компания": 4785,
      "научиться": 4786,
      "отец": 4787,
      "контакте": 4788,
      "рьер": 4789,
      "гинеколо": 4790,
      "изна": 4791,
      "спер": 4792,
      "тник": 4793,
      "заставля": 4794,
      "стка": 4795,
      "село": 4796,
      "соци": 4797,
      "любимым": 4798,
      "служ": 4799,
      "остается": 4800,
      "аккура": 4801,
      "автор": 4802,
      "плохого": 4803,
      "считают": 4804,
      "центра": 4805,
      "следует": 4806,
      "остров": 4807,
      "авгу": 4808,
      "27": 4809,
      "ap": 4810,
      "умира": 4811,
      "наконец": 4812,
      "коре": 4813,
      "кожу": 4814,
      "листь": 4815,
      "депре": 4816,
      "мода": 4817,
      "довать": 4818,
      "веди": 4819,
      "вина": 4820,
      "тили": 4821,
      "парт": 4822,
      "падает": 4823,
      "чушь": 4824,
      "полная": 4825,
      "позже": 4826,
      "черно": 4827,
      "умеют": 4828,
      "нервы": 4829,
      "образи": 4830,
      "кризи": 4831,
      "породы": 4832,
      "регуляр": 4833,
      "?..": 4834,
      "впереди": 4835,
      "тной": 4836,
      "небо": 4837,
      "коте": 4838,
      "рада": 4839,
      "каса": 4840,
      "вида": 4841,
      "беги": 4842,
      "прекрас": 4843,
      "шками": 4844,
      "молоком": 4845,
      "молодой": 4846,
      "свечи": 4847,
      "ыыыы": 4848,
      "обувь": 4849,
      "психологи": 4850,
      "бры": 4851,
      "мс": 4852,
      "рд": 4853,
      "япо": 4854,
      "лька": 4855,
      "замора": 4856,
      "сеть": 4857,
      "весной": 4858,
      "соеди": 4859,
      "цело": 4860,
      "прези": 4861,
      "гель": 4862,
      "парни": 4863,
      "семьи": 4864,
      "беременности": 4865,
      ".,": 4866,
      "ара": 4867,
      "але": 4868,
      "цца": 4869,
      "кошку": 4870,
      "рем": 4871,
      "дание": 4872,
      "чиком": 4873,
      "сапо": 4874,
      "сись": 4875,
      "били": 4876,
      "ровка": 4877,
      "слышать": 4878,
      "форме": 4879,
      "землю": 4880,
      "напишите": 4881,
      "ланд": 4882,
      "догово": 4883,
      "петь": 4884,
      "привя": 4885,
      "ням": 4886,
      "стари": 4887,
      "фика": 4888,
      "первым": 4889,
      "будущее": 4890,
      "нормальное": 4891,
      "подруги": 4892,
      "классная": 4893,
      "бабушка": 4894,
      "рекомендую": 4895,
      "процентов": 4896,
      "джет": 4897,
      "сце": 4898,
      "узи": 4899,
      "убрать": 4900,
      "хро": 4901,
      "погода": 4902,
      "поговори": 4903,
      "поис": 4904,
      "кает": 4905,
      "лец": 4906,
      "жест": 4907,
      "выя": 4908,
      "шашлы": 4909,
      "требо": 4910,
      "пления": 4911,
      "понравилась": 4912,
      "таблетки": 4913,
      "\"!": 4914,
      "йо": 4915,
      "уто": 4916,
      "чне": 4917,
      "маски": 4918,
      "веще": 4919,
      "жении": 4920,
      "дил": 4921,
      "жили": 4922,
      "бабы": 4923,
      "гугле": 4924,
      "остальных": 4925,
      "твоего": 4926,
      "one": 4927,
      "октя": 4928,
      "возьмут": 4929,
      "вашем": 4930,
      "реклама": 4931,
      "взаимо": 4932,
      "гнать": 4933,
      "степени": 4934,
      "вобще": 4935,
      "валю": 4936,
      "деква": 4937,
      "дается": 4938,
      "задумы": 4939,
      "дока": 4940,
      "придётся": 4941,
      "халя": 4942,
      "сына": 4943,
      "работо": 4944,
      "подальше": 4945,
      "сексом": 4946,
      "следую": 4947,
      "уйти": 4948,
      "элемен": 4949,
      "поиске": 4950,
      "ане": 4951,
      "нкт": 4952,
      "ёте": 4953,
      "неправильно": 4954,
      "пофиг": 4955,
      "лак": 4956,
      "рукой": 4957,
      "мужу": 4958,
      "шения": 4959,
      "пакет": 4960,
      "предложи": 4961,
      "ine": 4962,
      "отвечаю": 4963,
      "качества": 4964,
      "порода": 4965,
      "пробовал": 4966,
      "квартире": 4967,
      "глупость": 4968,
      "ребёнка": 4969,
      "романти": 4970,
      "появится": 4971,
      "спро": 4972,
      "ната": 4973,
      "санд": 4974,
      "строить": 4975,
      "свете": 4976,
      "почту": 4977,
      "вкуснее": 4978,
      "девочки": 4979,
      "фирмы": 4980,
      "адрес": 4981,
      "большинство": 4982,
      "шся": 4983,
      "неси": 4984,
      "кок": 4985,
      "рад": 4986,
      "москов": 4987,
      "чее": 4988,
      "ческого": 4989,
      "дочка": 4990,
      "отзы": 4991,
      "люсь": 4992,
      "пая": 4993,
      "бам": 4994,
      "перё": 4995,
      "имхо": 4996,
      "врачи": 4997,
      "оборо": 4998,
      "хорошей": 4999,
      "снимать": 5000,
      "шампан": 5001,
      "бороться": 5002,
      "процесс": 5003,
      "стандарт": 5004,
      "жко": 5005,
      "ива": 5006,
      "хим": 5007,
      "поет": 5008,
      "нина": 5009,
      "зация": 5010,
      "серия": 5011,
      "пили": 5012,
      "тус": 5013,
      "пускать": 5014,
      "сном": 5015,
      "зоне": 5016,
      "оставля": 5017,
      "смело": 5018,
      "получишь": 5019,
      "понимаешь": 5020,
      "квадра": 5021,
      "бизне": 5022,
      "tu": 5023,
      "аген": 5024,
      "сми": 5025,
      "спло": 5026,
      "литера": 5027,
      "зала": 5028,
      "век": 5029,
      "соля": 5030,
      "град": 5031,
      "самостоя": 5032,
      "разум": 5033,
      "стях": 5034,
      "соответственно": 5035,
      "джинсы": 5036,
      "mp": 5037,
      "ито": 5038,
      "онов": 5039,
      "тное": 5040,
      "торо": 5041,
      "ноя": 5042,
      "капита": 5043,
      "деду": 5044,
      "завя": 5045,
      "середи": 5046,
      "вера": 5047,
      "виться": 5048,
      "отрица": 5049,
      "пин": 5050,
      "детства": 5051,
      "меняется": 5052,
      "хам": 5053,
      "транс": 5054,
      "класса": 5055,
      "тельных": 5056,
      "брал": 5057,
      "твою": 5058,
      "любовью": 5059,
      "сделали": 5060,
      "понимать": 5061,
      "понимают": 5062,
      "улицу": 5063,
      "воспиты": 5064,
      "mail": 5065,
      "двигатель": 5066,
      "звучит": 5067,
      "жра": 5068,
      "опыта": 5069,
      "нала": 5070,
      "пок": 5071,
      "полага": 5072,
      "роз": 5073,
      "сель": 5074,
      "желез": 5075,
      "профи": 5076,
      "чии": 5077,
      "преды": 5078,
      "зен": 5079,
      "фек": 5080,
      "сделает": 5081,
      "изменить": 5082,
      "привык": 5083,
      "чувствовать": 5084,
      "возвраща": 5085,
      "mar": 5086,
      "лкой": 5087,
      "пт": 5088,
      "ниц": 5089,
      "рели": 5090,
      "реали": 5091,
      "видит": 5092,
      "типо": 5093,
      "белая": 5094,
      "широ": 5095,
      "шаг": 5096,
      "полгода": 5097,
      "зут": 5098,
      "спирт": 5099,
      "акту": 5100,
      "продается": 5101,
      "умная": 5102,
      "согласи": 5103,
      "вкусный": 5104,
      "почитать": 5105,
      "водитель": 5106,
      "ребёнок": 5107,
      "будто": 5108,
      "здравству": 5109,
      "дря": 5110,
      "ора": 5111,
      "сфе": 5112,
      "сестра": 5113,
      "выз": 5114,
      "пише": 5115,
      "....)))": 5116,
      "стик": 5117,
      "жая": 5118,
      "ходил": 5119,
      "читал": 5120,
      "интересо": 5121,
      "играли": 5122,
      "женщине": 5123,
      "берет": 5124,
      "отличная": 5125,
      "дерево": 5126,
      "период": 5127,
      ";-)": 5128,
      "ано": 5129,
      "вных": 5130,
      "оке": 5131,
      "шля": 5132,
      "шлось": 5133,
      "торы": 5134,
      "нега": 5135,
      "говно": 5136,
      "давление": 5137,
      "рил": 5138,
      "рим": 5139,
      "маз": 5140,
      "лесу": 5141,
      "жерт": 5142,
      "диться": 5143,
      "жих": 5144,
      "такси": 5145,
      "льном": 5146,
      "тельного": 5147,
      "смотрит": 5148,
      "школы": 5149,
      "связи": 5150,
      "качестве": 5151,
      "дешево": 5152,
      "возьмите": 5153,
      "система": 5154,
      "джон": 5155,
      "классика": 5156,
      "условия": 5157,
      "похудеть": 5158,
      "творог": 5159,
      "уга": 5160,
      "юю": 5161,
      "лист": 5162,
      "важнее": 5163,
      "мани": 5164,
      "част": 5165,
      "прием": 5166,
      "примеру": 5167,
      "разде": 5168,
      "жарко": 5169,
      "сыгра": 5170,
      "возмож": 5171,
      "война": 5172,
      "добрые": 5173,
      "метра": 5174,
      "хотели": 5175,
      "заменить": 5176,
      "глазами": 5177,
      "животные": 5178,
      "курсе": 5179,
      "семье": 5180,
      "образом": 5181,
      "отсутствие": 5182,
      "яндекс": 5183,
      "!))))": 5184,
      "отор": 5185,
      "онер": 5186,
      "каблу": 5187,
      "вовсе": 5188,
      "моем": 5189,
      "честве": 5190,
      "оттуда": 5191,
      "бели": 5192,
      "бесе": 5193,
      "перец": 5194,
      "шутка": 5195,
      "мужчину": 5196,
      "умень": 5197,
      "лёг": 5198,
      "школа": 5199,
      "заранее": 5200,
      "предложить": 5201,
      "зарплата": 5202,
      "надоело": 5203,
      "предыду": 5204,
      "ed": 5205,
      "ion": 5206,
      "og": 5207,
      "джо": 5208,
      "тни": 5209,
      "товар": 5210,
      "навсегда": 5211,
      "нашел": 5212,
      "теп": 5213,
      "важ": 5214,
      "дизай": 5215,
      "титься": 5216,
      "стади": 5217,
      "разобра": 5218,
      "рыв": 5219,
      "хорошим": 5220,
      "дорогу": 5221,
      "специальные": 5222,
      "грибы": 5223,
      "почитайте": 5224,
      "выбирай": 5225,
      "бензин": 5226,
      "ставят": 5227,
      "медици": 5228,
      "придумали": 5229,
      "александ": 5230,
      "800": 5231,
      "бл": 5232,
      "ели": 5233,
      "зли": 5234,
      "тных": 5235,
      "ноль": 5236,
      "новых": 5237,
      "новым": 5238,
      "веса": 5239,
      "щему": 5240,
      "думаете": 5241,
      "одному": 5242,
      "ближай": 5243,
      "четвер": 5244,
      "торго": 5245,
      "марке": 5246,
      "взяли": 5247,
      "начинает": 5248,
      "курсы": 5249,
      "настроения": 5250,
      "метал": 5251,
      "температура": 5252,
      "бюджет": 5253,
      "аллергия": 5254,
      "55": 5255,
      "ka": 5256,
      "жке": 5257,
      "сп": 5258,
      "недорого": 5259,
      "непонятно": 5260,
      "захочет": 5261,
      "стр": 5262,
      "ветер": 5263,
      "отте": 5264,
      "сал": 5265,
      "дык": 5266,
      "ходили": 5267,
      "зима": 5268,
      "ссии": 5269,
      "фамили": 5270,
      "никах": 5271,
      "свеже": 5272,
      "делом": 5273,
      "времена": 5274,
      "понимание": 5275,
      "задавать": 5276,
      "штук": 5277,
      "подумай": 5278,
      "консульти": 5279,
      "находится": 5280,
      "заморачи": 5281,
      "убор": 5282,
      "эр": 5283,
      "тае": 5284,
      "забыла": 5285,
      "домо": 5286,
      "современ": 5287,
      "нулась": 5288,
      "чим": 5289,
      "пау": 5290,
      "пало": 5291,
      "прий": 5292,
      "предела": 5293,
      "безопасно": 5294,
      "шоу": 5295,
      "вье": 5296,
      "вопросом": 5297,
      "полной": 5298,
      "остаться": 5299,
      "останови": 5300,
      "альных": 5301,
      "плохое": 5302,
      "самим": 5303,
      "идио": 5304,
      "фотки": 5305,
      "сумму": 5306,
      "сладкое": 5307,
      "английский": 5308,
      "ct": 5309,
      "афри": 5310,
      "бет": 5311,
      "уг": 5312,
      "убить": 5313,
      "ребя": 5314,
      "деби": 5315,
      "загля": 5316,
      "стки": 5317,
      "ришь": 5318,
      "доступ": 5319,
      "мазать": 5320,
      "сочета": 5321,
      "бег": 5322,
      "пригоди": 5323,
      "шикар": 5324,
      "пусто": 5325,
      "перво": 5326,
      "котором": 5327,
      "занимаюсь": 5328,
      "мозга": 5329,
      "стями": 5330,
      "произве": 5331,
      "простите": 5332,
      "глупости": 5333,
      "ногти": 5334,
      "категории": 5335,
      "центр": 5336,
      "билеты": 5337,
      "мысль": 5338,
      "достоин": 5339,
      "официально": 5340,
      "dd": 5341,
      "od": 5342,
      "мда": 5343,
      "ржа": 5344,
      "набира": 5345,
      "вах": 5346,
      "заг": 5347,
      "чено": 5348,
      "чест": 5349,
      "ведли": 5350,
      "вик": 5351,
      "мудро": 5352,
      "рыбу": 5353,
      "онлайн": 5354,
      "фици": 5355,
      "чувак": 5356,
      "фоль": 5357,
      "спек": 5358,
      "красивой": 5359,
      "ааа": 5360,
      "ответа": 5361,
      "поиск": 5362,
      "сайтах": 5363,
      "справедли": 5364,
      "картошку": 5365,
      "украин": 5366,
      "фотку": 5367,
      "регистри": 5368,
      "эмоции": 5369,
      "боится": 5370,
      "массаж": 5371,
      "филосо": 5372,
      "перёд": 5373,
      "кнове": 5374,
      "нский": 5375,
      "могла": 5376,
      "лохо": 5377,
      "рито": 5378,
      "честь": 5379,
      "пев": 5380,
      "летит": 5381,
      "крой": 5382,
      "вяз": 5383,
      "правильный": 5384,
      "ствую": 5385,
      "сливо": 5386,
      "жизнью": 5387,
      "девушке": 5388,
      "сделают": 5389,
      "начинают": 5390,
      "ээээ": 5391,
      "дождь": 5392,
      "алкоголь": 5393,
      "влюбле": 5394,
      "av": 5395,
      "нада": 5396,
      "покажет": 5397,
      "тако": 5398,
      "запросто": 5399,
      "лопа": 5400,
      "провер": 5401,
      "руется": 5402,
      "питере": 5403,
      "обсу": 5404,
      "знала": 5405,
      "суток": 5406,
      "делается": 5407,
      "краска": 5408,
      "стери": 5409,
      "хорошую": 5410,
      "работай": 5411,
      "продав": 5412,
      "банки": 5413,
      "гормо": 5414,
      "помогают": 5415,
      "популяр": 5416,
      "поезд": 5417,
      "миллион": 5418,
      "разоча": 5419,
      "33": 5420,
      "литра": 5421,
      "кия": 5422,
      "кинь": 5423,
      "кипя": 5424,
      "бое": 5425,
      "отделе": 5426,
      "приклю": 5427,
      "бах": 5428,
      "тупой": 5429,
      "цене": 5430,
      "!!!)))": 5431,
      "гене": 5432,
      "тратить": 5433,
      "крым": 5434,
      "сказано": 5435,
      "фильмов": 5436,
      "ответов": 5437,
      "ехала": 5438,
      "знакомые": 5439,
      "музыки": 5440,
      "солны": 5441,
      "объясни": 5442,
      "парик": 5443,
      "челси": 5444,
      "ерунда": 5445,
      "ужин": 5446,
      "займись": 5447,
      "оконча": 5448,
      "озна": 5449,
      "носки": 5450,
      "нил": 5451,
      "рите": 5452,
      "маска": 5453,
      "приез": 5454,
      "жарить": 5455,
      "хами": 5456,
      "зим": 5457,
      "действует": 5458,
      "молод": 5459,
      "понятие": 5460,
      "продаются": 5461,
      "условно": 5462,
      "предложение": 5463,
      "олим": 5464,
      "ада": 5465,
      "сре": 5466,
      "ссу": 5467,
      "шве": 5468,
      "небес": 5469,
      "набор": 5470,
      "гора": 5471,
      "деш": 5472,
      "дому": 5473,
      "мик": 5474,
      "отвер": 5475,
      "чиков": 5476,
      "присут": 5477,
      "жаться": 5478,
      "подряд": 5479,
      "чусь": 5480,
      "возника": 5481,
      "молока": 5482,
      "россию": 5483,
      ",,,": 5484,
      "днев": 5485,
      "яяяя": 5486,
      "армии": 5487,
      "холодиль": 5488,
      "овча": 5489,
      "медленно": 5490,
      "фиолето": 5491,
      "удов": 5492,
      "тьфу": 5493,
      "коп": 5494,
      "ковый": 5495,
      "вора": 5496,
      "зади": 5497,
      "проч": 5498,
      "собы": 5499,
      "руйте": 5500,
      "газе": 5501,
      "бага": 5502,
      "препара": 5503,
      "фирма": 5504,
      "переме": 5505,
      "вспомни": 5506,
      "общение": 5507,
      "конку": 5508,
      "найдете": 5509,
      "трусы": 5510,
      "тормо": 5511,
      "русски": 5512,
      "настоящая": 5513,
      "зрения": 5514,
      "заявление": 5515,
      "рецепт": 5516,
      "бухгал": 5517,
      "вший": 5518,
      "ищет": 5519,
      "лго": 5520,
      "мка": 5521,
      "хри": 5522,
      "качать": 5523,
      "теста": 5524,
      "вовремя": 5525,
      "даёт": 5526,
      "риск": 5527,
      "маг": 5528,
      "мал": 5529,
      "дили": 5530,
      "мите": 5531,
      "пам": 5532,
      "жат": 5533,
      "пуши": 5534,
      "дность": 5535,
      "мное": 5536,
      "леты": 5537,
      "дороге": 5538,
      "расстоя": 5539,
      "получать": 5540,
      "одновременно": 5541,
      "февра": 5542,
      "нками": 5543,
      "случаях": 5544,
      "понимает": 5545,
      "позволяет": 5546,
      "заказ": 5547,
      "зарплату": 5548,
      "выходные": 5549,
      "дворня": 5550,
      "обезья": 5551,
      "++": 5552,
      "36": 5553,
      "справ": 5554,
      "напомина": 5555,
      "каран": 5556,
      "тации": 5557,
      "ваших": 5558,
      "лап": 5559,
      "выпе": 5560,
      "выпа": 5561,
      "отпусти": 5562,
      "пай": 5563,
      "гали": 5564,
      "жала": 5565,
      "чужие": 5566,
      "стоять": 5567,
      "смесь": 5568,
      "ссср": 5569,
      "среднем": 5570,
      "родился": 5571,
      "дворе": 5572,
      "причины": 5573,
      "причину": 5574,
      "барсело": 5575,
      "решил": 5576,
      "хлеба": 5577,
      "внешность": 5578,
      "живем": 5579,
      "чужой": 5580,
      "кирпи": 5581,
      "духовке": 5582,
      "ph": 5583,
      "агре": 5584,
      "дэ": 5585,
      "нё": 5586,
      "национа": 5587,
      "личку": 5588,
      "чтоли": 5589,
      "сотруд": 5590,
      "дива": 5591,
      "выходит": 5592,
      "сидят": 5593,
      "приче": 5594,
      "старые": 5595,
      "гает": 5596,
      "размера": 5597,
      "бабо": 5598,
      "фик": 5599,
      "зит": 5600,
      ")))))))))))))))": 5601,
      "летво": 5602,
      "любил": 5603,
      "любила": 5604,
      "говорили": 5605,
      "считает": 5606,
      "всякий": 5607,
      "готова": 5608,
      "соблю": 5609,
      "команды": 5610,
      "живёт": 5611,
      ":-))": 5612,
      "грамотно": 5613,
      "работода": 5614,
      "элементар": 5615,
      "250": 5616,
      "wh": 5617,
      "аку": 5618,
      "бке": 5619,
      "подели": 5620,
      "рон": 5621,
      "сятся": 5622,
      "дик": 5623,
      "песен": 5624,
      "буква": 5625,
      "жите": 5626,
      "хал": 5627,
      "мят": 5628,
      "смотрится": 5629,
      "метр": 5630,
      "список": 5631,
      "зайдите": 5632,
      "звезда": 5633,
      "удивля": 5634,
      "древ": 5635,
      "бабушки": 5636,
      "востор": 5637,
      "стоимость": 5638,
      "дружба": 5639,
      "упражнения": 5640,
      "man": 5641,
      "апель": 5642,
      "двое": 5643,
      "нду": 5644,
      "уте": 5645,
      "хла": 5646,
      "заря": 5647,
      "рие": 5648,
      "маму": 5649,
      "сокра": 5650,
      "чих": 5651,
      "пато": 5652,
      "ляют": 5653,
      "биться": 5654,
      "стики": 5655,
      "порту": 5656,
      "умеешь": 5657,
      "русские": 5658,
      "хорошем": 5659,
      "одежды": 5660,
      "скорость": 5661,
      "языка": 5662,
      "начинать": 5663,
      "победит": 5664,
      "чом": 5665,
      "подробно": 5666,
      "зарабатывать": 5667,
      "шампунь": 5668,
      "математи": 5669,
      "аватар": 5670,
      "украине": 5671,
      "случилось": 5672,
      "градусов": 5673,
      "\")": 5674,
      "блять": 5675,
      "очи": 5676,
      "фла": 5677,
      "эл": 5678,
      "торт": 5679,
      "пого": 5680,
      "дека": 5681,
      "куку": 5682,
      "курю": 5683,
      "баль": 5684,
      "извра": 5685,
      "брали": 5686,
      "начал": 5687,
      "видели": 5688,
      "ческим": 5689,
      "мозгов": 5690,
      "экзаме": 5691,
      "мужика": 5692,
      "съесть": 5693,
      "вероятно": 5694,
      "компьютер": 5695,
      "калорий": 5696,
      "ter": 5697,
      "конь": 5698,
      "раст": 5699,
      "роль": 5700,
      "лимон": 5701,
      "регули": 5702,
      "ловать": 5703,
      "чений": 5704,
      "женой": 5705,
      "мучи": 5706,
      "отстой": 5707,
      "принять": 5708,
      "жила": 5709,
      "старая": 5710,
      "стит": 5711,
      "циа": 5712,
      "целом": 5713,
      "фит": 5714,
      "сывать": 5715,
      "плачу": 5716,
      "любов": 5717,
      "второго": 5718,
      "красивое": 5719,
      "продавать": 5720,
      "почте": 5721,
      "детьми": 5722,
      "простить": 5723,
      "атр": 5724,
      "--------": 5725,
      "штаны": 5726,
      "господи": 5727,
      "%.": 5728,
      "еться": 5729,
      "непо": 5730,
      "кала": 5731,
      "дова": 5732,
      "жением": 5733,
      "муля": 5734,
      "прибы": 5735,
      "причём": 5736,
      "обстоя": 5737,
      "цену": 5738,
      "пусты": 5739,
      "долба": 5740,
      "анд": 5741,
      "помощи": 5742,
      "рованный": 5743,
      "спаса": 5744,
      "карта": 5745,
      "доброго": 5746,
      "обоих": 5747,
      "тивные": 5748,
      "окно": 5749,
      "логии": 5750,
      "большое": 5751,
      "интереснее": 5752,
      "198": 5753,
      "районе": 5754,
      "близких": 5755,
      "переживай": 5756,
      "относится": 5757,
      "суббо": 5758,
      "наслажда": 5759,
      "!..": 5760,
      "ex": 5761,
      "аро": 5762,
      "ждите": 5763,
      "чна": 5764,
      "тором": 5765,
      "тео": 5766,
      "дент": 5767,
      "допол": 5768,
      "мамой": 5769,
      "вила": 5770,
      "форе": 5771,
      "вампи": 5772,
      "писал": 5773,
      "трон": 5774,
      "другими": 5775,
      "потерять": 5776,
      "постель": 5777,
      "чёрный": 5778,
      "ul": 5779,
      "апре": 5780,
      "вверх": 5781,
      "тли": 5782,
      "уволь": 5783,
      "шется": 5784,
      "торе": 5785,
      "водя": 5786,
      "мотор": 5787,
      "доказа": 5788,
      "доктор": 5789,
      "мазь": 5790,
      "жене": 5791,
      "мура": 5792,
      "петер": 5793,
      "краше": 5794,
      "деньгами": 5795,
      "тради": 5796,
      "влением": 5797,
      "цветов": 5798,
      "обед": 5799,
      "сказка": 5800,
      "успоко": 5801,
      "удовлетво": 5802,
      "600": 5803,
      "we": 5804,
      "вши": 5805,
      "вперёд": 5806,
      "сплю": 5807,
      "настолько": 5808,
      "родов": 5809,
      "варень": 5810,
      "заре": 5811,
      "лоб": 5812,
      "маты": 5813,
      "дис": 5814,
      "тишь": 5815,
      "пипец": 5816,
      "чном": 5817,
      "стекло": 5818,
      "мерз": 5819,
      "помогу": 5820,
      "купили": 5821,
      "найдет": 5822,
      "борщ": 5823,
      "подарить": 5824,
      "марки": 5825,
      "морков": 5826,
      "логия": 5827,
      "ошибки": 5828,
      "языке": 5829,
      "воздуха": 5830,
      "половину": 5831,
      "извините": 5832,
      "олимпи": 5833,
      "400": 5834,
      "озе": 5835,
      "плы": 5836,
      "свиде": 5837,
      "угле": 5838,
      "номера": 5839,
      "код": 5840,
      "нис": 5841,
      "доче": 5842,
      "север": 5843,
      "хор": 5844,
      "вится": 5845,
      "приба": 5846,
      "разру": 5847,
      "надолго": 5848,
      "читайте": 5849,
      "ровали": 5850,
      "доброе": 5851,
      "обычные": 5852,
      "бойся": 5853,
      "функ": 5854,
      "написали": 5855,
      "аппара": 5856,
      "уважаю": 5857,
      "сравне": 5858,
      "иллю": 5859,
      "лечится": 5860,
      "реаги": 5861,
      "консульта": 5862,
      "автомобиль": 5863,
      "тарака": 5864,
      "предохра": 5865,
      "-))": 5866,
      "арен": 5867,
      "жных": 5868,
      "штан": 5869,
      "покры": 5870,
      "засу": 5871,
      "вирту": 5872,
      "вышла": 5873,
      "приста": 5874,
      "прилично": 5875,
      "развле": 5876,
      "стиле": 5877,
      "циф": 5878,
      "меняет": 5879,
      "гран": 5880,
      "цать": 5881,
      "найдите": 5882,
      "зывается": 5883,
      "худеть": 5884,
      "мужчиной": 5885,
      "альбом": 5886,
      "фотошо": 5887,
      "зайти": 5888,
      "клиен": 5889,
      "сайты": 5890,
      "одежду": 5891,
      "прикольный": 5892,
      "завтрак": 5893,
      "причин": 5894,
      "радости": 5895,
      "уроки": 5896,
      ":-)))": 5897,
      "бассей": 5898,
      "qu": 5899,
      "влюб": 5900,
      "неуда": 5901,
      "ногами": 5902,
      "попы": 5903,
      "рога": 5904,
      "гони": 5905,
      "вось": 5906,
      "ватель": 5907,
      "дано": 5908,
      "милая": 5909,
      "тира": 5910,
      "станешь": 5911,
      "газет": 5912,
      "обслужи": 5913,
      "разы": 5914,
      "....)": 5915,
      "сково": 5916,
      "подтвер": 5917,
      "дыха": 5918,
      "жной": 5919,
      "страну": 5920,
      "любимых": 5921,
      ":):)": 5922,
      "брось": 5923,
      "русских": 5924,
      "техно": 5925,
      "интересная": 5926,
      "уважение": 5927,
      "искрен": 5928,
      "постепе": 5929,
      "одинаково": 5930,
      "уксу": 5931,
      "реакция": 5932,
      "сплош": 5933,
      "38": 5934,
      "ждут": 5935,
      "клет": 5936,
      "оса": 5937,
      "нашли": 5938,
      "коша": 5939,
      "тал": 5940,
      "рена": 5941,
      "заморо": 5942,
      "ложь": 5943,
      "стры": 5944,
      "договори": 5945,
      "жено": 5946,
      "пропи": 5947,
      "провода": 5948,
      "тил": 5949,
      "пришли": 5950,
      "большую": 5951,
      "возле": 5952,
      "тянуть": 5953,
      "скри": 5954,
      "вопросе": 5955,
      "оставь": 5956,
      "обыкнове": 5957,
      "альбо": 5958,
      "ехали": 5959,
      "длинные": 5960,
      "баллов": 5961,
      "хвост": 5962,
      "осенью": 5963,
      "осторожно": 5964,
      "менедже": 5965,
      "дерьмо": 5966,
      ")...": 5967,
      "95": 5968,
      "pro": 5969,
      "опу": 5970,
      "чон": 5971,
      "вани": 5972,
      "состав": 5973,
      "куса": 5974,
      "шеб": 5975,
      "отпуска": 5976,
      "обмен": 5977,
      "гугли": 5978,
      "ходишь": 5979,
      "показывать": 5980,
      "расши": 5981,
      "завиду": 5982,
      "играю": 5983,
      "плевать": 5984,
      "всякую": 5985,
      "отвечу": 5986,
      "попасть": 5987,
      "ill": 5988,
      "джек": 5989,
      "уверенность": 5990,
      "единственный": 5991,
      "ищут": 5992,
      "сухой": 5993,
      "пахнет": 5994,
      "авиа": 5995,
      ":)))))": 5996,
      "_о": 5997,
      "bi": 5998,
      "бби": 5999,
      "двой": 6000,
      "иль": 6001,
      "иму": 6002,
      "мв": 6003,
      "сначало": 6004,
      "тони": 6005,
      "напа": 6006,
      "ковы": 6007,
      "карье": 6008,
      "тером": 6009,
      "заряд": 6010,
      "лога": 6011,
      "риф": 6012,
      "лево": 6013,
      "ходы": 6014,
      "рубе": 6015,
      "тировать": 6016,
      "мусор": 6017,
      "ляция": 6018,
      "гадость": 6019,
      "стет": 6020,
      "ответил": 6021,
      "корни": 6022,
      "марта": 6023,
      "исче": 6024,
      "отвеча": 6025,
      "волшеб": 6026,
      "словами": 6027,
      "красоты": 6028,
      "майонезом": 6029,
      "серьёзно": 6030,
      "==": 6031,
      "?))))": 6032,
      "глю": 6033,
      "зв": 6034,
      "тп": 6035,
      "укре": 6036,
      "вайтесь": 6037,
      "дед": 6038,
      "даче": 6039,
      "заки": 6040,
      "зача": 6041,
      "жену": 6042,
      "боре": 6043,
      "борь": 6044,
      "вики": 6045,
      "сосу": 6046,
      "дим": 6047,
      "минима": 6048,
      "тику": 6049,
      "пешком": 6050,
      "прика": 6051,
      "подня": 6052,
      "смогу": 6053,
      "брак": 6054,
      "зываю": 6055,
      "порно": 6056,
      "2012": 6057,
      "мужиков": 6058,
      "действия": 6059,
      "водится": 6060,
      "привычка": 6061,
      "требует": 6062,
      "зеркало": 6063,
      "желудок": 6064,
      "умнее": 6065,
      "ght": 6066,
      "сезона": 6067,
      "выиграет": 6068,
      "муже": 6069,
      "отпу": 6070,
      "число": 6071,
      "скачай": 6072,
      "книг": 6073,
      "ждает": 6074,
      "вышел": 6075,
      "дрож": 6076,
      "довольна": 6077,
      "радоваться": 6078,
      "фотка": 6079,
      "салоне": 6080,
      "выгодно": 6081,
      "копейки": 6082,
      "гет": 6083,
      "оле": 6084,
      "тк": 6085,
      "тке": 6086,
      "увлека": 6087,
      "почаще": 6088,
      "течении": 6089,
      "подходя": 6090,
      "правы": 6091,
      "большим": 6092,
      "странный": 6093,
      "вкуса": 6094,
      "стрем": 6095,
      "маркет": 6096,
      "арсе": 6097,
      "турции": 6098,
      "делить": 6099,
      "отношений": 6100,
      "ошиб": 6101,
      "идея": 6102,
      "существо": 6103,
      "далее": 6104,
      "упаков": 6105,
      "постели": 6106,
      "дорогие": 6107,
      "становятся": 6108,
      "порядок": 6109,
      "постепенно": 6110,
      "адеква": 6111,
      "ип": 6112,
      "уми": 6113,
      "шес": 6114,
      "шный": 6115,
      "неожида": 6116,
      "пога": 6117,
      "реле": 6118,
      "моим": 6119,
      "лоп": 6120,
      "рится": 6121,
      "мель": 6122,
      "жесть": 6123,
      "проконсульти": 6124,
      "дила": 6125,
      "дится": 6126,
      "...))))": 6127,
      "тиши": 6128,
      "нуло": 6129,
      "сара": 6130,
      "часы": 6131,
      "лука": 6132,
      "обман": 6133,
      "своём": 6134,
      "словом": 6135,
      "плакать": 6136,
      "полное": 6137,
      "студен": 6138,
      "груди": 6139,
      "нках": 6140,
      "фаль": 6141,
      "фами": 6142,
      "учится": 6143,
      "броса": 6144,
      "бросил": 6145,
      "русского": 6146,
      "природы": 6147,
      "совершен": 6148,
      "уууууууу": 6149,
      "текст": 6150,
      "гаранти": 6151,
      "рестора": 6152,
      "штраф": 6153,
      "120": 6154,
      "=))))": 6155,
      "вят": 6156,
      "инет": 6157,
      "ится": 6158,
      "рожать": 6159,
      "рент": 6160,
      "воскре": 6161,
      "залить": 6162,
      "ческую": 6163,
      "левой": 6164,
      "...,": 6165,
      "отвра": 6166,
      "отдать": 6167,
      "присе": 6168,
      "пришло": 6169,
      "приготовить": 6170,
      "бабки": 6171,
      "щики": 6172,
      "больни": 6173,
      "зывай": 6174,
      "пойдёт": 6175,
      "женщиной": 6176,
      "подарки": 6177,
      "жопу": 6178,
      "надежда": 6179,
      "ошибок": 6180,
      "курица": 6181,
      "дерев": 6182,
      "весьма": 6183,
      "бензи": 6184,
      "голубой": 6185,
      "75": 6186,
      "wi": 6187,
      "врят": 6188,
      "ждет": 6189,
      "сму": 6190,
      "робо": 6191,
      "рому": 6192,
      "кастри": 6193,
      "волю": 6194,
      "завести": 6195,
      "запомни": 6196,
      "рики": 6197,
      "пришлось": 6198,
      "гие": 6199,
      "изде": 6200,
      "цар": 6201,
      "цах": 6202,
      "траха": 6203,
      "полтора": 6204,
      "имеете": 6205,
      "твоих": 6206,
      "стых": 6207,
      "умение": 6208,
      "морко": 6209,
      "питания": 6210,
      "подойдёт": 6211,
      "ставлю": 6212,
      "одинаковые": 6213,
      "красав": 6214,
      "жениться": 6215,
      "яндексе": 6216,
      "немножко": 6217,
      "-)))": 6218,
      "ry": 6219,
      "гка": 6220,
      "зме": 6221,
      "зёт": 6222,
      "сё": 6223,
      "чными": 6224,
      "нечем": 6225,
      "ногу": 6226,
      "пост": 6227,
      "почку": 6228,
      "капли": 6229,
      "никола": 6230,
      "голь": 6231,
      "вашу": 6232,
      "моно": 6233,
      "дах": 6234,
      "зае": 6235,
      "селе": 6236,
      "процент": 6237,
      "видите": 6238,
      "бывать": 6239,
      "сау": 6240,
      "пивом": 6241,
      "раздел": 6242,
      "дывать": 6243,
      "сыром": 6244,
      "вспомнить": 6245,
      "сложнее": 6246,
      "зиму": 6247,
      "мясом": 6248,
      "жусь": 6249,
      "тельным": 6250,
      "строго": 6251,
      "тренер": 6252,
      "имеется": 6253,
      "правлять": 6254,
      "фак": 6255,
      "ключить": 6256,
      "правильное": 6257,
      "названия": 6258,
      "обидно": 6259,
      "определя": 6260,
      "сдавать": 6261,
      "утрам": 6262,
      "готовлю": 6263,
      "кладывать": 6264,
      "долларов": 6265,
      "беспоко": 6266,
      "прелесть": 6267,
      "означает": 6268,
      "конкурен": 6269,
      "210": 6270,
      "pe": 6271,
      "алы": 6272,
      "бру": 6273,
      "евре": 6274,
      "итали": 6275,
      "йор": 6276,
      "увидишь": 6277,
      "пова": 6278,
      "поту": 6279,
      "космо": 6280,
      "рав": 6281,
      "ровку": 6282,
      "теа": 6283,
      "промы": 6284,
      "бокс": 6285,
      "стомато": 6286,
      "пишет": 6287,
      "общи": 6288,
      "туфли": 6289,
      "главный": 6290,
      "дья": 6291,
      "трене": 6292,
      "зелень": 6293,
      "будущем": 6294,
      "скур": 6295,
      "последние": 6296,
      "утвер": 6297,
      "ситуацию": 6298,
      "оцени": 6299,
      "диагноз": 6300,
      "библиоте": 6301,
      "парикма": 6302,
      "ака": 6303,
      "спят": 6304,
      "фили": 6305,
      "нато": 6306,
      "наль": 6307,
      "дера": 6308,
      "дами": 6309,
      "допусти": 6310,
      "месту": 6311,
      "прогре": 6312,
      "дию": 6313,
      "кус": 6314,
      "высту": 6315,
      "выводы": 6316,
      "скажешь": 6317,
      "сможете": 6318,
      "слегка": 6319,
      "найду": 6320,
      "голов": 6321,
      "позвонить": 6322,
      "высоко": 6323,
      "количества": 6324,
      "участ": 6325,
      "тренировки": 6326,
      "заведи": 6327,
      "заметно": 6328,
      "замечательно": 6329,
      "информации": 6330,
      "лететь": 6331,
      "сексуально": 6332,
      "уровне": 6333,
      "посоветовать": 6334,
      "тупые": 6335,
      "кризис": 6336,
      "31": 6337,
      "цили": 6338,
      "юту": 6339,
      "неть": 6340,
      "невро": 6341,
      "набрать": 6342,
      "демо": 6343,
      "зама": 6344,
      "мели": 6345,
      "бывало": 6346,
      "руби": 6347,
      "выпей": 6348,
      "минера": 6349,
      "муз": 6350,
      "пейте": 6351,
      "обья": 6352,
      "гим": 6353,
      "шают": 6354,
      "скинуть": 6355,
      "персона": 6356,
      "каждая": 6357,
      "брала": 6358,
      "сменить": 6359,
      "говоришь": 6360,
      "тивная": 6361,
      "испыта": 6362,
      "занимайся": 6363,
      "сюжет": 6364,
      "растения": 6365,
      "зрение": 6366,
      "условиях": 6367,
      "рэп": 6368,
      "комедия": 6369,
      "хватило": 6370,
      "александр": 6371,
      "каранда": 6372,
      "37": 6373,
      "son": 6374,
      "алка": 6375,
      "дных": 6376,
      "нными": 6377,
      "каре": 6378,
      "нится": 6379,
      "макия": 6380,
      "меры": 6381,
      "веду": 6382,
      "хол": 6383,
      "соси": 6384,
      "соста": 6385,
      "дио": 6386,
      "рубин": 6387,
      "курт": 6388,
      "чия": 6389,
      "чам": 6390,
      "сток": 6391,
      "шит": 6392,
      "значения": 6393,
      "зой": 6394,
      "гео": 6395,
      "красивее": 6396,
      "учили": 6397,
      "походу": 6398,
      "взяла": 6399,
      "производите": 6400,
      "живешь": 6401,
      "психиа": 6402,
      "виноват": 6403,
      "макароны": 6404,
      "изнача": 6405,
      "fa": 6406,
      "ела": 6407,
      "свали": 6408,
      "ящик": 6409,
      "поехать": 6410,
      "колы": 6411,
      "горы": 6412,
      "ванию": 6413,
      "мала": 6414,
      "выле": 6415,
      "шед": 6416,
      "самым": 6417,
      "пад": 6418,
      "пик": 6419,
      "шивать": 6420,
      "гию": 6421,
      "остался": 6422,
      "крос": 6423,
      "хуй": 6424,
      "фильме": 6425,
      "решения": 6426,
      "танцы": 6427,
      "танцу": 6428,
      "страшная": 6429,
      "экскур": 6430,
      "родила": 6431,
      "влаж": 6432,
      "деревя": 6433,
      "программу": 6434,
      "love": 6435,
      "испания": 6436,
      "реале": 6437,
      "германии": 6438,
      "огурцы": 6439,
      "увеличи": 6440,
      "связано": 6441,
      "помидоры": 6442,
      "бмв": 6443,
      "джу": 6444,
      "уси": 6445,
      "ушла": 6446,
      "фле": 6447,
      "цкий": 6448,
      "неу": 6449,
      "неф": 6450,
      "ратор": 6451,
      "канику": 6452,
      "прокля": 6453,
      "виш": 6454,
      "кучу": 6455,
      "самых": 6456,
      "пают": 6457,
      "ктору": 6458,
      "работал": 6459,
      "работала": 6460,
      "ссию": 6461,
      "крутить": 6462,
      "стреми": 6463,
      "найдёшь": 6464,
      "попросить": 6465,
      "учитель": 6466,
      "играла": 6467,
      "трой": 6468,
      "бесполезно": 6469,
      "личное": 6470,
      "русском": 6471,
      "джей": 6472,
      "потреб": 6473,
      "растение": 6474,
      "болезни": 6475,
      "поищите": 6476,
      "проценты": 6477,
      "предупре": 6478,
      "29": 6479,
      "by": 6480,
      "жд": 6481,
      "хих": 6482,
      "нало": 6483,
      "поют": 6484,
      "пости": 6485,
      "пошло": 6486,
      "ковые": 6487,
      "розы": 6488,
      "варя": 6489,
      "заказать": 6490,
      "дора": 6491,
      "мам": 6492,
      "мане": 6493,
      "масле": 6494,
      "магни": 6495,
      "тись": 6496,
      "бутер": 6497,
      "рыб": 6498,
      "мыше": 6499,
      "зок": 6500,
      "женский": 6501,
      "щами": 6502,
      "расписа": 6503,
      "помогло": 6504,
      "кроли": 6505,
      "болею": 6506,
      "кремом": 6507,
      "никакие": 6508,
      "актри": 6509,
      "пьют": 6510,
      "покупала": 6511,
      "окна": 6512,
      "двери": 6513,
      "устрой": 6514,
      "взросле": 6515,
      "игрушки": 6516,
      "зерва": 6517,
      "рисовать": 6518,
      "блондинка": 6519,
      "fo": 6520,
      "млад": 6521,
      "огро": 6522,
      "пке": 6523,
      "усы": 6524,
      "поля": 6525,
      "посовету": 6526,
      "каби": 6527,
      "табли": 6528,
      "теме": 6529,
      "лече": 6530,
      "прожи": 6531,
      "рулит": 6532,
      "отсюда": 6533,
      "отжима": 6534,
      "бел": 6535,
      "разделе": 6536,
      "бат": 6537,
      "балан": 6538,
      "краски": 6539,
      "ктом": 6540,
      "любимые": 6541,
      "влении": 6542,
      "будьте": 6543,
      "бесконечно": 6544,
      "умереть": 6545,
      "испы": 6546,
      "красная": 6547,
      "ственным": 6548,
      "решить": 6549,
      "счастлив": 6550,
      "классе": 6551,
      "программа": 6552,
      "подобное": 6553,
      "красавица": 6554,
      "буквы": 6555,
      "открой": 6556,
      "регулярно": 6557,
      "багаж": 6558,
      "ga": 6559,
      "вко": 6560,
      "тём": 6561,
      "поры": 6562,
      "рос": 6563,
      "ваешься": 6564,
      "льки": 6565,
      "заслужи": 6566,
      "хой": 6567,
      "визи": 6568,
      "куба": 6569,
      "ньку": 6570,
      "тыми": 6571,
      "гавно": 6572,
      "разный": 6573,
      "цикл": 6574,
      "инфек": 6575,
      "хан": 6576,
      "предоста": 6577,
      "слева": 6578,
      "безусловно": 6579,
      "консер": 6580,
      "фильтр": 6581,
      "аквари": 6582,
      "сделаешь": 6583,
      "говорите": 6584,
      "гормона": 6585,
      "надё": 6586,
      "центре": 6587,
      "земли": 6588,
      "деревне": 6589,
      "двоих": 6590,
      "настрой": 6591,
      "вашему": 6592,
      "золотой": 6593,
      "квартиры": 6594,
      "чувствуешь": 6595,
      "грязь": 6596,
      "глупый": 6597,
      "ресторан": 6598,
      "аниме": 6599,
      "пюре": 6600,
      "лохотрон": 6601,
      "аз": 6602,
      "убира": 6603,
      "ному": 6604,
      "лина": 6605,
      "лили": 6606,
      "театр": 6607,
      "ремень": 6608,
      "лаз": 6609,
      "риско": 6610,
      "песе": 6611,
      "станут": 6612,
      "крат": 6613,
      "вности": 6614,
      "стен": 6615,
      "влечь": 6616,
      "начальник": 6617,
      "представи": 6618,
      "тного": 6619,
      "худ": 6620,
      "ствии": 6621,
      "удар": 6622,
      "мужчине": 6623,
      "получиться": 6624,
      "считай": 6625,
      "пяти": 6626,
      "ребенком": 6627,
      "родителям": 6628,
      "информация": 6629,
      "черепа": 6630,
      "нагрузки": 6631,
      "скромно": 6632,
      "ia": 6633,
      "гэ": 6634,
      "емый": 6635,
      "мну": 6636,
      "юмор": 6637,
      "топ": 6638,
      "корей": 6639,
      "нила": 6640,
      "прочитать": 6641,
      "вызывает": 6642,
      "бегом": 6643,
      "придумы": 6644,
      "луком": 6645,
      "пустят": 6646,
      "сыну": 6647,
      "возбу": 6648,
      "зова": 6649,
      "зени": 6650,
      "мужской": 6651,
      "террито": 6652,
      "черные": 6653,
      "марка": 6654,
      "готовы": 6655,
      "каждые": 6656,
      "хорошему": 6657,
      "одежда": 6658,
      "психо": 6659,
      "совесть": 6660,
      "объяснить": 6661,
      "образования": 6662,
      "июня": 6663,
      "телевизор": 6664,
      "разумеется": 6665,
      "петербур": 6666,
      "\"....": 6667,
      "um": 6668,
      "клё": 6669,
      "оз": 6670,
      "ота": 6671,
      "сгу": 6672,
      "явление": 6673,
      "наж": 6674,
      "родо": 6675,
      "лох": 6676,
      "доход": 6677,
      "мега": 6678,
      "вел": 6679,
      "синий": 6680,
      "сильный": 6681,
      "приду": 6682,
      "рыбы": 6683,
      "циями": 6684,
      "бесит": 6685,
      "девушкой": 6686,
      "2010": 6687,
      "банков": 6688,
      "проект": 6689,
      "одеть": 6690,
      "жалеть": 6691,
      "подожди": 6692,
      "существуют": 6693,
      "несет": 6694,
      "мышц": 6695,
      "кормите": 6696,
      "отношениях": 6697,
      "профессия": 6698,
      "нашем": 6699,
      "нашего": 6700,
      "****": 6701,
      "подробнее": 6702,
      "поменяй": 6703,
      "66": 6704,
      "дке": 6705,
      "кв": 6706,
      "мб": 6707,
      "ул": 6708,
      "угро": 6709,
      "шник": 6710,
      "кома": 6711,
      "ницей": 6712,
      "тепле": 6713,
      "терять": 6714,
      "могли": 6715,
      "ньте": 6716,
      "стам": 6717,
      "разгово": 6718,
      "шими": 6719,
      "детство": 6720,
      "инвали": 6721,
      "перестать": 6722,
      "хороша": 6723,
      "граф": 6724,
      "любителя": 6725,
      "помог": 6726,
      "грех": 6727,
      "можем": 6728,
      "советы": 6729,
      "турция": 6730,
      "приятного": 6731,
      "попало": 6732,
      "картошка": 6733,
      "унита": 6734,
      "хозяин": 6735,
      "сомневаюсь": 6736,
      "секрет": 6737,
      "хрена": 6738,
      "здравствуйте": 6739,
      "ps": 6740,
      "ta": 6741,
      "zay": 6742,
      "брен": 6743,
      "крю": 6744,
      "уе": 6745,
      "наслед": 6746,
      "течение": 6747,
      "дав": 6748,
      "даешь": 6749,
      "рись": 6750,
      "летать": 6751,
      "века": 6752,
      "составля": 6753,
      "мить": 6754,
      "отца": 6755,
      "придумать": 6756,
      "нях": 6757,
      "пиз": 6758,
      "пинг": 6759,
      "мыми": 6760,
      "меняют": 6761,
      "очевидно": 6762,
      "вность": 6763,
      "рабочий": 6764,
      "общество": 6765,
      "ровал": 6766,
      "найдется": 6767,
      "ключ": 6768,
      ")))))))))))))))))": 6769,
      "ориен": 6770,
      "тюрь": 6771,
      "ииии": 6772,
      "решает": 6773,
      "сборной": 6774,
      "запреще": 6775,
      "определить": 6776,
      "диагности": 6777,
      "воспомина": 6778,
      "испыты": 6779,
      "32": 6780,
      "ище": 6781,
      "пто": 6782,
      "налого": 6783,
      "поко": 6784,
      "пошел": 6785,
      "качай": 6786,
      "ничто": 6787,
      "лиф": 6788,
      "литься": 6789,
      "моги": 6790,
      "диско": 6791,
      "диск": 6792,
      "куби": 6793,
      "патри": 6794,
      "пишется": 6795,
      "разби": 6796,
      "бие": 6797,
      "презерва": 6798,
      "стену": 6799,
      "стенько": 6800,
      "лыми": 6801,
      "зию": 6802,
      "щается": 6803,
      "клапа": 6804,
      "втором": 6805,
      "вторую": 6806,
      "имму": 6807,
      "имеешь": 6808,
      "здоровый": 6809,
      "вкусня": 6810,
      "2009": 6811,
      "минуты": 6812,
      "продукт": 6813,
      "двумя": 6814,
      "массу": 6815,
      "взаимно": 6816,
      "холодильник": 6817,
      "послать": 6818,
      "солнышко": 6819,
      "изначально": 6820,
      "700": 6821,
      "gu": 6822,
      "або": 6823,
      "гвоз": 6824,
      "игре": 6825,
      "о_о": 6826,
      "спря": 6827,
      "недви": 6828,
      "назови": 6829,
      "ковая": 6830,
      "лировать": 6831,
      "темы": 6832,
      "данные": 6833,
      "зан": 6834,
      "зами": 6835,
      "боло": 6836,
      "выходить": 6837,
      "нусь": 6838,
      "беда": 6839,
      "рынок": 6840,
      "гий": 6841,
      "пуще": 6842,
      "герой": 6843,
      "долг": 6844,
      "трах": 6845,
      "показывает": 6846,
      "пойм": 6847,
      "телефона": 6848,
      "ключа": 6849,
      "знакомый": 6850,
      "поликли": 6851,
      "победа": 6852,
      "системы": 6853,
      "пельмени": 6854,
      "витаминов": 6855,
      "памяти": 6856,
      "оформ": 6857,
      "апреля": 6858,
      "опе": 6859,
      "юме": 6860,
      "поправи": 6861,
      "поколе": 6862,
      "корень": 6863,
      "момента": 6864,
      "мами": 6865,
      "хобби": 6866,
      "лут": 6867,
      "живой": 6868,
      "знак": 6869,
      "жар": 6870,
      "жалу": 6871,
      "жается": 6872,
      "скорую": 6873,
      "подве": 6874,
      "дности": 6875,
      "множе": 6876,
      "шой": 6877,
      "гени": 6878,
      "начали": 6879,
      "крылья": 6880,
      "фай": 6881,
      "тность": 6882,
      "учиты": 6883,
      "твоему": 6884,
      "черная": 6885,
      "стричь": 6886,
      "интересные": 6887,
      "европе": 6888,
      "начнут": 6889,
      "молчать": 6890,
      "лишний": 6891,
      "div": 6892,
      "половина": 6893,
      "положительно": 6894,
      "признак": 6895,
      "датчик": 6896,
      "!:)": 6897,
      "ca": 6898,
      "im": 6899,
      "ja": 6900,
      "jo": 6901,
      "браз": 6902,
      "вниз": 6903,
      "зз": 6904,
      "оль": 6905,
      "рты": 6906,
      "неприят": 6907,
      "независи": 6908,
      "кат": 6909,
      "захочешь": 6910,
      "забить": 6911,
      "ленин": 6912,
      "вывод": 6913,
      "мия": 6914,
      "пасса": 6915,
      "сур": 6916,
      "кефи": 6917,
      "очереди": 6918,
      "смотр": 6919,
      "зывали": 6920,
      "мужчинам": 6921,
      "черное": 6922,
      "ванием": 6923,
      "вкусные": 6924,
      "объек": 6925,
      "глазах": 6926,
      "многим": 6927,
      "сумма": 6928,
      "рекламу": 6929,
      "посадить": 6930,
      "банально": 6931,
      "микровол": 6932,
      "сиськи": 6933,
      "xd": 6934,
      "еба": 6935,
      "умом": 6936,
      "нафига": 6937,
      "ковой": 6938,
      "кад": 6939,
      "таться": 6940,
      "тень": 6941,
      "рика": 6942,
      "дога": 6943,
      "быст": 6944,
      "мила": 6945,
      "тиви": 6946,
      "туи": 6947,
      "жали": 6948,
      "сука": 6949,
      "поддер": 6950,
      "смог": 6951,
      "слой": 6952,
      "гений": 6953,
      "вкусу": 6954,
      "танце": 6955,
      "кристи": 6956,
      "потен": 6957,
      "счастью": 6958,
      "идеально": 6959,
      ",,,,": 6960,
      "удобнее": 6961,
      "решили": 6962,
      "комплекс": 6963,
      "фигура": 6964,
      "cev": 6965,
      "австра": 6966,
      "анализ": 6967,
      "егип": 6968,
      "порядо": 6969,
      "ly": 6970,
      "вдох": 6971,
      "зти": 6972,
      "чнее": 6973,
      "шпа": 6974,
      "некуда": 6975,
      "почка": 6976,
      "кап": 6977,
      "капель": 6978,
      "нир": 6979,
      "ваний": 6980,
      "модели": 6981,
      "зарабо": 6982,
      "жений": 6983,
      "собесе": 6984,
      "выпуск": 6985,
      "саду": 6986,
      "пище": 6987,
      "разговор": 6988,
      "нному": 6989,
      "подви": 6990,
      "хорош": 6991,
      "зик": 6992,
      "рования": 6993,
      "карбю": 6994,
      "желанию": 6995,
      "книжку": 6996,
      "спорте": 6997,
      "повезет": 6998,
      "объе": 6999,
      "светло": 7000,
      "большого": 7001,
      "произо": 7002,
      "смс": 7003,
      "тереть": 7004,
      "тысячи": 7005,
      "голубы": 7006,
      "рррр": 7007,
      "анализы": 7008,
      "германия": 7009,
      "диплом": 7010,
      "коричне": 7011,
      "мастера": 7012,
      "фамилия": 7013,
      "rom": 7014,
      "впервые": 7015,
      "ллек": 7016,
      "оф": 7017,
      "сны": 7018,
      "слю": 7019,
      "сзади": 7020,
      "уч": 7021,
      "учат": 7022,
      "член": 7023,
      "раста": 7024,
      "рожда": 7025,
      "тени": 7026,
      "дочки": 7027,
      "проце": 7028,
      "просту": 7029,
      "видят": 7030,
      "дизе": 7031,
      "выигры": 7032,
      "чистой": 7033,
      "духи": 7034,
      "значение": 7035,
      "инже": 7036,
      "компре": 7037,
      "скет": 7038,
      "помощ": 7039,
      "предмет": 7040,
      "езжу": 7041,
      "поймет": 7042,
      "тормоз": 7043,
      "акку": 7044,
      "русская": 7045,
      "варианта": 7046,
      "отлича": 7047,
      "литров": 7048,
      "группу": 7049,
      "уважать": 7050,
      "врядли": 7051,
      "состояния": 7052,
      "ставит": 7053,
      "регистрации": 7054,
      "зарплаты": 7055,
      "включи": 7056,
      "фантазии": 7057,
      "италия": 7058,
      "поцелу": 7059,
      "восполь": 7060,
      "телевизо": 7061,
      "листья": 7062,
      "пишешь": 7063,
      "ассо": 7064,
      "вк": 7065,
      "гнуть": 7066,
      "хру": 7067,
      "некогда": 7068,
      "ночка": 7069,
      "насы": 7070,
      "потя": 7071,
      "родной": 7072,
      "вален": 7073,
      "заодно": 7074,
      "просыпа": 7075,
      "визу": 7076,
      "пень": 7077,
      "чаем": 7078,
      "прими": 7079,
      "ляции": 7080,
      "обли": 7081,
      "щенка": 7082,
      "гин": 7083,
      "изу": 7084,
      "сути": 7085,
      "меняю": 7086,
      "женская": 7087,
      "интеллек": 7088,
      "человеке": 7089,
      "рья": 7090,
      "представь": 7091,
      "играй": 7092,
      "форми": 7093,
      "клип": 7094,
      "написала": 7095,
      "последняя": 7096,
      "компанию": 7097,
      "ish": 7098,
      "бьет": 7099,
      "удовольствия": 7100,
      "двигателя": 7101,
      "уйдет": 7102,
      "радует": 7103,
      "кольца": 7104,
      "потря": 7105,
      "goog": 7106,
      "кушай": 7107,
      "ежедне": 7108,
      "zaycev": 7109,
      "65": 7110,
      "per": 7111,
      "мь": 7112,
      "тёр": 7113,
      "уны": 7114,
      "юмора": 7115,
      "яблоки": 7116,
      "ёк": 7117,
      "ёх": 7118,
      "нений": 7119,
      "накры": 7120,
      "наказа": 7121,
      "поти": 7122,
      "покой": 7123,
      "пожела": 7124,
      "косто": 7125,
      "кален": 7126,
      "льными": 7127,
      "засо": 7128,
      "сете": 7129,
      "прокла": 7130,
      "муд": 7131,
      "мудре": 7132,
      "сики": 7133,
      "пришла": 7134,
      "пришел": 7135,
      "лягу": 7136,
      "скот": 7137,
      "шается": 7138,
      "суть": 7139,
      "менял": 7140,
      "каждую": 7141,
      "войны": 7142,
      "ответственность": 7143,
      "хуа": 7144,
      "хвата": 7145,
      "новке": 7146,
      "посмотрим": 7147,
      "интересное": 7148,
      "2008": 7149,
      "справа": 7150,
      "логично": 7151,
      "близко": 7152,
      "рекоменду": 7153,
      "малыш": 7154,
      "шансов": 7155,
      "бараба": 7156,
      "синте": 7157,
      "звёз": 7158,
      "недвижи": 7159,
      "ber": 7160,
      "est": 7161,
      "сбы": 7162,
      "умы": 7163,
      "ятся": 7164,
      "тош": 7165,
      "коты": 7166,
      "кане": 7167,
      "говя": 7168,
      "лечение": 7169,
      "проз": 7170,
      "ходов": 7171,
      "сочувствую": 7172,
      "ручки": 7173,
      "столо": 7174,
      "стаби": 7175,
      "пищи": 7176,
      "газо": 7177,
      "жую": 7178,
      "вопросу": 7179,
      "резюме": 7180,
      "слив": 7181,
      "всякой": 7182,
      "казах": 7183,
      "добавь": 7184,
      "приветик": 7185,
      "европей": 7186,
      "красной": 7187,
      "начн": 7188,
      "семью": 7189,
      "эффекти": 7190,
      "ветеринар": 7191,
      "солнца": 7192,
      "контакт": 7193,
      "обманы": 7194,
      "изменится": 7195,
      "коньяк": 7196,
      "fil": 7197,
      "sa": 7198,
      "sk": 7199,
      "жкой": 7200,
      "усили": 7201,
      "ножки": 7202,
      "родить": 7203,
      "така": 7204,
      "ливо": 7205,
      "теры": 7206,
      "горит": 7207,
      "мони": 7208,
      "замок": 7209,
      "веж": 7210,
      "жек": 7211,
      "соу": 7212,
      "приходят": 7213,
      "няют": 7214,
      "няется": 7215,
      "обал": 7216,
      "суха": 7217,
      "спон": 7218,
      "неее": 7219,
      "тельной": 7220,
      "врать": 7221,
      "зывайте": 7222,
      "стым": 7223,
      "марку": 7224,
      "собствен": 7225,
      "1500": 7226,
      "занимается": 7227,
      "последствия": 7228,
      "позвоните": 7229,
      "монта": 7230,
      "девчон": 7231,
      "отличное": 7232,
      "отече": 7233,
      "требуется": 7234,
      "руковод": 7235,
      "выходной": 7236,
      "сб": 7237,
      "хнет": 7238,
      "ющая": 7239,
      "ненько": 7240,
      "носа": 7241,
      "наберите": 7242,
      "радиа": 7243,
      "дачу": 7244,
      "зах": 7245,
      "стрю": 7246,
      "ческом": 7247,
      "массы": 7248,
      "сесть": 7249,
      "выпла": 7250,
      "тике": 7251,
      "отвали": 7252,
      "чип": 7253,
      "числа": 7254,
      "сидя": 7255,
      "пал": 7256,
      "льность": 7257,
      "судить": 7258,
      "подло": 7259,
      "верный": 7260,
      "чужих": 7261,
      "дорог": 7262,
      "нормальных": 7263,
      "учителя": 7264,
      "трога": 7265,
      "женщинам": 7266,
      "сергей": 7267,
      "ственности": 7268,
      "чувств": 7269,
      "зайцев": 7270,
      "горшок": 7271,
      "доволен": 7272,
      "турцию": 7273,
      "попада": 7274,
      "уважа": 7275,
      "принимают": 7276,
      "похуде": 7277,
      "лезть": 7278,
      "очередной": 7279,
      "ощущения": 7280,
      "оплачи": 7281,
      "шансы": 7282,
      "сигареты": 7283,
      "определё": 7284,
      "заканчивается": 7285,
      "велосипед": 7286,
      "аромат": 7287,
      "//": 7288,
      "pa": 7289,
      "входит": 7290,
      "сный": 7291,
      "тнее": 7292,
      "угу": 7293,
      "укро": 7294,
      "урод": 7295,
      "поверх": 7296,
      "даром": 7297,
      "верит": 7298,
      "кусок": 7299,
      "милый": 7300,
      "милан": 7301,
      "тивы": 7302,
      "муки": 7303,
      "!!))": 7304,
      "стоить": 7305,
      "жись": 7306,
      "изо": 7307,
      "сками": 7308,
      "подходят": 7309,
      "перей": 7310,
      "больницу": 7311,
      "думайте": 7312,
      "страха": 7313,
      "женные": 7314,
      "всём": 7315,
      "расход": 7316,
      "рассказать": 7317,
      "близи": 7318,
      "2011": 7319,
      "говорится": 7320,
      "узнаете": 7321,
      "ste": 7322,
      "наличии": 7323,
      "классные": 7324,
      "внимательно": 7325,
      "устано": 7326,
      "решила": 7327,
      "минуту": 7328,
      "америке": 7329,
      "сахаром": 7330,
      "держаться": 7331,
      "терпение": 7332,
      "картинки": 7333,
      "ощущение": 7334,
      "баксов": 7335,
      "________": 7336,
      "аппетит": 7337,
      "za": 7338,
      "ипоте": 7339,
      "одо": 7340,
      "эко": 7341,
      "нашу": 7342,
      "получше": 7343,
      "погулять": 7344,
      "раск": 7345,
      "лицу": 7346,
      "мотив": 7347,
      "ласко": 7348,
      "тически": 7349,
      "сильная": 7350,
      "пее": 7351,
      "нятся": 7352,
      "няюсь": 7353,
      "путин": 7354,
      "интуи": 7355,
      "ответили": 7356,
      "смотрели": 7357,
      "смотреться": 7358,
      "форд": 7359,
      "спросил": 7360,
      "видим": 7361,
      "гриб": 7362,
      "января": 7363,
      "занятие": 7364,
      "крайне": 7365,
      "белое": 7366,
      "уверены": 7367,
      "одиночество": 7368,
      "охла": 7369,
      "чеснок": 7370,
      "уровня": 7371,
      "граждан": 7372,
      "комфортно": 7373,
      "хоккей": 7374,
      "сковород": 7375,
      "каникулы": 7376,
      "34": 7377,
      "fi": 7378,
      "lan": 7379,
      "ok": 7380,
      "wor": 7381,
      "брь": 7382,
      "пл": 7383,
      "считы": 7384,
      "чков": 7385,
      "экра": 7386,
      "нении": 7387,
      "настой": 7388,
      "попить": 7389,
      "кона": 7390,
      "кари": 7391,
      "канал": 7392,
      "дого": 7393,
      "лечит": 7394,
      "ходе": 7395,
      "сож": 7396,
      "руйся": 7397,
      "выжи": 7398,
      "выгод": 7399,
      "шею": 7400,
      "сиби": 7401,
      "пел": 7402,
      "педа": 7403,
      "чах": 7404,
      "прикол": 7405,
      "жик": 7406,
      "тык": 7407,
      "бабло": 7408,
      "жах": 7409,
      "цепи": 7410,
      "вернуться": 7411,
      "дном": 7412,
      "ешьте": 7413,
      "конди": 7414,
      "скло": 7415,
      "показывают": 7416,
      "рассу": 7417,
      "грубо": 7418,
      "спеши": 7419,
      "стребо": 7420,
      "вляет": 7421,
      "годами": 7422,
      "осозна": 7423,
      "ственной": 7424,
      "парке": 7425,
      "формы": 7426,
      "движения": 7427,
      "180": 7428,
      "украина": 7429,
      "спрашиваешь": 7430,
      "ходятся": 7431,
      "придумал": 7432,
      "любых": 7433,
      "мульт": 7434,
      "поцелуй": 7435,
      "старости": 7436,
      "отзывы": 7437,
      "имуще": 7438,
      "морковь": 7439,
      "=(": 7440,
      "ир": 7441,
      "рный": 7442,
      "ржу": 7443,
      "сные": 7444,
      "уку": 7445,
      "швей": 7446,
      "ъя": 7447,
      "нео": 7448,
      "послушай": 7449,
      "коля": 7450,
      "рев": 7451,
      "вор": 7452,
      "водоро": 7453,
      "льян": 7454,
      "заклю": 7455,
      "забыли": 7456,
      "просит": 7457,
      "пропор": 7458,
      "чтото": 7459,
      "сою": 7460,
      "сопер": 7461,
      "...!": 7462,
      "чность": 7463,
      "смогла": 7464,
      "скими": 7465,
      "своло": 7466,
      "киев": 7467,
      "вообщем": 7468,
      "чьи": 7469,
      "хищ": 7470,
      "смотришь": 7471,
      "терна": 7472,
      "термо": 7473,
      "совпа": 7474,
      "машинка": 7475,
      "бросила": 7476,
      "новка": 7477,
      "жопа": 7478,
      "особенного": 7479,
      "наличие": 7480,
      "экспе": 7481,
      "подождать": 7482,
      "рубля": 7483,
      "держится": 7484,
      "красное": 7485,
      "выращи": 7486,
      "доверять": 7487,
      "клон": 7488,
      "новато": 7489,
      "сладкий": 7490,
      "овощ": 7491,
      "радуйся": 7492,
      "прошлое": 7493,
      "прошлого": 7494,
      "бумаги": 7495,
      "комнате": 7496,
      "беременна": 7497,
      "ухаживать": 7498,
      "раздражает": 7499,
      "кухне": 7500,
      "брыз": 7501,
      "самостоятельно": 7502,
      "апельси": 7503,
      "lt": 7504,
      "par": 7505,
      "дным": 7506,
      "еле": 7507,
      "здать": 7508,
      "пота": 7509,
      "реже": 7510,
      "востребо": 7511,
      "деб": 7512,
      "дог": 7513,
      "мае": 7514,
      "месси": 7515,
      "вещей": 7516,
      "кула": 7517,
      "сите": 7518,
      "буха": 7519,
      "разное": 7520,
      "бала": 7521,
      "баскет": 7522,
      "чую": 7523,
      "следить": 7524,
      "безопас": 7525,
      "грустно": 7526,
      "твоё": 7527,
      "глуби": 7528,
      "одея": 7529,
      "))))))))))))))))))": 7530,
      "стям": 7531,
      "красные": 7532,
      "деревь": 7533,
      "бьют": 7534,
      "максима": 7535,
      "ездил": 7536,
      "повторя": 7537,
      "исключительно": 7538,
      "десять": 7539,
      "оптими": 7540,
      "сентября": 7541,
      "смеяться": 7542,
      "39": 7543,
      "вкой": 7544,
      "днём": 7545,
      "ел": 7546,
      "егэ": 7547,
      "свари": 7548,
      "ушел": 7549,
      "некоторым": 7550,
      "повре": 7551,
      "коры": 7552,
      "нико": 7553,
      "делы": 7554,
      "лова": 7555,
      "кинуть": 7556,
      "лева": 7557,
      "жечь": 7558,
      "руль": 7559,
      "...?": 7560,
      "сиро": 7561,
      "нями": 7562,
      "пиц": 7563,
      "бия": 7564,
      "щиков": 7565,
      "перечи": 7566,
      "любопы": 7567,
      "остались": 7568,
      "пыль": 7569,
      "фен": 7570,
      "термина": 7571,
      "худе": 7572,
      "положено": 7573,
      "бросай": 7574,
      "король": 7575,
      "добавляю": 7576,
      "связь": 7577,
      "девушкам": 7578,
      "пытаюсь": 7579,
      "вкусное": 7580,
      "местах": 7581,
      "соседи": 7582,
      "сладкого": 7583,
      "картинка": 7584,
      "выглядеть": 7585,
      "глупые": 7586,
      "разговаривать": 7587,
      "костюм": 7588,
      "растёт": 7589,
      "андрей": 7590,
      "google": 7591,
      "der": 7592,
      "зри": 7593,
      "мг": 7594,
      "ост": 7595,
      "оку": 7596,
      "охра": 7597,
      "справи": 7598,
      "спрос": 7599,
      "улуч": 7600,
      "чм": 7601,
      "тологу": 7602,
      "налоги": 7603,
      "поеду": 7604,
      "водов": 7605,
      "дец": 7606,
      "лера": 7607,
      "пас": 7608,
      "стого": 7609,
      "гари": 7610,
      "развлека": 7611,
      "....))))": 7612,
      "скока": 7613,
      "праве": 7614,
      "преми": 7615,
      "компли": 7616,
      "больших": 7617,
      "гламур": 7618,
      "плате": 7619,
      "одически": 7620,
      "стресс": 7621,
      "зависть": 7622,
      "корре": 7623,
      "испуга": 7624,
      "банку": 7625,
      "гордость": 7626,
      "покупайте": 7627,
      "ort": 7628,
      "попал": 7629,
      "угол": 7630,
      "питаться": 7631,
      "прикольная": 7632,
      "девочку": 7633,
      "пожарить": 7634,
      "противно": 7635,
      "блюдо": 7636,
      "солью": 7637,
      "неплохой": 7638,
      "поисковик": 7639,
      "химия": 7640,
      "режим": 7641,
      "авито": 7642,
      "инструкции": 7643,
      "%,": 7644,
      "48": 7645,
      "аха": 7646,
      "иван": 7647,
      "одень": 7648,
      "услышать": 7649,
      "товой": 7650,
      "точный": 7651,
      "непри": 7652,
      "нереально": 7653,
      "нама": 7654,
      "кови": 7655,
      "тепла": 7656,
      "гори": 7657,
      "рец": 7658,
      "законо": 7659,
      "стная": 7660,
      "ченный": 7661,
      "ведро": 7662,
      "простран": 7663,
      "выез": 7664,
      "чак": 7665,
      "столе": 7666,
      "тыщ": 7667,
      "кен": 7668,
      "подчи": 7669,
      "верху": 7670,
      "комму": 7671,
      "переход": 7672,
      "сложный": 7673,
      "платит": 7674,
      "влен": 7675,
      "крема": 7676,
      "предска": 7677,
      "представить": 7678,
      "красивых": 7679,
      "смени": 7680,
      "актер": 7681,
      "легкий": 7682,
      "холодной": 7683,
      "просить": 7684,
      "пользы": 7685,
      "морской": 7686,
      "сними": 7687,
      "великоле": 7688,
      "барса": 7689,
      "историю": 7690,
      "профессии": 7691,
      "обуви": 7692,
      "закрыть": 7693,
      "ездила": 7694,
      "домашних": 7695,
      "боишься": 7696,
      "живете": 7697,
      "кровати": 7698,
      "аккуратно": 7699,
      "холодильнике": 7700,
      "бразили": 7701,
      "ut": 7702,
      "впро": 7703,
      "вру": 7704,
      "еде": 7705,
      "сварить": 7706,
      "токо": 7707,
      "навя": 7708,
      "поде": 7709,
      "коф": 7710,
      "канеш": 7711,
      "кастрю": 7712,
      "ничё": 7713,
      "теми": 7714,
      "мете": 7715,
      "вирус": 7716,
      "рулем": 7717,
      "выши": 7718,
      "шель": 7719,
      "сило": 7720,
      "приезжай": 7721,
      "подска": 7722,
      "лучших": 7723,
      "щика": 7724,
      "работой": 7725,
      "цара": 7726,
      "слом": 7727,
      "кровать": 7728,
      "предприя": 7729,
      "трол": 7730,
      "помните": 7731,
      "грей": 7732,
      "новки": 7733,
      "получил": 7734,
      "получите": 7735,
      "поиска": 7736,
      "обижа": 7737,
      "возрастом": 7738,
      "реальность": 7739,
      "дёте": 7740,
      "каждое": 7741,
      "настоящее": 7742,
      "настоящие": 7743,
      "курицу": 7744,
      "колесо": 7745,
      "спокойной": 7746,
      "выражение": 7747,
      "разнообрази": 7748,
      "звони": 7749,
      "горячий": 7750,
      "двигаться": 7751,
      "эмоций": 7752,
      "характера": 7753,
      "относительно": 7754,
      "розовый": 7755,
      "симпатичная": 7756,
      "кайф": 7757,
      "духовку": 7758,
      "диету": 7759,
      "заканчи": 7760,
      "day": 7761,
      "met": 7762,
      "оскор": 7763,
      "счета": 7764,
      "наве": 7765,
      "поесть": 7766,
      "похоро": 7767,
      "послушать": 7768,
      "кату": 7769,
      "могло": 7770,
      "забереме": 7771,
      "виа": 7772,
      "тила": 7773,
      "нус": 7774,
      "нулись": 7775,
      "отры": 7776,
      "саму": 7777,
      "изю": 7778,
      "вету": 7779,
      "чур": 7780,
      "жного": 7781,
      "слове": 7782,
      "нравишься": 7783,
      "зуе": 7784,
      "врата": 7785,
      "фабри": 7786,
      "родных": 7787,
      "чувствует": 7788,
      "готовь": 7789,
      "парней": 7790,
      "обычной": 7791,
      "архи": 7792,
      "жом": 7793,
      "начинай": 7794,
      "техни": 7795,
      "провере": 7796,
      "слушайте": 7797,
      "игно": 7798,
      "скорости": 7799,
      "ложиться": 7800,
      "спрашивай": 7801,
      "вырастет": 7802,
      "пробовать": 7803,
      "счастлива": 7804,
      "белого": 7805,
      "системе": 7806,
      "систему": 7807,
      "***": 7808,
      "судьбы": 7809,
      "народу": 7810,
      "категорию": 7811,
      "целью": 7812,
      "армию": 7813,
      "таблет": 7814,
      "сметаной": 7815,
      "благодар": 7816,
      "употреблять": 7817,
      "финансо": 7818,
      "итоге": 7819,
      "гормоны": 7820,
      "элементарно": 7821,
      "дополни": 7822,
      "3000": 7823,
      "брить": 7824,
      "гне": 7825,
      "едет": 7826,
      "кса": 7827,
      "оном": 7828,
      "сче": 7829,
      "сби": 7830,
      "тным": 7831,
      "тники": 7832,
      "увлаж": 7833,
      "чле": 7834,
      "пони": 7835,
      "попыта": 7836,
      "тация": 7837,
      "ренность": 7838,
      "задер": 7839,
      "чена": 7840,
      "лед": 7841,
      "прожить": 7842,
      "выда": 7843,
      "чил": 7844,
      "чили": 7845,
      "буди": 7846,
      "поднять": 7847,
      "правой": 7848,
      "хар": 7849,
      "вторых": 7850,
      "зываться": 7851,
      "активно": 7852,
      "альтерна": 7853,
      "испра": 7854,
      "арбу": 7855,
      "поставил": 7856,
      "интересного": 7857,
      "197": 7858,
      "отличается": 7859,
      "картофель": 7860,
      "занятия": 7861,
      "срав": 7862,
      "металли": 7863,
      "отдавать": 7864,
      "сомнения": 7865,
      "любым": 7866,
      "метод": 7867,
      "глубоко": 7868,
      "употребля": 7869,
      "коктей": 7870,
      "вызвать": 7871,
      "напоминает": 7872,
      "фотошоп": 7873,
      "врятли": 7874,
      "гимна": 7875,
      "-\"": 7876,
      "con": 7877,
      "wn": 7878,
      "жж": 7879,
      "жы": 7880,
      "оча": 7881,
      "сцена": 7882,
      "наду": 7883,
      "посмотрела": 7884,
      "таль": 7885,
      "личный": 7886,
      "мому": 7887,
      "зарегистри": 7888,
      "честер": 7889,
      "кись": 7890,
      "миру": 7891,
      "милые": 7892,
      "отдел": 7893,
      "песок": 7894,
      "придёт": 7895,
      "пищу": 7896,
      "препода": 7897,
      "женный": 7898,
      "зубов": 7899,
      "однокласс": 7900,
      "чью": 7901,
      "писали": 7902,
      "худож": 7903,
      "положение": 7904,
      "нервни": 7905,
      "жалею": 7906,
      "знакомая": 7907,
      "страшный": 7908,
      "случаев": 7909,
      "владель": 7910,
      "подобрать": 7911,
      "литр": 7912,
      "родителями": 7913,
      "начнет": 7914,
      "гарри": 7915,
      "мешают": 7916,
      "дураки": 7917,
      "улыбка": 7918,
      "натуральный": 7919,
      "воспитание": 7920,
      "выкинуть": 7921,
      "жидкости": 7922,
      "институт": 7923,
      "итальян": 7924,
      "огонь": 7925,
      "совмести": 7926,
      "восторге": 7927,
      "кукуру": 7928,
      "арсенал": 7929,
      "44": 7930,
      "ld": 7931,
      "ov": 7932,
      "ya": 7933,
      "мли": 7934,
      "фю": 7935,
      "чники": 7936,
      "небольшой": 7937,
      "натя": 7938,
      "каба": 7939,
      "нись": 7940,
      "воспа": 7941,
      "вательно": 7942,
      "лакти": 7943,
      "заслу": 7944,
      "запол": 7945,
      "загру": 7946,
      "лочки": 7947,
      "дови": 7948,
      "виза": 7949,
      "миха": 7950,
      "тиков": 7951,
      "нутри": 7952,
      "питом": 7953,
      "гад": 7954,
      "подра": 7955,
      "щина": 7956,
      "жное": 7957,
      "зирова": 7958,
      "строе": 7959,
      "стук": 7960,
      "фера": 7961,
      "блины": 7962,
      "ответит": 7963,
      "тном": 7964,
      "альным": 7965,
      "обычное": 7966,
      "интернета": 7967,
      "ard": 7968,
      "средств": 7969,
      "начинаю": 7970,
      "гуляй": 7971,
      "регистра": 7972,
      "франция": 7973,
      "оливко": 7974,
      "сборная": 7975,
      "напряга": 7976,
      "энергии": 7977,
      "пирог": 7978,
      "зелёный": 7979,
      "маршру": 7980,
      "пределах": 7981,
      "47": 7982,
      "ss": 7983,
      "ист": 7984,
      "уво": 7985,
      "шные": 7986,
      "юмо": 7987,
      "ясь": 7988,
      "нагло": 7989,
      "понеде": 7990,
      "кося": 7991,
      "ронал": 7992,
      "кашу": 7993,
      "катери": 7994,
      "камень": 7995,
      "замо": 7996,
      "заплати": 7997,
      "леге": 7998,
      "прошла": 7999,
      "просят": 8000,
      "проигры": 8001,
      "хох": 8002,
      "созна": 8003,
      "дима": 8004,
      "отвар": 8005,
      "чистая": 8006,
      "дуб": 8007,
      "стику": 8008,
      "скача": 8009,
      "суда": 8010,
      "пункт": 8011,
      "компе": 8012,
      "лучшего": 8013,
      "стере": 8014,
      "шоке": 8015,
      "слить": 8016,
      "проблему": 8017,
      "собакой": 8018,
      "пьет": 8019,
      "глянь": 8020,
      "понимания": 8021,
      "справку": 8022,
      "провести": 8023,
      "экстра": 8024,
      "великий": 8025,
      "совести": 8026,
      "полноце": 8027,
      "обращать": 8028,
      "обращайтесь": 8029,
      "кольцо": 8030,
      "информацию": 8031,
      "желудка": 8032,
      "вероятность": 8033,
      "добрая": 8034,
      "покажите": 8035,
      "услуги": 8036,
      "тащить": 8037,
      "мыслей": 8038,
      "веществ": 8039,
      ";))": 8040,
      "ha": 8041,
      "ran": 8042,
      "мэ": 8043,
      "мра": 8044,
      "оси": 8045,
      "оран": 8046,
      "св": 8047,
      "шле": 8048,
      "неприятно": 8049,
      "носу": 8050,
      "рочка": 8051,
      "кают": 8052,
      "тения": 8053,
      "даж": 8054,
      "дарить": 8055,
      "дое": 8056,
      "дочку": 8057,
      "выбо": 8058,
      "частенько": 8059,
      "дуры": 8060,
      "ляю": 8061,
      "няться": 8062,
      "стань": 8063,
      "скай": 8064,
      "дружить": 8065,
      "перечисле": 8066,
      "ветки": 8067,
      "простое": 8068,
      "самооце": 8069,
      "расскажи": 8070,
      "блок": 8071,
      "удалить": 8072,
      "черного": 8073,
      "берегу": 8074,
      "маловато": 8075,
      "называются": 8076,
      "горчи": 8077,
      "сайта": 8078,
      "ууу": 8079,
      "встречи": 8080,
      "вкусная": 8081,
      "стности": 8082,
      "специальный": 8083,
      "победы": 8084,
      "основе": 8085,
      "картофе": 8086,
      "выбирайте": 8087,
      "доверие": 8088,
      "снега": 8089,
      "уничто": 8090,
      "китайский": 8091,
      "названием": 8092,
      "лечиться": 8093,
      "единственное": 8094,
      "бутылку": 8095,
      "избавиться": 8096,
      "герои": 8097,
      "появляется": 8098,
      "подъез": 8099,
      "пригодится": 8100,
      "дешё": 8101,
      "пампер": 8102,
      "барселона": 8103,
      "воспоминания": 8104,
      "экспери": 8105,
      "\")))": 8106,
      ";)))": 8107,
      "mu": 8108,
      "вклады": 8109,
      "клы": 8110,
      "увле": 8111,
      "учусь": 8112,
      "нечто": 8113,
      "каю": 8114,
      "кавка": 8115,
      "теку": 8116,
      "вакан": 8117,
      "заново": 8118,
      "ложки": 8119,
      "стря": 8120,
      "риску": 8121,
      "кише": 8122,
      "ведет": 8123,
      "бела": 8124,
      "!!)))": 8125,
      "сити": 8126,
      "пена": 8127,
      "пали": 8128,
      "приносит": 8129,
      "гите": 8130,
      "шара": 8131,
      "губы": 8132,
      "перебор": 8133,
      "думали": 8134,
      "возить": 8135,
      "общего": 8136,
      "рман": 8137,
      "кручи": 8138,
      "предназна": 8139,
      "хую": 8140,
      "труда": 8141,
      "ственного": 8142,
      "сделаю": 8143,
      "ренные": 8144,
      "надпись": 8145,
      "съездить": 8146,
      "пятница": 8147,
      "che": 8148,
      "бесплатный": 8149,
      "истории": 8150,
      "район": 8151,
      "звонить": 8152,
      "предложения": 8153,
      "летают": 8154,
      "париж": 8155,
      "фантазия": 8156,
      "жидкость": 8157,
      "транспорт": 8158,
      "выбрал": 8159,
      "виноваты": 8160,
      "журна": 8161,
      "автобус": 8162,
      "ангел": 8163,
      "пушкин": 8164,
      "октября": 8165,
      "шампанское": 8166,
      "африке": 8167,
      "ребята": 8168,
      "ворачи": 8169,
      "диване": 8170,
      "парикмахер": 8171,
      "понедельник": 8172,
      "bla": 8173,
      "lin": 8174,
      "овся": 8175,
      "сверх": 8176,
      "уса": 8177,
      "хнуть": 8178,
      "шня": 8179,
      "несчаст": 8180,
      "роде": 8181,
      "такова": 8182,
      "лига": 8183,
      "вана": 8184,
      "ствам": 8185,
      "маник": 8186,
      "лежать": 8187,
      "вишь": 8188,
      "создать": 8189,
      "дин": 8190,
      "дись": 8191,
      "сильные": 8192,
      "палец": 8193,
      "разная": 8194,
      "изм": 8195,
      "жара": 8196,
      "публи": 8197,
      "глав": 8198,
      "щают": 8199,
      "трена": 8200,
      "потомучто": 8201,
      "слав": 8202,
      "креа": 8203,
      "правды": 8204,
      "будущего": 8205,
      "завидую": 8206,
      "совки": 8207,
      "личности": 8208,
      "(((((": 8209,
      "фирму": 8210,
      "встречала": 8211,
      "звук": 8212,
      "продолжать": 8213,
      "новень": 8214,
      "народа": 8215,
      "белье": 8216,
      "яблоко": 8217,
      "фотографии": 8218,
      "взрослых": 8219,
      "обеспече": 8220,
      "вшись": 8221,
      "ac": 8222,
      "нче": 8223,
      "осе": 8224,
      "неба": 8225,
      "кошке": 8226,
      "котят": 8227,
      "раб": 8228,
      "роды": 8229,
      "терьер": 8230,
      "гонять": 8231,
      "лана": 8232,
      "лаге": 8233,
      "задать": 8234,
      "массо": 8235,
      "медом": 8236,
      "китае": 8237,
      "тита": 8238,
      "тично": 8239,
      "отре": 8240,
      "сию": 8241,
      "стон": 8242,
      "сталь": 8243,
      "газа": 8244,
      "гип": 8245,
      "меняются": 8246,
      "церко": 8247,
      "вернется": 8248,
      "перемен": 8249,
      "ктором": 8250,
      "возник": 8251,
      "которому": 8252,
      "купишь": 8253,
      "резко": 8254,
      "учился": 8255,
      "трое": 8256,
      "трогать": 8257,
      "поняли": 8258,
      "родные": 8259,
      "автомат": 8260,
      "свекровь": 8261,
      "свежий": 8262,
      "получают": 8263,
      "родилась": 8264,
      "собираетесь": 8265,
      "пляж": 8266,
      "счастливы": 8267,
      "проститут": 8268,
      "хозяина": 8269,
      "рекламы": 8270,
      "программи": 8271,
      "фффф": 8272,
      "грязи": 8273,
      "относиться": 8274,
      "мечтаю": 8275,
      "ешся": 8276,
      "капусту": 8277,
      "звезды": 8278,
      "пенсии": 8279,
      "американский": 8280,
      "пожалеешь": 8281,
      "обойтись": 8282,
      "футболист": 8283,
      "февраля": 8284,
      "du": 8285,
      "gi": 8286,
      "аэ": 8287,
      "вдо": 8288,
      "дми": 8289,
      "схва": 8290,
      "уют": 8291,
      "нагре": 8292,
      "годом": 8293,
      "вообра": 8294,
      "мотива": 8295,
      "серый": 8296,
      "лесо": 8297,
      "боги": 8298,
      "выделя": 8299,
      "отдай": 8300,
      "вселе": 8301,
      "душой": 8302,
      "пир": 8303,
      "пило": 8304,
      "бавари": 8305,
      "знали": 8306,
      "льности": 8307,
      "пузы": 8308,
      "подтяги": 8309,
      "вернее": 8310,
      "жность": 8311,
      "страсти": 8312,
      "страдать": 8313,
      "расскажу": 8314,
      "работаешь": 8315,
      "рован": 8316,
      "молодости": 8317,
      "манчестер": 8318,
      "парню": 8319,
      "соблаз": 8320,
      "занимаются": 8321,
      "движок": 8322,
      "2007": 8323,
      "приятное": 8324,
      "плюсы": 8325,
      "языком": 8326,
      "грибами": 8327,
      "ell": 8328,
      "научить": 8329,
      "свобода": 8330,
      "восста": 8331,
      "продолжение": 8332,
      "концерт": 8333,
      "культур": 8334,
      "брюнет": 8335,
      "проверьте": 8336,
      "российский": 8337,
      "творчество": 8338,
      "сбербанк": 8339,
      "зажигания": 8340,
      "деятельности": 8341,
      "касается": 8342,
      "молодцы": 8343,
      "фитнес": 8344,
      "маркетин": 8345,
      "dy": 8346,
      "mer": 8347,
      "up": 8348,
      "аф": 8349,
      "гну": 8350,
      "ера": 8351,
      "плу": 8352,
      "рёт": 8353,
      "сбе": 8354,
      "сжига": 8355,
      "чника": 8356,
      "тору": 8357,
      "торов": 8358,
      "небыло": 8359,
      "погиб": 8360,
      "каша": 8361,
      "какому": 8362,
      "талан": 8363,
      "репей": 8364,
      "валом": 8365,
      "заинтересо": 8366,
      "задолба": 8367,
      "манья": 8368,
      "русы": 8369,
      "куб": 8370,
      "мино": 8371,
      "чиво": 8372,
      "сиг": 8373,
      "чаться": 8374,
      "лятор": 8375,
      "целей": 8376,
      "поды": 8377,
      "лучшим": 8378,
      "делаете": 8379,
      "скинь": 8380,
      "комби": 8381,
      "мян": 8382,
      "говой": 8383,
      "кроко": 8384,
      "кругу": 8385,
      "торгу": 8386,
      "плей": 8387,
      "серде": 8388,
      "машин": 8389,
      "случаи": 8390,
      "личность": 8391,
      "сайтов": 8392,
      "узнай": 8393,
      "цветок": 8394,
      "органы": 8395,
      "интересней": 8396,
      "идее": 8397,
      "мечтать": 8398,
      "клубе": 8399,
      "девочек": 8400,
      "молчу": 8401,
      "организме": 8402,
      "подойти": 8403,
      "внешне": 8404,
      "сборную": 8405,
      "ченко": 8406,
      "алкоголи": 8407,
      "бывший": 8408,
      "институ": 8409,
      "лошадь": 8410,
      "купаться": 8411,
      "свадьба": 8412,
      "ютубе": 8413,
      "актриса": 8414,
      "иммуните": 8415,
      "великолеп": 8416,
      "5000": 8417,
      "tor": 8418,
      "вшие": 8419,
      "дс": 8420,
      "дна": 8421,
      "зть": 8422,
      "звали": 8423,
      "иро": 8424,
      "сде": 8425,
      "спре": 8426,
      "ур": 8427,
      "увидел": 8428,
      "убирать": 8429,
      "позо": 8430,
      "каши": 8431,
      "заставить": 8432,
      "лочку": 8433,
      "мена": 8434,
      "вега": 8435,
      "сова": 8436,
      "сопли": 8437,
      "дии": 8438,
      "диете": 8439,
      "белка": 8440,
      "сишь": 8441,
      "сибир": 8442,
      "пары": 8443,
      "стами": 8444,
      "шип": 8445,
      "рыва": 8446,
      "гита": 8447,
      "изобре": 8448,
      "цикли": 8449,
      "суль": 8450,
      "мнению": 8451,
      "тяга": 8452,
      "концов": 8453,
      "ответила": 8454,
      "влять": 8455,
      "всякое": 8456,
      "art": 8457,
      "объем": 8458,
      "уголь": 8459,
      "болга": 8460,
      "настоящему": 8461,
      "причине": 8462,
      "практика": 8463,
      "поступки": 8464,
      "звонок": 8465,
      "белой": 8466,
      "психологу": 8467,
      "культура": 8468,
      "домашние": 8469,
      "крепче": 8470,
      "конфеты": 8471,
      "сравнивать": 8472,
      "владимир": 8473,
      "телефону": 8474,
      "ноября": 8475,
      "приключения": 8476,
      "отврати": 8477,
      "42": 8478,
      "ау": 8479,
      "аве": 8480,
      "вке": 8481,
      "учё": 8482,
      "уход": 8483,
      "уходят": 8484,
      "неизвестно": 8485,
      "поспать": 8486,
      "ково": 8487,
      "лил": 8488,
      "моём": 8489,
      "лах": 8490,
      "зает": 8491,
      "записа": 8492,
      "заводи": 8493,
      "заблу": 8494,
      "макс": 8495,
      "прог": 8496,
      "сот": 8497,
      "собрать": 8498,
      "выучи": 8499,
      "выбора": 8500,
      "тико": 8501,
      "самую": 8502,
      "сика": 8503,
      "педо": 8504,
      "привод": 8505,
      "будит": 8506,
      "гидро": 8507,
      "изра": 8508,
      "детские": 8509,
      "прести": 8510,
      "претен": 8511,
      "крась": 8512,
      "краской": 8513,
      "жности": 8514,
      "зий": 8515,
      "трез": 8516,
      "шучу": 8517,
      "крест": 8518,
      "вкусы": 8519,
      "правил": 8520,
      "твоем": 8521,
      "смеши": 8522,
      "поймут": 8523,
      "полотен": 8524,
      "нормального": 8525,
      "колго": 8526,
      "стороне": 8527,
      "ore": 8528,
      "справо": 8529,
      "проверять": 8530,
      "понравиться": 8531,
      "понравились": 8532,
      "симпоти": 8533,
      "паралле": 8534,
      "произой": 8535,
      "восстано": 8536,
      "пальцы": 8537,
      "появился": 8538,
      "противополо": 8539,
      "поверьте": 8540,
      "косметика": 8541,
      "добавлять": 8542,
      "талантли": 8543,
      "анек": 8544,
      "австрали": 8545,
      "впрочем": 8546,
      ")..": 8547,
      "bm": 8548,
      "so": 8549,
      "tra": 8550,
      "ею": 8551,
      "жную": 8552,
      "ола": 8553,
      "осве": 8554,
      "справля": 8555,
      "товый": 8556,
      "нарису": 8557,
      "поди": 8558,
      "пору": 8559,
      "породи": 8560,
      "реальный": 8561,
      "кинг": 8562,
      "боти": 8563,
      "хоз": 8564,
      "быд": 8565,
      "куплю": 8566,
      "чар": 8567,
      "дух": 8568,
      "бура": 8569,
      "гая": 8570,
      "щенок": 8571,
      "батаре": 8572,
      "тушь": 8573,
      "мылом": 8574,
      "....))": 8575,
      "изуча": 8576,
      "мнения": 8577,
      "делаем": 8578,
      "смотра": 8579,
      "безумно": 8580,
      "царь": 8581,
      "мяч": 8582,
      "гены": 8583,
      "котов": 8584,
      "трам": 8585,
      "оставьте": 8586,
      "слать": 8587,
      "врачей": 8588,
      "ровке": 8589,
      "худо": 8590,
      "коррек": 8591,
      "альную": 8592,
      "говорила": 8593,
      "отвечает": 8594,
      "поставьте": 8595,
      "городу": 8596,
      "техника": 8597,
      "магазина": 8598,
      "измена": 8599,
      "принцес": 8600,
      "соседей": 8601,
      "больной": 8602,
      "жье": 8603,
      "лишнее": 8604,
      "подрост": 8605,
      "необходимости": 8606,
      "подобные": 8607,
      "фантастика": 8608,
      "собственной": 8609,
      "специалист": 8610,
      "веришь": 8611,
      "представляю": 8612,
      "протеин": 8613,
      "посуду": 8614,
      "кусочек": 8615,
      "окружающих": 8616,
      "дочери": 8617,
      "бассейн": 8618,
      "рисковать": 8619,
      "анекдо": 8620,
      "йй": 8621,
      "кр": 8622,
      "уголо": 8623,
      "уходить": 8624,
      "шники": 8625,
      "понадо": 8626,
      "полюбить": 8627,
      "посмотрю": 8628,
      "раска": 8629,
      "рока": 8630,
      "лицен": 8631,
      "годо": 8632,
      "данном": 8633,
      "затра": 8634,
      "забира": 8635,
      "зацию": 8636,
      "рили": 8637,
      "черт": 8638,
      "догада": 8639,
      "мешать": 8640,
      "прошу": 8641,
      "соц": 8642,
      "кузов": 8643,
      "отвлека": 8644,
      "бали": 8645,
      "сущ": 8646,
      "финал": 8647,
      "сложи": 8648,
      "сное": 8649,
      "летний": 8650,
      "скром": 8651,
      "чкам": 8652,
      "предвари": 8653,
      "спект": 8654,
      "пойди": 8655,
      "полоса": 8656,
      "портить": 8657,
      "мандари": 8658,
      "подар": 8659,
      "парфю": 8660,
      "книжки": 8661,
      "обязан": 8662,
      "покупают": 8663,
      "движение": 8664,
      "технику": 8665,
      ")))))))))))))))))))": 8666,
      "симпто": 8667,
      "вырасти": 8668,
      "научись": 8669,
      "продуктов": 8670,
      "встречал": 8671,
      "лишние": 8672,
      "франции": 8673,
      "развития": 8674,
      "ворота": 8675,
      "выглядят": 8676,
      "защита": 8677,
      "надоест": 8678,
      "становиться": 8679,
      "коротко": 8680,
      "короткие": 8681,
      "платья": 8682,
      "закончится": 8683,
      "принято": 8684,
      "депрессия": 8685,
      "mp3": 8686,
      "мудрость": 8687,
      "прибыль": 8688,
      ":))))))": 8689,
      "вконтакте": 8690,
      "гг": 8691,
      "зверь": 8692,
      "схе": 8693,
      "усту": 8694,
      "новом": 8695,
      "поёт": 8696,
      "погоды": 8697,
      "потихо": 8698,
      "кока": 8699,
      "коде": 8700,
      "корма": 8701,
      "ничья": 8702,
      "моменты": 8703,
      "зао": 8704,
      "захочется": 8705,
      "досту": 8706,
      "седе": 8707,
      "кипят": 8708,
      "проявля": 8709,
      "выбери": 8710,
      "выхода": 8711,
      "тиком": 8712,
      "губ": 8713,
      "дым": 8714,
      "крах": 8715,
      "страсть": 8716,
      "анна": 8717,
      "распро": 8718,
      "болель": 8719,
      "родная": 8720,
      "собаке": 8721,
      "холодный": 8722,
      "спорти": 8723,
      "ster": 8724,
      "помогать": 8725,
      "обеда": 8726,
      "мальчики": 8727,
      "our": 8728,
      "источник": 8729,
      "америка": 8730,
      "праздники": 8731,
      "принципи": 8732,
      "кататься": 8733,
      "программы": 8734,
      "единственная": 8735,
      "испан": 8736,
      "бутылки": 8737,
      "инстинкт": 8738,
      "истина": 8739,
      "выбрала": 8740,
      "способен": 8741,
      "коллектив": 8742,
      "предлагаю": 8743,
      "feat": 8744,
      "учебник": 8745,
      "лимоном": 8746,
      "торопи": 8747,
      "дневник": 8748,
      "лечеб": 8749,
      "зенита": 8750,
      "!\"": 8751,
      "ho": 8752,
      "kin": 8753,
      "ато": 8754,
      "астра": 8755,
      "вв": 8756,
      "всту": 8757,
      "ент": 8758,
      "жёл": 8759,
      "мла": 8760,
      "освобо": 8761,
      "схо": 8762,
      "тс": 8763,
      "ткой": 8764,
      "уль": 8765,
      "фре": 8766,
      "толи": 8767,
      "толка": 8768,
      "несе": 8769,
      "нешься": 8770,
      "помы": 8771,
      "покое": 8772,
      "колё": 8773,
      "листо": 8774,
      "дерма": 8775,
      "заго": 8776,
      "запро": 8777,
      "запя": 8778,
      "ловить": 8779,
      "прощать": 8780,
      "виз": 8781,
      "...\"": 8782,
      "тию": 8783,
      "шедев": 8784,
      "сий": 8785,
      "турой": 8786,
      "гиба": 8787,
      "изобра": 8788,
      "скажем": 8789,
      "шат": 8790,
      "стены": 8791,
      "любимую": 8792,
      "особы": 8793,
      "месячные": 8794,
      "продажа": 8795,
      "обязаны": 8796,
      "замени": 8797,
      "светит": 8798,
      "едино": 8799,
      "власть": 8800,
      "действие": 8801,
      "норме": 8802,
      "сердцу": 8803,
      "утю": 8804,
      "начните": 8805,
      "стараться": 8806,
      "квартира": 8807,
      "команду": 8808,
      "ставил": 8809,
      "воздухе": 8810,
      "быстрей": 8811,
      "переживайте": 8812,
      "нашёл": 8813,
      "помидор": 8814,
      "операции": 8815,
      "закону": 8816,
      "антибио": 8817,
      "располо": 8818,
      "огромный": 8819,
      "полагаю": 8820,
      "ищешь": 8821,
      "лутше": 8822,
      "85": 8823,
      "?!!!": 8824,
      "id": 8825,
      "way": 8826,
      "рта": 8827,
      "уша": 8828,
      "хлам": 8829,
      "накача": 8830,
      "почи": 8831,
      "потерпи": 8832,
      "кони": 8833,
      "котя": 8834,
      "речи": 8835,
      "валь": 8836,
      "вашим": 8837,
      "делу": 8838,
      "ладо": 8839,
      "замен": 8840,
      "захотелось": 8841,
      "чением": 8842,
      "мара": 8843,
      "сезоне": 8844,
      "боб": 8845,
      "выска": 8846,
      "тирать": 8847,
      "беше": 8848,
      "песо": 8849,
      "присоеди": 8850,
      "обь": 8851,
      "обру": 8852,
      "ционе": 8853,
      "шала": 8854,
      "подскажет": 8855,
      "ходим": 8856,
      "слож": 8857,
      "вреда": 8858,
      "зове": 8859,
      "трава": 8860,
      "тельна": 8861,
      "осталась": 8862,
      "остаётся": 8863,
      "кругло": 8864,
      "никакая": 8865,
      "нужным": 8866,
      "ждем": 8867,
      "делов": 8868,
      "хочеш": 8869,
      "магазины": 8870,
      "сегодняш": 8871,
      "логика": 8872,
      "власти": 8873,
      "длин": 8874,
      "идеи": 8875,
      "запас": 8876,
      "успехов": 8877,
      "oun": 8878,
      "поступ": 8879,
      "участи": 8880,
      "устроить": 8881,
      "бегает": 8882,
      "овощами": 8883,
      "ездили": 8884,
      "сенье": 8885,
      "недельку": 8886,
      "супру": 8887,
      "открове": 8888,
      "капуста": 8889,
      "яич": 8890,
      "описание": 8891,
      "кладби": 8892,
      "громко": 8893,
      "оптима": 8894,
      "овчарка": 8895,
      "аккумуля": 8896,
      "церковь": 8897,
      "tak": 8898,
      "едь": 8899,
      "ишь": 8900,
      "тную": 8901,
      "фраза": 8902,
      "чны": 8903,
      "яко": 8904,
      "несу": 8905,
      "ненадо": 8906,
      "недалеко": 8907,
      "неудобно": 8908,
      "попо": 8909,
      "раскры": 8910,
      "такому": 8911,
      "репет": 8912,
      "воть": 8913,
      "ваку": 8914,
      "девя": 8915,
      "мочки": 8916,
      "матри": 8917,
      "кида": 8918,
      "леди": 8919,
      "везет": 8920,
      "нынеш": 8921,
      "викто": 8922,
      "соло": 8923,
      "созре": 8924,
      "дика": 8925,
      "кубок": 8926,
      "тино": 8927,
      "оты": 8928,
      "пия": 8929,
      "тывает": 8930,
      "стиму": 8931,
      "путем": 8932,
      "нейтра": 8933,
      "бление": 8934,
      "расчет": 8935,
      "твоим": 8936,
      "серти": 8937,
      "исправить": 8938,
      "здоров": 8939,
      "продай": 8940,
      "волосами": 8941,
      "хера": 8942,
      "клинику": 8943,
      "последней": 8944,
      "полезнее": 8945,
      "ate": 8946,
      "мальчика": 8947,
      "котё": 8948,
      "сюр": 8949,
      "объясня": 8950,
      "способности": 8951,
      "поступить": 8952,
      "эээ": 8953,
      "внизу": 8954,
      "наука": 8955,
      "периодически": 8956,
      "документов": 8957,
      "химии": 8958,
      "зеркала": 8959,
      "сидишь": 8960,
      "немецкий": 8961,
      "яиц": 8962,
      "жанр": 8963,
      "насеко": 8964,
      "лекарства": 8965,
      "шашлык": 8966,
      "карбюратор": 8967,
      "dj": 8968,
      "ep": 8969,
      "аре": 8970,
      "ахах": 8971,
      "вставить": 8972,
      "иной": 8973,
      "ол": 8974,
      "сля": 8975,
      "тком": 8976,
      "ющее": 8977,
      "юбка": 8978,
      "непоня": 8979,
      "нон": 8980,
      "помешает": 8981,
      "расто": 8982,
      "рады": 8983,
      "ниться": 8984,
      "лимона": 8985,
      "замер": 8986,
      "зарубе": 8987,
      "стные": 8988,
      "чены": 8989,
      "проб": 8990,
      "пробы": 8991,
      "боку": 8992,
      "мука": 8993,
      "отста": 8994,
      "чина": 8995,
      "сата": 8996,
      "частей": 8997,
      "букет": 8998,
      "версия": 8999,
      "предел": 9000,
      "компом": 9001,
      "коммента": 9002,
      "тятся": 9003,
      "мерки": 9004,
      "деньгам": 9005,
      "вопросами": 9006,
      "самолет": 9007,
      "которыми": 9008,
      "врачом": 9009,
      "найдут": 9010,
      "ваясь": 9011,
      "этими": 9012,
      "неделе": 9013,
      "узнала": 9014,
      "встречу": 9015,
      "2006": 9016,
      "снизу": 9017,
      "ссан": 9018,
      "сексе": 9019,
      "идеальный": 9020,
      "морози": 9021,
      "весё": 9022,
      "нарушение": 9023,
      "британ": 9024,
      "установи": 9025,
      "птица": 9026,
      "венти": 9027,
      "результаты": 9028,
      "сорти": 9029,
      "количестве": 9030,
      "региона": 9031,
      "витамин": 9032,
      "оооооооо": 9033,
      "алкоголя": 9034,
      "знакомства": 9035,
      "шерсть": 9036,
      "скольку": 9037,
      "ухажи": 9038,
      "прививки": 9039,
      "доверяю": 9040,
      "форум": 9041,
      "вспоминать": 9042,
      "наращи": 9043,
      "секунд": 9044,
      "президен": 9045,
      "воспитывать": 9046,
      "множество": 9047,
      "!)))))": 9048,
      "je": 9049,
      "вдво": 9050,
      "итак": 9051,
      "нх": 9052,
      "тками": 9053,
      "яз": 9054,
      "тости": 9055,
      "наби": 9056,
      "погре": 9057,
      "нисколько": 9058,
      "демон": 9059,
      "лат": 9060,
      "лаком": 9061,
      "зас": 9062,
      "захва": 9063,
      "заводить": 9064,
      "доктору": 9065,
      "хотим": 9066,
      "сознание": 9067,
      "выр": 9068,
      "выложи": 9069,
      "оту": 9070,
      "пеле": 9071,
      "нький": 9072,
      "живых": 9073,
      "обследо": 9074,
      "разбор": 9075,
      "цепь": 9076,
      "подь": 9077,
      "фия": 9078,
      "дышать": 9079,
      "перестанет": 9080,
      "жуть": 9081,
      "распре": 9082,
      "останавли": 9083,
      "зел": 9084,
      "ровая": 9085,
      "имена": 9086,
      "действу": 9087,
      "молодая": 9088,
      "смены": 9089,
      "адво": 9090,
      "брони": 9091,
      "неделя": 9092,
      "русской": 9093,
      "горло": 9094,
      "хорошенько": 9095,
      "согласно": 9096,
      "замена": 9097,
      "котлеты": 9098,
      "устало": 9099,
      "закажи": 9100,
      "истори": 9101,
      "новости": 9102,
      "тяжелее": 9103,
      "восхи": 9104,
      "фотке": 9105,
      "терпения": 9106,
      "суммы": 9107,
      "обращай": 9108,
      "обращаться": 9109,
      "отказ": 9110,
      "энергет": 9111,
      "мелочи": 9112,
      "забудьте": 9113,
      "бактери": 9114,
      "беспокой": 9115,
      "лежат": 9116,
      "локомотив": 9117,
      "диеты": 9118,
      "похме": 9119,
      "запчасти": 9120,
      "хокке": 9121,
      "договоре": 9122,
      "разобраться": 9123,
      "философ": 9124,
      "события": 9125,
      "произошло": 9126,
      "легенда": 9127,
      "оранже": 9128,
      "tv": 9129,
      "авари": 9130,
      "джен": 9131,
      "емые": 9132,
      "лс": 9133,
      "сная": 9134,
      "убери": 9135,
      "ый": 9136,
      "яд": 9137,
      "точек": 9138,
      "поне": 9139,
      "повер": 9140,
      "какими": 9141,
      "деда": 9142,
      "моне": 9143,
      "данных": 9144,
      "заходи": 9145,
      "матом": 9146,
      "сение": 9147,
      "нынче": 9148,
      "совые": 9149,
      "куй": 9150,
      "миром": 9151,
      "бедный": 9152,
      "обло": 9153,
      "подразуме": 9154,
      "странные": 9155,
      "грана": 9156,
      "конвер": 9157,
      "выйгра": 9158,
      "влений": 9159,
      "ровала": 9160,
      "нормальную": 9161,
      "враг": 9162,
      "красивую": 9163,
      "спину": 9164,
      "бессмысле": 9165,
      "нутрь": 9166,
      "ant": 9167,
      "арша": 9168,
      "надея": 9169,
      "москву": 9170,
      "экзамен": 9171,
      "появятся": 9172,
      "пускают": 9173,
      "колеса": 9174,
      "высокая": 9175,
      "высокий": 9176,
      "минусы": 9177,
      "воспринима": 9178,
      "рождение": 9179,
      "встречаться": 9180,
      "горячей": 9181,
      "попугай": 9182,
      "характери": 9183,
      "подарите": 9184,
      "взаим": 9185,
      "операция": 9186,
      "забил": 9187,
      "исключения": 9188,
      "выкиды": 9189,
      "прочитай": 9190,
      "прочитал": 9191,
      "автобусе": 9192,
      "свадьбы": 9193,
      "смешной": 9194,
      "обеспе": 9195,
      "ненависть": 9196,
      "посыла": 9197,
      "инструкцию": 9198,
      "августа": 9199,
      "котенка": 9200,
      "актуально": 9201,
      "укрепля": 9202,
      "воскресенье": 9203,
      "цилинд": 9204,
      "black": 9205,
      "98": 9206,
      "bu": 9207,
      "car": 9208,
      "ig": 9209,
      "ась": 9210,
      "вт": 9211,
      "днее": 9212,
      "едой": 9213,
      "жней": 9214,
      "ос": 9215,
      "окра": 9216,
      "оправда": 9217,
      "некому": 9218,
      "неважно": 9219,
      "рово": 9220,
      "тение": 9221,
      "ресни": 9222,
      "ревну": 9223,
      "варю": 9224,
      "засыпа": 9225,
      "замужем": 9226,
      "захотеть": 9227,
      "чехи": 9228,
      "маза": 9229,
      "верят": 9230,
      "сора": 9231,
      "сорт": 9232,
      "рубли": 9233,
      "выве": 9234,
      "мил": 9235,
      "чите": 9236,
      "чами": 9237,
      "паспорта": 9238,
      "причё": 9239,
      "буре": 9240,
      "разба": 9241,
      "знаний": 9242,
      "целую": 9243,
      "подсказать": 9244,
      "переве": 9245,
      "перевари": 9246,
      "долги": 9247,
      "тельств": 9248,
      "рью": 9249,
      "карте": 9250,
      "спекти": 9251,
      "ездит": 9252,
      "разума": 9253,
      "смеша": 9254,
      "смешать": 9255,
      "дятся": 9256,
      "водкой": 9257,
      "червя": 9258,
      "брон": 9259,
      "случается": 9260,
      "продажи": 9261,
      "понимаете": 9262,
      "ana": 9263,
      "лём": 9264,
      "нахрен": 9265,
      "низм": 9266,
      "открывается": 9267,
      "ошибка": 9268,
      "берёшь": 9269,
      "хранить": 9270,
      "велик": 9271,
      "сериала": 9272,
      "сорта": 9273,
      "ставили": 9274,
      "морально": 9275,
      "письмо": 9276,
      "круглый": 9277,
      "бегай": 9278,
      "подобного": 9279,
      "выходных": 9280,
      "мультик": 9281,
      "модера": 9282,
      "слабость": 9283,
      "орехи": 9284,
      "дружбы": 9285,
      "направление": 9286,
      "большинстве": 9287,
      "ерун": 9288,
      "дальней": 9289,
      "макдо": 9290,
      "впечатление": 9291,
      "отказаться": 9292,
      "семена": 9293,
      "предательство": 9294,
      "lub": 9295,
      "пацан": 9296,
      "гинекологу": 9297,
      "отрицательно": 9298,
      "справедливо": 9299,
      "обстоятельства": 9300,
      "бутербро": 9301,
      "египте": 9302,
      "потряса": 9303,
      "77": 9304,
      "ev": 9305,
      "ie": 9306,
      "mon": 9307,
      "ая": 9308,
      "алов": 9309,
      "встать": 9310,
      "вставля": 9311,
      "пкой": 9312,
      "смен": 9313,
      "сгоре": 9314,
      "учет": 9315,
      "успокой": 9316,
      "нек": 9317,
      "ногах": 9318,
      "находятся": 9319,
      "помеша": 9320,
      "..))))": 9321,
      "ког": 9322,
      "копа": 9323,
      "росте": 9324,
      "линей": 9325,
      "мошен": 9326,
      "заму": 9327,
      "зают": 9328,
      "затя": 9329,
      "запомина": 9330,
      "меда": 9331,
      "пропусти": 9332,
      "прошел": 9333,
      "вите": 9334,
      "динами": 9335,
      "руке": 9336,
      "выру": 9337,
      "вытя": 9338,
      "ньки": 9339,
      "лянди": 9340,
      "гага": 9341,
      "гадать": 9342,
      "щер": 9343,
      "шится": 9344,
      "тум": 9345,
      "рыбки": 9346,
      "подде": 9347,
      "подшип": 9348,
      "сыла": 9349,
      "лучшему": 9350,
      "планет": 9351,
      "общества": 9352,
      "мерседе": 9353,
      "анжи": 9354,
      "нужное": 9355,
      "тренера": 9356,
      "рованная": 9357,
      "крыму": 9358,
      "ответят": 9359,
      "лками": 9360,
      "ствий": 9361,
      "дядя": 9362,
      "пойму": 9363,
      "аква": 9364,
      "считаешь": 9365,
      "колоть": 9366,
      "дважды": 9367,
      "тайна": 9368,
      "рубль": 9369,
      "красного": 9370,
      "клеить": 9371,
      "енто": 9372,
      "программе": 9373,
      "условии": 9374,
      "эндо": 9375,
      "физически": 9376,
      "испании": 9377,
      "розовые": 9378,
      "трёх": 9379,
      "наркотики": 9380,
      "случится": 9381,
      "недостаток": 9382,
      "добиться": 9383,
      "зажигание": 9384,
      "расстояние": 9385,
      "варенье": 9386,
      "больничный": 9387,
      "кавказ": 9388,
      "маникюр": 9389,
      "тренаже": 9390,
      "\"\"": 9391,
      "\"))": 9392,
      "ds": 9393,
      "аван": 9394,
      "вна": 9395,
      "дкой": 9396,
      "кну": 9397,
      "нги": 9398,
      "устра": 9399,
      "учит": 9400,
      "управля": 9401,
      "шесть": 9402,
      "яна": 9403,
      "неле": 9404,
      "ночки": 9405,
      "похва": 9406,
      "полюбому": 9407,
      "табле": 9408,
      "телю": 9409,
      "дата": 9410,
      "завер": 9411,
      "риса": 9412,
      "доказать": 9413,
      "киа": 9414,
      "лечь": 9415,
      "летает": 9416,
      "проби": 9417,
      "бого": 9418,
      "вием": 9419,
      "куз": 9420,
      "выно": 9421,
      "выставля": 9422,
      "берт": 9423,
      "папу": 9424,
      "принад": 9425,
      "жишь": 9426,
      "баш": 9427,
      "бане": 9428,
      "значи": 9429,
      "пух": 9430,
      "подтя": 9431,
      "переса": 9432,
      "перевести": 9433,
      "зировать": 9434,
      "фом": 9435,
      "фоне": 9436,
      "любили": 9437,
      "любитель": 9438,
      "любовни": 9439,
      "расстраи": 9440,
      "рассматри": 9441,
      "чье": 9442,
      "крутой": 9443,
      "хивает": 9444,
      "дерзай": 9445,
      "кормят": 9446,
      "альны": 9447,
      "ооочень": 9448,
      "каждым": 9449,
      "ждают": 9450,
      "школь": 9451,
      "маленьких": 9452,
      "едим": 9453,
      "возьму": 9454,
      "полезное": 9455,
      "клуба": 9456,
      "140": 9457,
      "брилли": 9458,
      "объяснять": 9459,
      "белок": 9460,
      "пальца": 9461,
      "цепс": 9462,
      "поезде": 9463,
      "подумал": 9464,
      "подумайте": 9465,
      "санти": 9466,
      "глазки": 9467,
      "потерял": 9468,
      "знакомь": 9469,
      "воспитания": 9470,
      "ппц": 9471,
      "украины": 9472,
      "следовательно": 9473,
      "раствори": 9474,
      "молодые": 9475,
      "асфаль": 9476,
      "возникает": 9477,
      "италии": 9478,
      "ассоциа": 9479,
      "прозра": 9480,
      "дмитри": 9481,
      "лёт": 9482,
      "отой": 9483,
      "счас": 9484,
      "свар": 9485,
      "увидела": 9486,
      "фк": 9487,
      "яро": 9488,
      "почистить": 9489,
      "рановато": 9490,
      "тают": 9491,
      "вающие": 9492,
      "лами": 9493,
      "заце": 9494,
      "завари": 9495,
      "затор": 9496,
      "захотел": 9497,
      "мана": 9498,
      "мешок": 9499,
      "жели": 9500,
      "пром": 9501,
      "проме": 9502,
      "продаже": 9503,
      "проводить": 9504,
      "совой": 9505,
      "диски": 9506,
      "руси": 9507,
      "купаль": 9508,
      "выдер": 9509,
      "...:)": 9510,
      "чист": 9511,
      "сани": 9512,
      "примет": 9513,
      "буй": 9514,
      "общий": 9515,
      "шизо": 9516,
      "избы": 9517,
      "подсолне": 9518,
      "странах": 9519,
      "града": 9520,
      "спорить": 9521,
      "плата": 9522,
      "планете": 9523,
      "женской": 9524,
      "деньгах": 9525,
      "тельны": 9526,
      "тельнее": 9527,
      "трек": 9528,
      "войне": 9529,
      "студию": 9530,
      "интересен": 9531,
      "кармли": 9532,
      "голода": 9533,
      "желании": 9534,
      "нтв": 9535,
      "ждешь": 9536,
      "администра": 9537,
      "))))))))))))))))))))))))))))))))": 9538,
      "идешь": 9539,
      "животным": 9540,
      "изменения": 9541,
      "общаюсь": 9542,
      "решит": 9543,
      "собирать": 9544,
      "разнообраз": 9545,
      "убивает": 9546,
      "соседа": 9547,
      "приходилось": 9548,
      "область": 9549,
      "устроиться": 9550,
      "санкт": 9551,
      "огне": 9552,
      "третье": 9553,
[...]
