{
  "version": "1.0",
  "truncation": null,
  "padding": null,
  "added_tokens": [
    {
      "id": 0,
      "content": "[UNK]",
      "single_word": false,
      "lstrip": false,
      "rstrip": false,
      "normalized": false,
      "special": true
    },
    {
      "id": 1,
      "content": "[CLS]",
      "single_word": false,
      "lstrip": false,
      "rstrip": false,
      "normalized": false,
      "special": true
    },
    {
      "id": 2,
      "content": "[SEP]",
      "single_word": false,
      "lstrip": false,
      "rstrip": false,
      "normalized": false,
      "special": true
    },
    {
      "id": 3,
      "content": "[PAD]",
      "single_word": false,
      "lstrip": false,
      "rstrip": false,
      "normalized": false,
      "special": true
    },
    {
      "id": 4,
      "content": "[MASK]",
      "single_word": false,
      "lstrip": false,
      "rstrip": false,
      "normalized": false,
      "special": true
    }
  ],
  "normalizer": null,
  "pre_tokenizer": {
    "type": "Whitespace"
  },
  "post_processor": null,
  "decoder": null,
  "model": {
    "type": "BPE",
    "dropout": null,
    "unk_token": null,
    "continuing_subword_prefix": null,
    "end_of_word_suffix": null,
    "fuse_unk": false,
    "vocab": {
      "[UNK]": 0,
      "[CLS]": 1,
      "[SEP]": 2,
      "[PAD]": 3,
      "[MASK]": 4,
      "!": 5,
      "\"": 6,
      "#": 7,
      "$": 8,
      "%": 9,
      "&": 10,
      "'": 11,
      "(": 12,
      ")": 13,
      "*": 14,
      "+": 15,
      ",": 16,
      "-": 17,
      ".": 18,
      "/": 19,
      "0": 20,
      "1": 21,
      "2": 22,
      "3": 23,
      "4": 24,
      "5": 25,
      "6": 26,
      "7": 27,
      "8": 28,
      "9": 29,
      ":": 30,
      ";": 31,
      "<": 32,
      "=": 33,
      ">": 34,
      "?": 35,
      "@": 36,
      "[": 37,
      "\\": 38,
      "]": 39,
      "^": 40,
      "_": 41,
      "`": 42,
      "a": 43,
      "b": 44,
      "c": 45,
      "d": 46,
      "e": 47,
      "f": 48,
      "g": 49,
      "h": 50,
      "i": 51,
      "j": 52,
      "k": 53,
      "l": 54,
      "m": 55,
      "n": 56,
      "o": 57,
      "p": 58,
      "q": 59,
      "r": 60,
      "s": 61,
      "t": 62,
      "u": 63,
      "v": 64,
      "w": 65,
      "x": 66,
      "y": 67,
      "z": 68,
      "{": 69,
      "|": 70,
      "}": 71,
      "~": 72,
      "": 73,
      "£": 74,
      "©": 75,
      "«": 76,
      "¬": 77,
      "­": 78,
      "®": 79,
      "°": 80,
      "´": 81,
      "·": 82,
      "»": 83,
      "½": 84,
      "¾": 85,
      "¿": 86,
      "×": 87,
      "ä": 88,
      "é": 89,
      "ë": 90,
      "ö": 91,
      "ø": 92,
      "ü": 93,
      "š": 94,
      "ū": 95,
      "ʔ": 96,
      "ʕ": 97,
      "ʖ": 98,
      "́": 99,
      "̉": 100,
      "̶": 101,
      "͜": 102,
      "͡": 103,
      "ι": 104,
      "λ": 105,
      "ξ": 106,
      "π": 107,
      "σ": 108,
      "а": 109,
      "б": 110,
      "в": 111,
      "г": 112,
      "д": 113,
      "е": 114,
      "ж": 115,
      "з": 116,
      "и": 117,
      "й": 118,
      "к": 119,
      "л": 120,
      "м": 121,
      "н": 122,
      "о": 123,
      "п": 124,
      "р": 125,
      "с": 126,
      "т": 127,
      "у": 128,
      "ф": 129,
      "х": 130,
      "ц": 131,
      "ч": 132,
      "ш": 133,
      "щ": 134,
      "ъ": 135,
      "ы": 136,
      "ь": 137,
      "э": 138,
      "ю": 139,
      "я": 140,
      "ё": 141,
      "ђ": 142,
      "є": 143,
      "і": 144,
      "ї": 145,
      "қ": 146,
      "ӑ": 147,
      "ა": 148,
      "გ": 149,
      "ზ": 150,
      "ი": 151,
      "ნ": 152,
      "ო": 153,
      "ყ": 154,
      "წ": 155,
      "ᴥ": 156,
      "​": 157,
      "‎": 158,
      "–": 159,
      "—": 160,
      "’": 161,
      "“": 162,
      "”": 163,
      "†": 164,
      "•": 165,
      "…": 166,
      "⁄": 167,
      "€": 168,
      "№": 169,
      "™": 170,
      "→": 171,
      "↓": 172,
      "√": 173,
      "∠": 174,
      "≈": 175,
      "▫": 176,
      "▶": 177,
      "▼": 178,
      "☀": 179,
      "☄": 180,
      "☆": 181,
      "☭": 182,
      "☹": 183,
      "☺": 184,
      "☼": 185,
      "☾": 186,
      "♠": 187,
      "♡": 188,
      "♣": 189,
      "♥": 190,
      "♬": 191,
      "✅": 192,
      "✌": 193,
      "✔": 194,
      "✿": 195,
      "❀": 196,
      "❗": 197,
      "❤": 198,
      "❥": 199,
      "❦": 200,
      "❧": 201,
      "➪": 202,
      "⤵": 203,
      "厦": 204,
      "夜": 205,
      "月": 206,
      "神": 207,
      "门": 208,
      "️": 209,
      "﻿": 210,
      "（": 211,
      "）": 212,
      "？": 213,
      "то": 214,
      "ка": 215,
      "по": 216,
      "на": 217,
      "ть": 218,
      "ко": 219,
      "но": 220,
      "те": 221,
      "ли": 222,
      "ра": 223,
      "ро": 224,
      "ни": 225,
      "не": 226,
      "де": 227,
      "ст": 228,
      "ва": 229,
      "мо": 230,
      "ре": 231,
      "ет": 232,
      "го": 233,
      "ль": 234,
      "во": 235,
      "как": 236,
      "че": 237,
      "ла": 238,
      "ри": 239,
      "за": 240,
      "та": 241,
      "да": 242,
      "..": 243,
      "ло": 244,
      "что": 245,
      "ма": 246,
      "вы": 247,
      "ме": 248,
      "ся": 249,
      "ки": 250,
      "ны": 251,
      "ле": 252,
      "ве": 253,
      "до": 254,
      "му": 255,
      "ите": 256,
      "ку": 257,
      "бо": 258,
      "се": 259,
      "про": 260,
      "со": 261,
      "ес": 262,
      "))": 263,
      "ви": 264,
      "??": 265,
      "от": 266,
      "ти": 267,
      "ру": 268,
      "же": 269,
      "хо": 270,
      "чи": 271,
      "бы": 272,
      "ди": 273,
      "ска": 274,
      "ну": 275,
      "лу": 276,
      "ста": 277,
      "мож": 278,
      "си": 279,
      "ми": 280,
      "ля": 281,
      "ча": 282,
      "па": 283,
      "ше": 284,
      "са": 285,
      "при": 286,
      "лю": 287,
      "пе": 288,
      "под": 289,
      "из": 290,
      "или": 291,
      "бе": 292,
      "пи": 293,
      "ня": 294,
      "кто": 295,
      "можно": 296,
      "сто": 297,
      "это": 298,
      "бу": 299,
      "ду": 300,
      "ско": 301,
      "нь": 302,
      "жите": 303,
      "жа": 304,
      "га": 305,
      "...": 306,
      "како": 307,
      "скажите": 308,
      "ры": 309,
      "сь": 310,
      "ние": 311,
      "ба": 312,
      "ту": 313,
      "ши": 314,
      "би": 315,
      "ву": 316,
      "зна": 317,
      "сти": 318,
      "!!": 319,
      "фи": 320,
      "если": 321,
      "дела": 322,
      "мы": 323,
      "жи": 324,
      "об": 325,
      "мог": 326,
      "где": 327,
      "ты": 328,
      "вет": 329,
      "ться": 330,
      "ют": 331,
      "ете": 332,
      "чему": 333,
      "раз": 334,
      "ги": 335,
      "подскажите": 336,
      "лько": 337,
      "все": 338,
      "для": 339,
      "ке": 340,
      "почему": 341,
      "ния": 342,
      "льно": 343,
      "ци": 344,
      "ется": 345,
      "каки": 346,
      "це": 347,
      "ный": 348,
      "ще": 349,
      "щи": 350,
      "чем": 351,
      "зы": 352,
      "гда": 353,
      "делать": 354,
      "ные": 355,
      "???": 356,
      "есть": 357,
      "ски": 358,
      "рабо": 359,
      "ша": 360,
      "тся": 361,
      "мне": 362,
      "вать": 363,
      "су": 364,
      "ин": 365,
      "какой": 366,
      "помог": 367,
      "пра": 368,
      "пре": 369,
      "сколько": 370,
      "пожа": 371,
      "филь": 372,
      "помогите": 373,
      "чу": 374,
      "лет": 375,
      "нно": 376,
      "пожалу": 377,
      "когда": 378,
      "дь": 379,
      "пожалуй": 380,
      "йте": 381,
      "какие": 382,
      "пожалуйста": 383,
      "жен": 384,
      "пос": 385,
      "пу": 386,
      "кра": 387,
      "сы": 388,
      "ха": 389,
      "гра": 390,
      "ря": 391,
      "вам": 392,
      "дет": 393,
      "луч": 394,
      "сть": 395,
      "меня": 396,
      "фо": 397,
      "спо": 398,
      "зо": 399,
      "ды": 400,
      "ком": 401,
      "))))": 402,
      "муж": 403,
      "вас": 404,
      "сво": 405,
      "вопро": 406,
      "нуж": 407,
      "пере": 408,
      "ной": 409,
      "так": 410,
      "тре": 411,
      "00": 412,
      "лы": 413,
      "может": 414,
      "пла": 415,
      "деву": 416,
      "йти": 417,
      "он": 418,
      "сте": 419,
      "сло": 420,
      "ного": 421,
      "нет": 422,
      "лучше": 423,
      "вто": 424,
      "кото": 425,
      "девуш": 426,
      "ск": 427,
      "кой": 428,
      "зи": 429,
      "ге": 430,
      "лове": 431,
      "гу": 432,
      "совет": 433,
      "вре": 434,
      "ная": 435,
      "ут": 436,
      "дру": 437,
      "пес": 438,
      "вопрос": 439,
      "ят": 440,
      "челове": 441,
      ")))": 442,
      "ца": 443,
      "боль": 444,
      "кая": 445,
      "будь": 446,
      "ит": 447,
      "пить": 448,
      "бра": 449,
      "нибудь": 450,
      "ных": 451,
      "мужчи": 452,
      "пер": 453,
      "день": 454,
      "мя": 455,
      "инте": 456,
      "стра": 457,
      "оче": 458,
      "три": 459,
      "авто": 460,
      "зыва": 461,
      "год": 462,
      "вить": 463,
      "без": 464,
      "совету": 465,
      "чно": 466,
      "нима": 467,
      "люби": 468,
      "его": 469,
      "вер": 470,
      "дума": 471,
      "кого": 472,
      "том": 473,
      "чита": 474,
      "после": 475,
      "хоро": 476,
      "кон": 477,
      "стоит": 478,
      "посовету": 479,
      "найти": 480,
      "хочу": 481,
      "работа": 482,
      "очень": 483,
      "ходи": 484,
      "сно": 485,
      "дол": 486,
      "чать": 487,
      "!!!": 488,
      "фильм": 489,
      "стро": 490,
      "женщи": 491,
      "бя": 492,
      "воз": 493,
      "чего": 494,
      "шь": 495,
      "нужно": 496,
      "вот": 497,
      "рас": 498,
      "быть": 499,
      "спа": 500,
      "кла": 501,
      "ров": 502,
      "будет": 503,
      "мер": 504,
      "чтобы": 505,
      "гру": 506,
      "ство": 507,
      "она": 508,
      "люб": 509,
      "ную": 510,
      "кар": 511,
      "нка": 512,
      "мен": 513,
      "зе": 514,
      "сси": 515,
      "нра": 516,
      "гла": 517,
      "нее": 518,
      "вый": 519,
      "од": 520,
      "ков": 521,
      "?)": 522,
      "ую": 523,
      "тра": 524,
      "род": 525,
      "купить": 526,
      "кое": 527,
      "люди": 528,
      "уже": 529,
      "ан": 530,
      "которы": 531,
      "кре": 532,
      "гово": 533,
      "рма": 534,
      "надо": 535,
      "посоветуйте": 536,
      "нии": 537,
      "какая": 538,
      "куда": 539,
      "10": 540,
      "ню": 541,
      "пы": 542,
      "стве": 543,
      "только": 544,
      "фе": 545,
      "лся": 546,
      "вание": 547,
      "жиз": 548,
      "ции": 549,
      "сделать": 550,
      "гото": 551,
      "пред": 552,
      "сту": 553,
      "прав": 554,
      "....": 555,
      "называ": 556,
      "ща": 557,
      "ску": 558,
      "шо": 559,
      "рить": 560,
      "знает": 561,
      "наз": 562,
      "кры": 563,
      "ром": 564,
      "их": 565,
      "пар": 566,
      "ней": 567,
      "ский": 568,
      "ным": 569,
      "вой": 570,
      "смо": 571,
      "полу": 572,
      "такое": 573,
      "вст": 574,
      "вз": 575,
      "ак": 576,
      "мет": 577,
      "ей": 578,
      "ются": 579,
      "интере": 580,
      "зу": 581,
      "нрави": 582,
      "нить": 583,
      "маши": 584,
      "ное": 585,
      "чь": 586,
      "ваше": 587,
      "вя": 588,
      "рт": 589,
      "чет": 590,
      "кие": 591,
      "\"?": 592,
      "час": 593,
      "дели": 594,
      "чить": 595,
      "игра": 596,
      "там": 597,
      "писа": 598,
      "чки": 599,
      "мой": 600,
      "брать": 601,
      "больше": 602,
      "кро": 603,
      "года": 604,
      "вь": 605,
      "сей": 606,
      "отно": 607,
      "тер": 608,
      "пло": 609,
      "фото": 610,
      "име": 611,
      "слу": 612,
      "росси": 613,
      "ний": 614,
      "тель": 615,
      "стоя": 616,
      "бле": 617,
      "моск": 618,
      "ем": 619,
      "ник": 620,
      "помо": 621,
      "ху": 622,
      "прави": 623,
      "вну": 624,
      "дра": 625,
      "доро": 626,
      "ез": 627,
      "думаете": 628,
      "вле": 629,
      "вод": 630,
      "кни": 631,
      "лись": 632,
      "ал": 633,
      "воло": 634,
      "сейчас": 635,
      "цы": 636,
      "краси": 637,
      "любо": 638,
      "могу": 639,
      "чё": 640,
      "какую": 641,
      "дать": 642,
      "себя": 643,
      "называется": 644,
      "хи": 645,
      "само": 646,
      "ход": 647,
      "вс": 648,
      "время": 649,
      "фа": 650,
      "ответ": 651,
      "какое": 652,
      "много": 653,
      "дей": 654,
      "обще": 655,
      "соба": 656,
      "какого": 657,
      "они": 658,
      "20": 659,
      "вые": 660,
      "тив": 661,
      "доб": 662,
      "пол": 663,
      "тор": 664,
      "девушки": 665,
      "тя": 666,
      "вает": 667,
      "хать": 668,
      "ребе": 669,
      "скачать": 670,
      "боле": 671,
      "счита": 672,
      "тельно": 673,
      "самы": 674,
      "вля": 675,
      "сро": 676,
      "музы": 677,
      "всем": 678,
      "человек": 679,
      "вку": 680,
      "пода": 681,
      "шу": 682,
      "меся": 683,
      "дит": 684,
      "кру": 685,
      "дома": 686,
      "треть": 687,
      "зать": 688,
      "лась": 689,
      "жде": 690,
      "ской": 691,
      "жу": 692,
      "фут": 693,
      "фильма": 694,
      "пли": 695,
      "было": 696,
      "годня": 697,
      "внутри": 698,
      "ства": 699,
      "рез": 700,
      "????": 701,
      "сегодня": 702,
      "ально": 703,
      "см": 704,
      "ника": 705,
      "просто": 706,
      "норма": 707,
      "ном": 708,
      "чка": 709,
      "был": 710,
      "дер": 711,
      "деть": 712,
      "теле": 713,
      "лось": 714,
      "нуть": 715,
      "бан": 716,
      "хот": 717,
      "название": 718,
      "цвет": 719,
      "сла": 720,
      "жить": 721,
      "чер": 722,
      "ять": 723,
      "сер": 724,
      "сов": 725,
      "еще": 726,
      "дно": 727,
      "сле": 728,
      "испо": 729,
      "ев": 730,
      "нт": 731,
      "нию": 732,
      "вая": 733,
      "ция": 734,
      "ший": 735,
      "ёт": 736,
      "ские": 737,
      "работать": 738,
      "сты": 739,
      "жизни": 740,
      "бес": 741,
      "нача": 742,
      "вести": 743,
      "аль": 744,
      "нравится": 745,
      "песню": 746,
      "тру": 747,
      "оди": 748,
      "кор": 749,
      "дом": 750,
      "такой": 751,
      "((": 752,
      "всего": 753,
      "им": 754,
      "бере": 755,
      "работу": 756,
      "вра": 757,
      "шки": 758,
      "буду": 759,
      "?))": 760,
      "мени": 761,
      "сибо": 762,
      "цу": 763,
      "нов": 764,
      "нять": 765,
      "тов": 766,
      "ман": 767,
      "ющи": 768,
      "ского": 769,
      "лек": 770,
      "чит": 771,
      "голо": 772,
      "вно": 773,
      "ред": 774,
      "бор": 775,
      "песня": 776,
      "оста": 777,
      "бли": 778,
      "эти": 779,
      "спасибо": 780,
      "девушка": 781,
      "))))))))": 782,
      "человека": 783,
      "них": 784,
      "вали": 785,
      "ья": 786,
      "деньги": 787,
      "сс": 788,
      "каком": 789,
      "ехать": 790,
      "посмо": 791,
      "мужчина": 792,
      "кому": 793,
      "интер": 794,
      "мар": 795,
      "цеп": 796,
      ")?": 797,
      "каж": 798,
      "любовь": 799,
      "сери": 800,
      "футбо": 801,
      "вар": 802,
      "спе": 803,
      "виде": 804,
      "ить": 805,
      "жела": 806,
      "хоте": 807,
      "?)))": 808,
      "учи": 809,
      "сить": 810,
      "мужчины": 811,
      "готовить": 812,
      "нный": 813,
      "спи": 814,
      "него": 815,
      "вите": 816,
      "ству": 817,
      "рус": 818,
      "которые": 819,
      "ваши": 820,
      "тно": 821,
      "моло": 822,
      "груп": 823,
      "тро": 824,
      "ните": 825,
      "всё": 826,
      "ваш": 827,
      "ему": 828,
      "нок": 829,
      "нем": 830,
      "200": 831,
      "сай": 832,
      "зачем": 833,
      "правильно": 834,
      "поку": 835,
      "пиш": 836,
      "бро": 837,
      "фор": 838,
      "правда": 839,
      "холо": 840,
      "поло": 841,
      "тур": 842,
      "нные": 843,
      "шко": 844,
      "нужна": 845,
      "нки": 846,
      "тем": 847,
      "ходит": 848,
      "через": 849,
      "15": 850,
      "нку": 851,
      "сек": 852,
      "чтоб": 853,
      "юсь": 854,
      "дить": 855,
      "вари": 856,
      "ешь": 857,
      "шка": 858,
      "кли": 859,
      "жете": 860,
      "себе": 861,
      "дви": 862,
      "дете": 863,
      "такие": 864,
      "стать": 865,
      "россии": 866,
      "пример": 867,
      "гре": 868,
      "мая": 869,
      "москве": 870,
      "подо": 871,
      "ваз": 872,
      "пока": 873,
      "каких": 874,
      "песни": 875,
      "ор": 876,
      "часто": 877,
      "сли": 878,
      "этом": 879,
      "вую": 880,
      "откры": 881,
      "ставить": 882,
      "?!": 883,
      "бира": 884,
      "знать": 885,
      "клю": 886,
      "чку": 887,
      "срочно": 888,
      "жно": 889,
      "оде": 890,
      "обо": 891,
      "12": 892,
      "вания": 893,
      "реб": 894,
      "посмотреть": 895,
      "сме": 896,
      "ток": 897,
      "цию": 898,
      "рой": 899,
      "льный": 900,
      "чина": 901,
      "обра": 902,
      "ее": 903,
      "отды": 904,
      "любите": 905,
      "ново": 906,
      "er": 907,
      "вают": 908,
      "сите": 909,
      "ники": 910,
      "лей": 911,
      "ар": 912,
      "занима": 913,
      "жду": 914,
      "образ": 915,
      "ис": 916,
      "рят": 917,
      "вообще": 918,
      "уме": 919,
      "эк": 920,
      "мага": 921,
      "прода": 922,
      "женщина": 923,
      "пробле": 924,
      "пси": 925,
      "поль": 926,
      ":)": 927,
      "ская": 928,
      "роде": 929,
      "on": 930,
      "здра": 931,
      "мат": 932,
      "ним": 933,
      "отноше": 934,
      "знаете": 935,
      "взять": 936,
      "самый": 937,
      "рит": 938,
      "гля": 939,
      "соб": 940,
      "знаю": 941,
      "кур": 942,
      "вал": 943,
      "новый": 944,
      "рецеп": 945,
      "вес": 946,
      "женщины": 947,
      "объ": 948,
      "нормально": 949,
      "an": 950,
      "народ": 951,
      "этого": 952,
      "слы": 953,
      "сред": 954,
      "отли": 955,
      "нужен": 956,
      "каким": 957,
      "тут": 958,
      "всегда": 959,
      "in": 960,
      "ум": 961,
      "!!!!": 962,
      "нной": 963,
      "поя": 964,
      "ваться": 965,
      "встре": 966,
      "гли": 967,
      "пле": 968,
      "стви": 969,
      "вое": 970,
      "зара": 971,
      "обы": 972,
      "тить": 973,
      "ском": 974,
      "автомо": 975,
      "шие": 976,
      "друго": 977,
      "жизнь": 978,
      "нас": 979,
      "ье": 980,
      "чается": 981,
      "рень": 982,
      "ными": 983,
      "дя": 984,
      "приготовить": 985,
      "значит": 986,
      "дево": 987,
      "слова": 988,
      "укра": 989,
      "щу": 990,
      "уда": 991,
      "дайте": 992,
      "того": 993,
      "спор": 994,
      "произ": 995,
      "нд": 996,
      "тери": 997,
      "кол": 998,
      "коро": 999,
      "стре": 1000,
      "этот": 1001,
      "хоч": 1002,
      "бой": 1003,
      "возможно": 1004,
      "считаете": 1005,
      "ках": 1006,
      "поро": 1007,
      "написа": 1008,
      "язы": 1009,
      "кий": 1010,
      "14": 1011,
      "иг": 1012,
      "тебя": 1013,
      "отве": 1014,
      "тво": 1015,
      "нете": 1016,
      "ран": 1017,
      "интерес": 1018,
      "щё": 1019,
      "нег": 1020,
      "ью": 1021,
      "ских": 1022,
      "пря": 1023,
      "плохо": 1024,
      "рост": 1025,
      "каза": 1026,
      "хорошо": 1027,
      "один": 1028,
      "хочется": 1029,
      "фильмы": 1030,
      "привет": 1031,
      "етесь": 1032,
      "цо": 1033,
      "вству": 1034,
      "сом": 1035,
      "ссы": 1036,
      "который": 1037,
      "грам": 1038,
      "расте": 1039,
      "интересно": 1040,
      "пор": 1041,
      "любимы": 1042,
      "биз": 1043,
      "были": 1044,
      "зя": 1045,
      "реально": 1046,
      "плиз": 1047,
      "бер": 1048,
      "посту": 1049,
      "такая": 1050,
      "лку": 1051,
      "пишите": 1052,
      "ях": 1053,
      "нес": 1054,
      "быстро": 1055,
      "помощ": 1056,
      "ками": 1057,
      "потом": 1058,
      "перед": 1059,
      "хочет": 1060,
      "всех": 1061,
      "дите": 1062,
      "ровать": 1063,
      "лег": 1064,
      "жать": 1065,
      "могут": 1066,
      "пом": 1067,
      "покупа": 1068,
      "рок": 1069,
      "жда": 1070,
      "послед": 1071,
      "начина": 1072,
      "тера": 1073,
      "зада": 1074,
      "волосы": 1075,
      "чный": 1076,
      "сказать": 1077,
      "19": 1078,
      "ещё": 1079,
      "шать": 1080,
      "кредит": 1081,
      "рожде": 1082,
      "16": 1083,
      "ница": 1084,
      "опре": 1085,
      "бло": 1086,
      "шить": 1087,
      "беспла": 1088,
      "вых": 1089,
      "лень": 1090,
      "кроме": 1091,
      "дель": 1092,
      "таки": 1093,
      "рю": 1094,
      "кан": 1095,
      "вез": 1096,
      "or": 1097,
      "знако": 1098,
      "англи": 1099,
      "210": 1100,
      "ходить": 1101,
      "11": 1102,
      "вели": 1103,
      "той": 1104,
      "лки": 1105,
      "одно": 1106,
      "дов": 1107,
      "живот": 1108,
      "кг": 1109,
      "выбрать": 1110,
      "жение": 1111,
      "людей": 1112,
      "туа": 1113,
      "узнать": 1114,
      "евро": 1115,
      "кри": 1116,
      "автомоби": 1117,
      "ность": 1118,
      "зав": 1119,
      "волос": 1120,
      "тан": 1121,
      "ок": 1122,
      "пой": 1123,
      "мину": 1124,
      "ственно": 1125,
      "ребенка": 1126,
      "клу": 1127,
      "вкус": 1128,
      "говорят": 1129,
      "рии": 1130,
      "чат": 1131,
      "времени": 1132,
      "тоже": 1133,
      "проф": 1134,
      "част": 1135,
      "вается": 1136,
      "поху": 1137,
      "спорт": 1138,
      "заме": 1139,
      "её": 1140,
      "дев": 1141,
      "шек": 1142,
      "стить": 1143,
      "дня": 1144,
      "пите": 1145,
      "свои": 1146,
      "можете": 1147,
      "денег": 1148,
      "рен": 1149,
      "свою": 1150,
      "пера": 1151,
      "ar": 1152,
      "была": 1153,
      "подру": 1154,
      "эта": 1155,
      "относите": 1156,
      "понима": 1157,
      "гор": 1158,
      "скую": 1159,
      "место": 1160,
      "даже": 1161,
      "st": 1162,
      "кем": 1163,
      "18": 1164,
      "ления": 1165,
      "разу": 1166,
      "гие": 1167,
      "музыка": 1168,
      "кт": 1169,
      "кот": 1170,
      "све": 1171,
      "свой": 1172,
      "нит": 1173,
      "менно": 1174,
      "парень": 1175,
      "работы": 1176,
      "дли": 1177,
      "лен": 1178,
      "100": 1179,
      "маль": 1180,
      "тех": 1181,
      "лит": 1182,
      "поле": 1183,
      "свя": 1184,
      "нг": 1185,
      "тесь": 1186,
      "карти": 1187,
      "en": 1188,
      "лов": 1189,
      "сильно": 1190,
      "квар": 1191,
      "\",": 1192,
      "дре": 1193,
      "логи": 1194,
      "мнение": 1195,
      "свет": 1196,
      "хва": 1197,
      "кам": 1198,
      "сем": 1199,
      "лё": 1200,
      "зво": 1201,
      "похо": 1202,
      "нер": 1203,
      "относитесь": 1204,
      "виться": 1205,
      "заня": 1206,
      "двига": 1207,
      "стри": 1208,
      "вол": 1209,
      "чера": 1210,
      "испол": 1211,
      "сказа": 1212,
      "часть": 1213,
      "хе": 1214,
      "завтра": 1215,
      "лом": 1216,
      "ское": 1217,
      "хороший": 1218,
      "долго": 1219,
      "13": 1220,
      "ана": 1221,
      "между": 1222,
      "ведь": 1223,
      "домаш": 1224,
      "профес": 1225,
      "вне": 1226,
      "нужны": 1227,
      "учиться": 1228,
      "ньше": 1229,
      "слово": 1230,
      "объя": 1231,
      "сса": 1232,
      "каче": 1233,
      "тай": 1234,
      "стано": 1235,
      "подарить": 1236,
      "рая": 1237,
      "чные": 1238,
      "ваша": 1239,
      "сен": 1240,
      "друг": 1241,
      "вого": 1242,
      "шку": 1243,
      "рова": 1244,
      "льные": 1245,
      "смы": 1246,
      "кварти": 1247,
      "ино": 1248,
      "образо": 1249,
      "сайт": 1250,
      "чает": 1251,
      "изба": 1252,
      "--": 1253,
      "перь": 1254,
      "согла": 1255,
      "этой": 1256,
      "хра": 1257,
      "лице": 1258,
      "шей": 1259,
      "нам": 1260,
      "ске": 1261,
      "теперь": 1262,
      "вым": 1263,
      "al": 1264,
      "зад": 1265,
      "нта": 1266,
      "шая": 1267,
      "англий": 1268,
      "поте": 1269,
      "сами": 1270,
      "суще": 1271,
      "глаза": 1272,
      "исполь": 1273,
      "зде": 1274,
      "долж": 1275,
      "смотре": 1276,
      "веде": 1277,
      "типа": 1278,
      "50": 1279,
      "мор": 1280,
      "чай": 1281,
      "обя": 1282,
      "професси": 1283,
      "30": 1284,
      "сва": 1285,
      "магази": 1286,
      "малень": 1287,
      "ничего": 1288,
      "парня": 1289,
      "играет": 1290,
      "глу": 1291,
      "лка": 1292,
      "посоветуете": 1293,
      "родите": 1294,
      "добры": 1295,
      "жет": 1296,
      "поч": 1297,
      "рого": 1298,
      "работе": 1299,
      "элек": 1300,
      "подели": 1301,
      "над": 1302,
      "ности": 1303,
      "машину": 1304,
      "др": 1305,
      "лия": 1306,
      "класс": 1307,
      "21": 1308,
      "рь": 1309,
      "шла": 1310,
      "ид": 1311,
      "здравству": 1312,
      "доста": 1313,
      "цев": 1314,
      "психоло": 1315,
      "сдела": 1316,
      "предло": 1317,
      "вла": 1318,
      "чение": 1319,
      "кино": 1320,
      "дой": 1321,
      "итель": 1322,
      "сам": 1323,
      "украи": 1324,
      "любви": 1325,
      "ствен": 1326,
      "дорого": 1327,
      "иде": 1328,
      "исто": 1329,
      "обу": 1330,
      "здравствуйте": 1331,
      "el": 1332,
      "опы": 1333,
      "постоя": 1334,
      "оп": 1335,
      "детей": 1336,
      "здесь": 1337,
      "будут": 1338,
      "любит": 1339,
      "читать": 1340,
      "сп": 1341,
      "тебе": 1342,
      "обяза": 1343,
      "книгу": 1344,
      "хотели": 1345,
      "отношения": 1346,
      "руб": 1347,
      "пита": 1348,
      "воду": 1349,
      "видео": 1350,
      "ужа": 1351,
      "скоро": 1352,
      "компа": 1353,
      "at": 1354,
      "большо": 1355,
      "более": 1356,
      "заранее": 1357,
      "17": 1358,
      "своей": 1359,
      "дней": 1360,
      "устро": 1361,
      "попу": 1362,
      "чик": 1363,
      "крас": 1364,
      "должен": 1365,
      "чём": 1366,
      "тки": 1367,
      "бывает": 1368,
      "самая": 1369,
      "глав": 1370,
      "рак": 1371,
      "бесплатно": 1372,
      "зака": 1373,
      "рецепт": 1374,
      "попа": 1375,
      "зин": 1376,
      "меди": 1377,
      "фир": 1378,
      "програм": 1379,
      "тия": 1380,
      "пет": 1381,
      "месте": 1382,
      "вятся": 1383,
      "орга": 1384,
      "коло": 1385,
      "ночь": 1386,
      "придума": 1387,
      "книги": 1388,
      "раст": 1389,
      "получить": 1390,
      "кс": 1391,
      "ников": 1392,
      "жения": 1393,
      "году": 1394,
      "рите": 1395,
      "тура": 1396,
      "гри": 1397,
      "нди": 1398,
      "праз": 1399,
      "сит": 1400,
      "машина": 1401,
      "\".": 1402,
      "ём": 1403,
      "дает": 1404,
      "нием": 1405,
      "желательно": 1406,
      "кую": 1407,
      "++": 1408,
      "чения": 1409,
      "лять": 1410,
      "ссо": 1411,
      "ваете": 1412,
      "став": 1413,
      "шли": 1414,
      "дают": 1415,
      "графи": 1416,
      "помощь": 1417,
      "вчера": 1418,
      "тиче": 1419,
      "люблю": 1420,
      "учить": 1421,
      "лые": 1422,
      "назо": 1423,
      "город": 1424,
      "музыку": 1425,
      "сви": 1426,
      "объяс": 1427,
      "поехать": 1428,
      "отпу": 1429,
      "рую": 1430,
      "принима": 1431,
      "муль": 1432,
      "поез": 1433,
      "давно": 1434,
      "вут": 1435,
      "именно": 1436,
      "телефо": 1437,
      "аа": 1438,
      "оби": 1439,
      "сим": 1440,
      "гает": 1441,
      "000": 1442,
      "нения": 1443,
      "вид": 1444,
      "вопросы": 1445,
      "шую": 1446,
      "нель": 1447,
      "пара": 1448,
      "интернете": 1449,
      "бла": 1450,
      "тол": 1451,
      "купи": 1452,
      "мно": 1453,
      "побе": 1454,
      "дох": 1455,
      "?...": 1456,
      "ани": 1457,
      "нда": 1458,
      "поня": 1459,
      "рода": 1460,
      "низ": 1461,
      "собе": 1462,
      "комп": 1463,
      "настро": 1464,
      "настоя": 1465,
      "зави": 1466,
      "откуда": 1467,
      "други": 1468,
      "поделитесь": 1469,
      "ницу": 1470,
      "неде": 1471,
      "соз": 1472,
      "бал": 1473,
      "назвать": 1474,
      "съ": 1475,
      "хороше": 1476,
      "ребё": 1477,
      "постоянно": 1478,
      "теля": 1479,
      "мира": 1480,
      "играть": 1481,
      "вашему": 1482,
      "примерно": 1483,
      "игры": 1484,
      "усло": 1485,
      "форма": 1486,
      "бизнес": 1487,
      "бре": 1488,
      "вн": 1489,
      "напишите": 1490,
      "коне": 1491,
      "бур": 1492,
      "менять": 1493,
      "два": 1494,
      "жо": 1495,
      "давать": 1496,
      "ление": 1497,
      "друз": 1498,
      "льта": 1499,
      "ших": 1500,
      "лета": 1501,
      "дере": 1502,
      "месяц": 1503,
      "ma": 1504,
      "поли": 1505,
      "даль": 1506,
      "этим": 1507,
      "друзья": 1508,
      "понять": 1509,
      "шел": 1510,
      "слыша": 1511,
      "коман": 1512,
      "получи": 1513,
      "стру": 1514,
      "рубле": 1515,
      "лай": 1516,
      "нах": 1517,
      "бар": 1518,
      "определи": 1519,
      "фу": 1520,
      "кажды": 1521,
      "похудеть": 1522,
      "сни": 1523,
      "самое": 1524,
      "),": 1525,
      "ффе": 1526,
      "явля": 1527,
      "мери": 1528,
      "мина": 1529,
      "сторо": 1530,
      "обла": 1531,
      "лый": 1532,
      ").": 1533,
      "лить": 1534,
      "городе": 1535,
      "девушку": 1536,
      "смотри": 1537,
      "группы": 1538,
      "шло": 1539,
      "ради": 1540,
      "вере": 1541,
      "вспо": 1542,
      "девушке": 1543,
      "is": 1544,
      "дже": 1545,
      "мить": 1546,
      "изме": 1547,
      "страш": 1548,
      "первый": 1549,
      "ат": 1550,
      "блю": 1551,
      "зем": 1552,
      "девочки": 1553,
      "цве": 1554,
      "выра": 1555,
      "беременно": 1556,
      "чной": 1557,
      "роди": 1558,
      "цен": 1559,
      "расскажите": 1560,
      "моя": 1561,
      "сразу": 1562,
      "тому": 1563,
      "понрави": 1564,
      "вом": 1565,
      "мало": 1566,
      "работает": 1567,
      "услови": 1568,
      "коле": 1569,
      "сове": 1570,
      "it": 1571,
      "человеку": 1572,
      "юще": 1573,
      "заработать": 1574,
      "чемпи": 1575,
      "избавиться": 1576,
      "ван": 1577,
      "сезо": 1578,
      "дут": 1579,
      "чек": 1580,
      "сбер": 1581,
      "ног": 1582,
      "реги": 1583,
      "вится": 1584,
      "нное": 1585,
      "пойти": 1586,
      "зар": 1587,
      "сала": 1588,
      "банк": 1589,
      "своих": 1590,
      "женщин": 1591,
      "интернет": 1592,
      "рублей": 1593,
      "конце": 1594,
      "проблема": 1595,
      "жки": 1596,
      "жена": 1597,
      "ситуа": 1598,
      "любить": 1599,
      "ch": 1600,
      "ищу": 1601,
      "тора": 1602,
      "льная": 1603,
      "гар": 1604,
      "?))))": 1605,
      "ским": 1606,
      "нного": 1607,
      "пользо": 1608,
      "эффе": 1609,
      "например": 1610,
      "говорит": 1611,
      "re": 1612,
      "имя": 1613,
      "оне": 1614,
      "пят": 1615,
      "проду": 1616,
      "призна": 1617,
      "способ": 1618,
      "говорить": 1619,
      "рекла": 1620,
      "одна": 1621,
      "ствует": 1622,
      "празд": 1623,
      "ol": 1624,
      "эту": 1625,
      "воль": 1626,
      "тами": 1627,
      "гно": 1628,
      "зву": 1629,
      "мной": 1630,
      "счет": 1631,
      "моро": 1632,
      "летом": 1633,
      "стали": 1634,
      "сны": 1635,
      "нику": 1636,
      "высо": 1637,
      "рождения": 1638,
      "назовите": 1639,
      "оо": 1640,
      "мир": 1641,
      "цвета": 1642,
      "психологи": 1643,
      "дро": 1644,
      "осно": 1645,
      "которая": 1646,
      "нельзя": 1647,
      "лли": 1648,
      "воро": 1649,
      "чувст": 1650,
      "мужчин": 1651,
      "сериал": 1652,
      "ктив": 1653,
      "води": 1654,
      "электро": 1655,
      "шим": 1656,
      "мыш": 1657,
      "нравятся": 1658,
      "футболи": 1659,
      "каждый": 1660,
      "физ": 1661,
      "никогда": 1662,
      "рия": 1663,
      "любимый": 1664,
      "мов": 1665,
      "собира": 1666,
      "тран": 1667,
      "ющие": 1668,
      "встреча": 1669,
      "кле": 1670,
      "опа": 1671,
      "начать": 1672,
      "бук": 1673,
      "мент": 1674,
      "to": 1675,
      "уч": 1676,
      "мужи": 1677,
      "стал": 1678,
      "гать": 1679,
      "баты": 1680,
      "менты": 1681,
      "самые": 1682,
      "il": 1683,
      "сол": 1684,
      "своего": 1685,
      "пробо": 1686,
      "...?": 1687,
      "обре": 1688,
      "месяца": 1689,
      "аниме": 1690,
      "зарпла": 1691,
      "джи": 1692,
      "льной": 1693,
      "хотя": 1694,
      "вся": 1695,
      "открыть": 1696,
      "плю": 1697,
      "ден": 1698,
      "море": 1699,
      "матери": 1700,
      "али": 1701,
      "емы": 1702,
      "кана": 1703,
      "!?": 1704,
      "40": 1705,
      "ких": 1706,
      "печат": 1707,
      "жит": 1708,
      "работ": 1709,
      "ходят": 1710,
      "еди": 1711,
      "поставить": 1712,
      "дети": 1713,
      "деше": 1714,
      "мати": 1715,
      "любят": 1716,
      "карто": 1717,
      "специ": 1718,
      "чных": 1719,
      "точно": 1720,
      "ческий": 1721,
      "мед": 1722,
      "стар": 1723,
      "мото": 1724,
      "мальчи": 1725,
      "дело": 1726,
      "доку": 1727,
      "ребят": 1728,
      "резу": 1729,
      "жем": 1730,
      "отдыха": 1731,
      "амери": 1732,
      "кси": 1733,
      "сбор": 1734,
      "меч": 1735,
      "против": 1736,
      "отдох": 1737,
      "билет": 1738,
      "смотреть": 1739,
      "ваю": 1740,
      "мом": 1741,
      "вест": 1742,
      "спать": 1743,
      "вление": 1744,
      "написать": 1745,
      "вался": 1746,
      "собой": 1747,
      "бен": 1748,
      "сум": 1749,
      "другой": 1750,
      "вспом": 1751,
      "серд": 1752,
      "уче": 1753,
      "сан": 1754,
      "взгля": 1755,
      "=)": 1756,
      "бри": 1757,
      "нная": 1758,
      "ума": 1759,
      "совсем": 1760,
      "подска": 1761,
      "лучший": 1762,
      "зовать": 1763,
      "выпу": 1764,
      "кури": 1765,
      "результа": 1766,
      "оце": 1767,
      "дву": 1768,
      "спра": 1769,
      "моде": 1770,
      "стой": 1771,
      "льное": 1772,
      "клуб": 1773,
      "чного": 1774,
      "банка": 1775,
      "харак": 1776,
      "жный": 1777,
      "ори": 1778,
      "фран": 1779,
      "лан": 1780,
      "зай": 1781,
      "стов": 1782,
      "кажется": 1783,
      "отличается": 1784,
      "покупать": 1785,
      "офи": 1786,
      "уди": 1787,
      "нали": 1788,
      "хоть": 1789,
      "уни": 1790,
      "нице": 1791,
      "боро": 1792,
      "ющий": 1793,
      "носить": 1794,
      "равно": 1795,
      "ходится": 1796,
      "банке": 1797,
      "май": 1798,
      "мужа": 1799,
      "ставля": 1800,
      "зер": 1801,
      "вроде": 1802,
      "нных": 1803,
      "пры": 1804,
      "номер": 1805,
      "лья": 1806,
      "ктор": 1807,
      "фина": 1808,
      "собаки": 1809,
      "сериа": 1810,
      "идти": 1811,
      "настрое": 1812,
      "ro": 1813,
      "потре": 1814,
      "красно": 1815,
      "чке": 1816,
      "масло": 1817,
      "россий": 1818,
      "обязательно": 1819,
      "отдохнуть": 1820,
      "впечат": 1821,
      "кет": 1822,
      "обща": 1823,
      "хорошие": 1824,
      "оборо": 1825,
      "сл": 1826,
      "нор": 1827,
      "стер": 1828,
      "снять": 1829,
      "счасть": 1830,
      "ува": 1831,
      "уга": 1832,
      "тот": 1833,
      "вами": 1834,
      "закон": 1835,
      "бок": 1836,
      "плать": 1837,
      "оно": 1838,
      "кошка": 1839,
      "тие": 1840,
      "гита": 1841,
      "любимо": 1842,
      "серь": 1843,
      "обычно": 1844,
      "внима": 1845,
      "нке": 1846,
      "нера": 1847,
      "заниматься": 1848,
      "нте": 1849,
      "комна": 1850,
      "вашей": 1851,
      "et": 1852,
      "кадр": 1853,
      "продол": 1854,
      "ньте": 1855,
      "знакоми": 1856,
      "вки": 1857,
      "звез": 1858,
      "сю": 1859,
      "нение": 1860,
      "реди": 1861,
      "жды": 1862,
      "эко": 1863,
      "la": 1864,
      "пора": 1865,
      "лично": 1866,
      "тах": 1867,
      "золо": 1868,
      "тему": 1869,
      "запа": 1870,
      "прошу": 1871,
      "туда": 1872,
      "озна": 1873,
      "наде": 1874,
      "должно": 1875,
      "ra": 1876,
      "комеди": 1877,
      "рий": 1878,
      "дки": 1879,
      "кота": 1880,
      "рое": 1881,
      "нев": 1882,
      "чество": 1883,
      "дар": 1884,
      "стави": 1885,
      "путе": 1886,
      "выход": 1887,
      "части": 1888,
      "друга": 1889,
      "ям": 1890,
      "тен": 1891,
      "тает": 1892,
      "мире": 1893,
      "приме": 1894,
      "(((": 1895,
      "офор": 1896,
      "роб": 1897,
      "людя": 1898,
      "неделю": 1899,
      "моей": 1900,
      "футбол": 1901,
      "секс": 1902,
      "поет": 1903,
      "кофе": 1904,
      "решить": 1905,
      "семе": 1906,
      "цена": 1907,
      "собака": 1908,
      "тик": 1909,
      "вство": 1910,
      "лого": 1911,
      "роман": 1912,
      "ваются": 1913,
      "лон": 1914,
      "совре": 1915,
      "машине": 1916,
      "мость": 1917,
      "25": 1918,
      "дво": 1919,
      "уби": 1920,
      "труд": 1921,
      "большой": 1922,
      "устрои": 1923,
      "либо": 1924,
      "сочи": 1925,
      "извест": 1926,
      "согласны": 1927,
      "добрый": 1928,
      "ou": 1929,
      "еги": 1930,
      "поводу": 1931,
      "моз": 1932,
      "вок": 1933,
      "вен": 1934,
      "которых": 1935,
      "ствие": 1936,
      "тели": 1937,
      "ницы": 1938,
      "сят": 1939,
      "рут": 1940,
      "сайте": 1941,
      "помочь": 1942,
      "легко": 1943,
      "автомобиль": 1944,
      "полез": 1945,
      ",,": 1946,
      "тё": 1947,
      "вода": 1948,
      "выгля": 1949,
      "зовут": 1950,
      "всю": 1951,
      "появи": 1952,
      "ствия": 1953,
      "ссылку": 1954,
      ".?": 1955,
      "сня": 1956,
      "лер": 1957,
      "лечить": 1958,
      "паль": 1959,
      "мети": 1960,
      "случа": 1961,
      "ответы": 1962,
      "da": 1963,
      "бка": 1964,
      "нака": 1965,
      "мене": 1966,
      "доба": 1967,
      "щей": 1968,
      "трени": 1969,
      "парни": 1970,
      "бю": 1971,
      "вос": 1972,
      "прият": 1973,
      "спар": 1974,
      "россия": 1975,
      "es": 1976,
      "ru": 1977,
      "сколь": 1978,
      "льного": 1979,
      "слуша": 1980,
      "снима": 1981,
      "нар": 1982,
      "подой": 1983,
      "иска": 1984,
      "пили": 1985,
      "мон": 1986,
      "зывать": 1987,
      "?(": 1988,
      "вка": 1989,
      "зло": 1990,
      "чная": 1991,
      "кошки": 1992,
      "тали": 1993,
      "куль": 1994,
      "делают": 1995,
      "фильме": 1996,
      "смысл": 1997,
      "th": 1998,
      "нике": 1999,
      "вечер": 2000,
      "мини": 2001,
      "няет": 2002,
      "ребенку": 2003,
      "раньше": 2004,
      "диа": 2005,
      "девушкой": 2006,
      "ген": 2007,
      "следу": 2008,
      "магазин": 2009,
      "сок": 2010,
      "няя": 2011,
      "смот": 2012,
      "вспомнить": 2013,
      "пь": 2014,
      "раза": 2015,
      "прове": 2016,
      "щий": 2017,
      "гло": 2018,
      "стей": 2019,
      "писать": 2020,
      "ездить": 2021,
      "ребенок": 2022,
      "км": 2023,
      "чей": 2024,
      "чувство": 2025,
      "ic": 2026,
      "особе": 2027,
      "смер": 2028,
      "тек": 2029,
      "руки": 2030,
      "быв": 2031,
      "гают": 2032,
      "знаком": 2033,
      "своим": 2034,
      "имеет": 2035,
      "бросить": 2036,
      "определить": 2037,
      "оли": 2038,
      "недели": 2039,
      "мои": 2040,
      "лете": 2041,
      "ряд": 2042,
      "утра": 2043,
      "группа": 2044,
      "должна": 2045,
      "две": 2046,
      "игру": 2047,
      "бом": 2048,
      "одино": 2049,
      "?..": 2050,
      "здо": 2051,
      "ии": 2052,
      "шке": 2053,
      "города": 2054,
      "такую": 2055,
      "пози": 2056,
      "нами": 2057,
      "лица": 2058,
      "стно": 2059,
      "реа": 2060,
      "малы": 2061,
      "вления": 2062,
      "держа": 2063,
      "заняться": 2064,
      "свадь": 2065,
      "ен": 2066,
      "коте": 2067,
      "ноги": 2068,
      "такого": 2069,
      "диет": 2070,
      "делаете": 2071,
      "предпо": 2072,
      "машины": 2073,
      "условиях": 2074,
      "взгляд": 2075,
      "фот": 2076,
      "кола": 2077,
      "рей": 2078,
      "сказ": 2079,
      "водите": 2080,
      "частли": 2081,
      "ап": 2082,
      "научиться": 2083,
      "скому": 2084,
      "вариан": 2085,
      "мм": 2086,
      "ката": 2087,
      "рай": 2088,
      "выше": 2089,
      "тый": 2090,
      "хорошую": 2091,
      "одной": 2092,
      "отдыхать": 2093,
      "бря": 2094,
      "сне": 2095,
      "деле": 2096,
      "лем": 2097,
      "продать": 2098,
      "свобо": 2099,
      "началь": 2100,
      "влия": 2101,
      "дёт": 2102,
      "фан": 2103,
      "кате": 2104,
      "позво": 2105,
      "ребя": 2106,
      "рили": 2107,
      "мело": 2108,
      "места": 2109,
      "прое": 2110,
      "вред": 2111,
      "уста": 2112,
      "тату": 2113,
      "систе": 2114,
      "мужчине": 2115,
      "жка": 2116,
      "состоя": 2117,
      "чёт": 2118,
      "нком": 2119,
      "счастли": 2120,
      "мол": 2121,
      "рение": 2122,
      "маг": 2123,
      "пись": 2124,
      "москвы": 2125,
      "дё": 2126,
      "пти": 2127,
      "тогда": 2128,
      "лам": 2129,
      "прогно": 2130,
      "тит": 2131,
      "домашних": 2132,
      "90": 2133,
      "оши": 2134,
      "опла": 2135,
      "пропа": 2136,
      "стом": 2137,
      "месяцев": 2138,
      "порода": 2139,
      "поступить": 2140,
      "связа": 2141,
      "внеш": 2142,
      "других": 2143,
      "ot": 2144,
      "ссе": 2145,
      "воды": 2146,
      "подроб": 2147,
      "могли": 2148,
      "разви": 2149,
      "одного": 2150,
      "пользу": 2151,
      "бизне": 2152,
      "вело": 2153,
      "причи": 2154,
      "начала": 2155,
      "школе": 2156,
      "иногда": 2157,
      "защи": 2158,
      "страхо": 2159,
      "алкого": 2160,
      "придумать": 2161,
      "рки": 2162,
      "назад": 2163,
      "человеком": 2164,
      "читаете": 2165,
      "ником": 2166,
      "будете": 2167,
      "потеря": 2168,
      "еду": 2169,
      "успе": 2170,
      "несколько": 2171,
      "ляр": 2172,
      "нюю": 2173,
      "темпера": 2174,
      "смотрел": 2175,
      "бки": 2176,
      "гэ": 2177,
      "ств": 2178,
      "док": 2179,
      "суп": 2180,
      ")))))": 2181,
      "пыта": 2182,
      "взро": 2183,
      "чо": 2184,
      "эро": 2185,
      "кос": 2186,
      "стя": 2187,
      "мама": 2188,
      "пать": 2189,
      "какими": 2190,
      "является": 2191,
      "физи": 2192,
      "нару": 2193,
      "никто": 2194,
      "хозя": 2195,
      "сил": 2196,
      "сили": 2197,
      "двух": 2198,
      "означает": 2199,
      "здоров": 2200,
      "вместе": 2201,
      "дят": 2202,
      "кти": 2203,
      "опера": 2204,
      "тка": 2205,
      "сон": 2206,
      "гал": 2207,
      "щие": 2208,
      "девушек": 2209,
      "проблемы": 2210,
      "ав": 2211,
      "адре": 2212,
      "кров": 2213,
      "улице": 2214,
      "закры": 2215,
      "чаще": 2216,
      "парню": 2217,
      "упра": 2218,
      "нету": 2219,
      "обходи": 2220,
      "шан": 2221,
      "матч": 2222,
      "почти": 2223,
      "кл": 2224,
      "пя": 2225,
      "нави": 2226,
      "воспи": 2227,
      "проис": 2228,
      "мин": 2229,
      "собаку": 2230,
      "вкусно": 2231,
      "покуп": 2232,
      "нси": 2233,
      "напи": 2234,
      "находится": 2235,
      "отзы": 2236,
      "переда": 2237,
      "верх": 2238,
      "интересу": 2239,
      ".)": 2240,
      "описа": 2241,
      "тей": 2242,
      "замуж": 2243,
      "вече": 2244,
      "бога": 2245,
      "бывают": 2246,
      "право": 2247,
      "питере": 2248,
      "уважа": 2249,
      "дка": 2250,
      "пля": 2251,
      "нал": 2252,
      "сила": 2253,
      "красо": 2254,
      "собак": 2255,
      "русский": 2256,
      "обе": 2257,
      "новые": 2258,
      "дож": 2259,
      "совер": 2260,
      "вино": 2261,
      "тые": 2262,
      "разница": 2263,
      "предла": 2264,
      "использовать": 2265,
      "попуга": 2266,
      "беременности": 2267,
      "людям": 2268,
      "ребята": 2269,
      "тные": 2270,
      "наше": 2271,
      "литера": 2272,
      "тая": 2273,
      "информа": 2274,
      "лайн": 2275,
      "особенно": 2276,
      "le": 2277,
      "60": 2278,
      "co": 2279,
      "вклю": 2280,
      "оте": 2281,
      "тать": 2282,
      "болит": 2283,
      "туре": 2284,
      "геро": 2285,
      "хватает": 2286,
      "гости": 2287,
      "шам": 2288,
      "вли": 2289,
      "идет": 2290,
      "нк": 2291,
      "шком": 2292,
      "поз": 2293,
      "насколько": 2294,
      "зага": 2295,
      "выгод": 2296,
      "бол": 2297,
      "дил": 2298,
      "живать": 2299,
      "???)))": 2300,
      "москва": 2301,
      "ходя": 2302,
      "вала": 2303,
      "рения": 2304,
      "мате": 2305,
      "меньше": 2306,
      "мента": 2307,
      "образование": 2308,
      "чески": 2309,
      "стары": 2310,
      "прин": 2311,
      "помогает": 2312,
      "ассо": 2313,
      "ёл": 2314,
      "наве": 2315,
      "немного": 2316,
      "необходи": 2317,
      "ствите": 2318,
      "глаз": 2319,
      "взя": 2320,
      "спорта": 2321,
      "язык": 2322,
      "ответь": 2323,
      "похожи": 2324,
      "созда": 2325,
      "упраж": 2326,
      "льных": 2327,
      "ческой": 2328,
      "ческие": 2329,
      "чают": 2330,
      "разме": 2331,
      "разве": 2332,
      "щение": 2333,
      "стью": 2334,
      "?:": 2335,
      "кло": 2336,
      "лицо": 2337,
      "водить": 2338,
      "сах": 2339,
      "жан": 2340,
      "ужели": 2341,
      "отдых": 2342,
      "катего": 2343,
      "дж": 2344,
      "познакоми": 2345,
      "мец": 2346,
      "курить": 2347,
      "петер": 2348,
      "газ": 2349,
      "получается": 2350,
      "круг": 2351,
      "ющих": 2352,
      "полови": 2353,
      "сердце": 2354,
      "di": 2355,
      "сра": 2356,
      "увели": 2357,
      "ети": 2358,
      "зимой": 2359,
      "женщине": 2360,
      "зарабаты": 2361,
      "существует": 2362,
      "объясните": 2363,
      "дальше": 2364,
      "потреб": 2365,
      "рэ": 2366,
      "най": 2367,
      "рию": 2368,
      "щения": 2369,
      "которой": 2370,
      "вредно": 2371,
      "карту": 2372,
      "креди": 2373,
      "am": 2374,
      "уха": 2375,
      "рома": 2376,
      "гом": 2377,
      "сосе": 2378,
      "тыс": 2379,
      "хотите": 2380,
      "двигатель": 2381,
      "должны": 2382,
      "тон": 2383,
      "дел": 2384,
      "боя": 2385,
      "этому": 2386,
      "перевести": 2387,
      "тяже": 2388,
      "эффектив": 2389,
      "эконо": 2390,
      "вались": 2391,
      "мес": 2392,
      "мии": 2393,
      "душе": 2394,
      "размер": 2395,
      "свое": 2396,
      "второй": 2397,
      "близ": 2398,
      "ах": 2399,
      "егэ": 2400,
      "ию": 2401,
      "кке": 2402,
      "уро": 2403,
      "коли": 2404,
      "раста": 2405,
      "долла": 2406,
      "зенит": 2407,
      "щая": 2408,
      "знакомы": 2409,
      "настроение": 2410,
      "петербур": 2411,
      "спро": 2412,
      "вайте": 2413,
      "приобре": 2414,
      "!)": 2415,
      "еха": 2416,
      "ощу": 2417,
      "ян": 2418,
      "кали": 2419,
      "дали": 2420,
      "какому": 2421,
      "продук": 2422,
      "жку": 2423,
      "тю": 2424,
      "поздра": 2425,
      "нос": 2426,
      "рисо": 2427,
      "дале": 2428,
      "вей": 2429,
      "чие": 2430,
      "другу": 2431,
      "зывает": 2432,
      "2109": 2433,
      "отпуск": 2434,
      "чную": 2435,
      "коль": 2436,
      "неужели": 2437,
      "нут": 2438,
      "любимая": 2439,
      "ством": 2440,
      "действите": 2441,
      "голову": 2442,
      "произведе": 2443,
      "испа": 2444,
      "ниже": 2445,
      "мысли": 2446,
      "зов": 2447,
      "одну": 2448,
      "метал": 2449,
      "впечатления": 2450,
      "de": 2451,
      "реше": 2452,
      "дове": 2453,
      "ответьте": 2454,
      "+)": 2455,
      "узна": 2456,
      "важ": 2457,
      "лез": 2458,
      "хокке": 2459,
      "сама": 2460,
      "стоить": 2461,
      "парнем": 2462,
      "подарок": 2463,
      "корм": 2464,
      "хотелось": 2465,
      "смеш": 2466,
      "as": 2467,
      "тный": 2468,
      "ними": 2469,
      "..?": 2470,
      "собы": 2471,
      "быстре": 2472,
      "живо": 2473,
      "пуска": 2474,
      "герма": 2475,
      "думаю": 2476,
      "подоби": 2477,
      "украине": 2478,
      "яй": 2479,
      "льным": 2480,
      "чере": 2481,
      "лог": 2482,
      "больно": 2483,
      "фанта": 2484,
      "ожи": 2485,
      "убрать": 2486,
      "тика": 2487,
      "хов": 2488,
      "дина": 2489,
      "стала": 2490,
      "сут": 2491,
      "зей": 2492,
      "телей": 2493,
      "благода": 2494,
      "многие": 2495,
      "уго": 2496,
      "лок": 2497,
      "мать": 2498,
      "тики": 2499,
      "пару": 2500,
      "ответить": 2501,
      "американ": 2502,
      "ест": 2503,
      "сипе": 2504,
      "подрост": 2505,
      "жает": 2506,
      "бить": 2507,
      "слов": 2508,
      "возрасте": 2509,
      "красить": 2510,
      "школу": 2511,
      "заказать": 2512,
      "органи": 2513,
      "эмо": 2514,
      "мили": 2515,
      "автобу": 2516,
      "красиво": 2517,
      "беремен": 2518,
      "внимание": 2519,
      "ква": 2520,
      "выс": 2521,
      "рыба": 2522,
      "платить": 2523,
      "держать": 2524,
      "кормить": 2525,
      "одежды": 2526,
      "опять": 2527,
      "фирмы": 2528,
      "документы": 2529,
      "ам": 2530,
      "нную": 2531,
      "доме": 2532,
      "стои": 2533,
      "цент": 2534,
      "мужчину": 2535,
      "стране": 2536,
      "крем": 2537,
      "чёр": 2538,
      "этих": 2539,
      "девушкам": 2540,
      "))))))))))))))))": 2541,
      "сказал": 2542,
      "джин": 2543,
      "велосипе": 2544,
      "80": 2545,
      "вни": 2546,
      "нин": 2547,
      "модель": 2548,
      "часов": 2549,
      "тыся": 2550,
      "шает": 2551,
      "контак": 2552,
      "секса": 2553,
      "платье": 2554,
      "ким": 2555,
      "стоят": 2556,
      "гина": 2557,
      "телефон": 2558,
      "500": 2559,
      "цска": 2560,
      "япо": 2561,
      "льную": 2562,
      "весе": 2563,
      "лям": 2564,
      "сало": 2565,
      "тури": 2566,
      "кер": 2567,
      "чувству": 2568,
      "сложно": 2569,
      "карты": 2570,
      "книга": 2571,
      "хотят": 2572,
      "форму": 2573,
      "твор": 2574,
      "водится": 2575,
      "ww": 2576,
      "ждать": 2577,
      "чкой": 2578,
      "женщину": 2579,
      "болез": 2580,
      "альный": 2581,
      "ребёнка": 2582,
      "навея": 2583,
      "ура": 2584,
      "удоб": 2585,
      "попро": 2586,
      "дем": 2587,
      "зации": 2588,
      "боюсь": 2589,
      "сайты": 2590,
      "ужи": 2591,
      "шта": 2592,
      "рать": 2593,
      "мод": 2594,
      "китай": 2595,
      "лето": 2596,
      "дова": 2597,
      "доволь": 2598,
      "тий": 2599,
      "пери": 2600,
      "действительно": 2601,
      "гро": 2602,
      "наши": 2603,
      "отка": 2604,
      "отра": 2605,
      "делает": 2606,
      "турции": 2607,
      "производ": 2608,
      "емые": 2609,
      "ub": 2610,
      "us": 2611,
      "брю": 2612,
      "оч": 2613,
      "пр": 2614,
      "рами": 2615,
      "ган": 2616,
      "туры": 2617,
      "циа": 2618,
      "цио": 2619,
      "спокой": 2620,
      "онлайн": 2621,
      "влека": 2622,
      "обраща": 2623,
      "квартиру": 2624,
      "компью": 2625,
      "мотоци": 2626,
      "путеше": 2627,
      "ип": 2628,
      "нови": 2629,
      "нему": 2630,
      "верите": 2631,
      "добра": 2632,
      "которую": 2633,
      "фотографи": 2634,
      "регистра": 2635,
      "устроиться": 2636,
      "уви": 2637,
      "реши": 2638,
      "проти": 2639,
      "сотруд": 2640,
      "править": 2641,
      "друж": 2642,
      "зеле": 2643,
      "сезон": 2644,
      "спраши": 2645,
      "современ": 2646,
      "спартак": 2647,
      "предпочитаете": 2648,
      "ёз": 2649,
      "посе": 2650,
      "лин": 2651,
      "рам": 2652,
      "секре": 2653,
      "бело": 2654,
      "стиль": 2655,
      "жир": 2656,
      "требу": 2657,
      "первые": 2658,
      "верну": 2659,
      "нравиться": 2660,
      "трудно": 2661,
      "исполни": 2662,
      "ночью": 2663,
      "основ": 2664,
      "23": 2665,
      "чон": 2666,
      "наи": 2667,
      "моего": 2668,
      "выбо": 2669,
      "причина": 2670,
      "сков": 2671,
      "спортив": 2672,
      "ht": 2673,
      "ад": 2674,
      "отель": 2675,
      "недорого": 2676,
      "безо": 2677,
      "супер": 2678,
      "пласти": 2679,
      "бороться": 2680,
      "гром": 2681,
      "иску": 2682,
      "нау": 2683,
      "немец": 2684,
      "весь": 2685,
      "прия": 2686,
      "вернуть": 2687,
      "держи": 2688,
      "растение": 2689,
      "199": 2690,
      "космети": 2691,
      "сии": 2692,
      "бин": 2693,
      "чуть": 2694,
      "семь": 2695,
      "отзывы": 2696,
      "гр": 2697,
      "ётся": 2698,
      "некоторые": 2699,
      "важно": 2700,
      "завести": 2701,
      "итесь": 2702,
      "руко": 2703,
      "шен": 2704,
      "пель": 2705,
      "мнению": 2706,
      "права": 2707,
      "сказали": 2708,
      "компании": 2709,
      "//": 2710,
      "ухо": 2711,
      "кожа": 2712,
      "лиш": 2713,
      "бабу": 2714,
      "гражда": 2715,
      "утром": 2716,
      "слишком": 2717,
      "магазине": 2718,
      "конец": 2719,
      "экономи": 2720,
      "быстрее": 2721,
      "иск": 2722,
      "пл": 2723,
      "сша": 2724,
      "нец": 2725,
      "нета": 2726,
      "голу": 2727,
      "выбира": 2728,
      "дости": 2729,
      "вин": 2730,
      "??))": 2731,
      "пари": 2732,
      "измени": 2733,
      "бил": 2734,
      "друзей": 2735,
      "музыки": 2736,
      "трудо": 2737,
      "опреде": 2738,
      "автомобиля": 2739,
      "купил": 2740,
      "чемпиона": 2741,
      "**": 2742,
      "дку": 2743,
      "тии": 2744,
      "шее": 2745,
      "пригото": 2746,
      "бух": 2747,
      "гами": 2748,
      "сексу": 2749,
      "блонди": 2750,
      "пп": 2751,
      "горе": 2752,
      "рует": 2753,
      "цены": 2754,
      "инстру": 2755,
      "вашем": 2756,
      "средства": 2757,
      "анали": 2758,
      "мульт": 2759,
      "области": 2760,
      "чувства": 2761,
      "семей": 2762,
      "?:)": 2763,
      "влюб": 2764,
      "гры": 2765,
      "рф": 2766,
      "ремо": 2767,
      "лье": 2768,
      "какова": 2769,
      "нном": 2770,
      "нность": 2771,
      "будуще": 2772,
      "нового": 2773,
      "своими": 2774,
      "происходит": 2775,
      "били": 2776,
      "справ": 2777,
      "тр": 2778,
      "поёт": 2779,
      "недавно": 2780,
      "тар": 2781,
      "выбор": 2782,
      "дому": 2783,
      "тин": 2784,
      "рядом": 2785,
      "класси": 2786,
      "курс": 2787,
      "родители": 2788,
      "францу": 2789,
      "счастье": 2790,
      "ёр": 2791,
      "сень": 2792,
      "чая": 2793,
      "щенка": 2794,
      "грудь": 2795,
      "красивая": 2796,
      "родителей": 2797,
      "хорошего": 2798,
      "новая": 2799,
      "лая": 2800,
      "мужем": 2801,
      "сона": 2802,
      "виа": 2803,
      "стан": 2804,
      "шин": 2805,
      "говор": 2806,
      "блин": 2807,
      "холод": 2808,
      "слышал": 2809,
      "специально": 2810,
      "закончи": 2811,
      "влюби": 2812,
      "эй": 2813,
      "ночи": 2814,
      "роли": 2815,
      "ровки": 2816,
      "дорогие": 2817,
      "языке": 2818,
      "днев": 2819,
      "кать": 2820,
      "поменять": 2821,
      "тере": 2822,
      "привы": 2823,
      "фигу": 2824,
      "жив": 2825,
      "возь": 2826,
      "использу": 2827,
      "купила": 2828,
      "me": 2829,
      "рах": 2830,
      "никак": 2831,
      "ненави": 2832,
      "стю": 2833,
      "горя": 2834,
      "сор": 2835,
      "чики": 2836,
      "крови": 2837,
      "ребенком": 2838,
      "животных": 2839,
      "the": 2840,
      "ki": 2841,
      "ri": 2842,
      "зз": 2843,
      "мпи": 2844,
      "това": 2845,
      "поме": 2846,
      "нако": 2847,
      "новую": 2848,
      "момент": 2849,
      "милли": 2850,
      "пиво": 2851,
      "жал": 2852,
      "бир": 2853,
      "фильмов": 2854,
      "зить": 2855,
      "цветы": 2856,
      "последний": 2857,
      "девчон": 2858,
      "ситуации": 2859,
      "li": 2860,
      "жные": 2861,
      "уу": 2862,
      "жени": 2863,
      "часа": 2864,
      "скры": 2865,
      "зывают": 2866,
      "снова": 2867,
      "возду": 2868,
      "анти": 2869,
      "случай": 2870,
      "помните": 2871,
      "ностью": 2872,
      "качестве": 2873,
      "главное": 2874,
      "свида": 2875,
      "реаги": 2876,
      "джа": 2877,
      "жили": 2878,
      "ой": 2879,
      "сда": 2880,
      "гов": 2881,
      "гой": 2882,
      "виду": 2883,
      "рук": 2884,
      "живет": 2885,
      "шокола": 2886,
      "красивые": 2887,
      "срок": 2888,
      "вдруг": 2889,
      "нным": 2890,
      "ссу": 2891,
      "хле": 2892,
      "рези": 2893,
      "рил": 2894,
      "рису": 2895,
      "прос": 2896,
      "лят": 2897,
      "пиро": 2898,
      "био": 2899,
      "нности": 2900,
      "зом": 2901,
      "серии": 2902,
      "колле": 2903,
      "помощью": 2904,
      "минут": 2905,
      "серьез": 2906,
      "(+)": 2907,
      "bm": 2908,
      "ce": 2909,
      "фли": 2910,
      "навер": 2911,
      "госпо": 2912,
      "ческая": 2913,
      "зали": 2914,
      "заболе": 2915,
      "провести": 2916,
      "чаются": 2917,
      "приви": 2918,
      "клады": 2919,
      "доброго": 2920,
      "жур": 2921,
      "хотел": 2922,
      "опыт": 2923,
      "совето": 2924,
      "влияет": 2925,
      "ули": 2926,
      "сади": 2927,
      "гаре": 2928,
      "которого": 2929,
      "верь": 2930,
      "интересный": 2931,
      "мышцы": 2932,
      "санкт": 2933,
      "безопа": 2934,
      "70": 2935,
      "аэро": 2936,
      "вло": 2937,
      "здоро": 2938,
      "потому": 2939,
      "нач": 2940,
      "тест": 2941,
      "мое": 2942,
      "чел": 2943,
      "домой": 2944,
      "шего": 2945,
      "ций": 2946,
      "другие": 2947,
      "готовы": 2948,
      "курсы": 2949,
      "попасть": 2950,
      "дешевле": 2951,
      "ус": 2952,
      "убе": 2953,
      "недель": 2954,
      "макси": 2955,
      "пройти": 2956,
      "прошло": 2957,
      "рубе": 2958,
      "послу": 2959,
      "зор": 2960,
      "перевод": 2961,
      "ющим": 2962,
      "группу": 2963,
      "интересные": 2964,
      "питер": 2965,
      "понимаю": 2966,
      "учите": 2967,
      "универ": 2968,
      "противо": 2969,
      "for": 2970,
      "аб": 2971,
      "вместо": 2972,
      "комен": 2973,
      "кошек": 2974,
      "ниж": 2975,
      "реш": 2976,
      "зако": 2977,
      "хоче": 2978,
      "дипло": 2979,
      "пей": 2980,
      "пече": 2981,
      "судь": 2982,
      "автор": 2983,
      "которым": 2984,
      "учится": 2985,
      "организ": 2986,
      "комплек": 2987,
      "подоб": 2988,
      "дам": 2989,
      "бов": 2990,
      "тили": 2991,
      "станет": 2992,
      "буд": 2993,
      "мыть": 2994,
      "циона": 2995,
      "мясо": 2996,
      "расска": 2997,
      "ходите": 2998,
      "ствуют": 2999,
      "-)": 3000,
      "24": 3001,
      "упа": 3002,
      "управ": 3003,
      "хнет": 3004,
      "поми": 3005,
      "восто": 3006,
      "сохра": 3007,
      "ляет": 3008,
      "клип": 3009,
      "новогод": 3010,
      "появля": 3011,
      "корот": 3012,
      "заменить": 3013,
      "ай": 3014,
      "устра": 3015,
      "листь": 3016,
      "вай": 3017,
      "мест": 3018,
      "вещи": 3019,
      "пресси": 3020,
      "плат": 3021,
      "ждения": 3022,
      "другом": 3023,
      "минусы": 3024,
      "обувь": 3025,
      "опасно": 3026,
      "бку": 3027,
      "неё": 3028,
      "ват": 3029,
      "хомя": 3030,
      "пусти": 3031,
      "сыгра": 3032,
      "оборот": 3033,
      "ёте": 3034,
      "доби": 3035,
      "миро": 3036,
      "лях": 3037,
      "сад": 3038,
      "целу": 3039,
      "строй": 3040,
      "любов": 3041,
      "мужчинам": 3042,
      "спб": 3043,
      "кровь": 3044,
      "упражнения": 3045,
      "un": 3046,
      "счёт": 3047,
      "запре": 3048,
      "пригла": 3049,
      "пит": 3050,
      "бай": 3051,
      "гей": 3052,
      "видел": 3053,
      "средство": 3054,
      "спортом": 3055,
      "воспита": 3056,
      "нара": 3057,
      "коше": 3058,
      "ресто": 3059,
      "зая": 3060,
      "дамы": 3061,
      "чистить": 3062,
      "саха": 3063,
      "прико": 3064,
      "пенси": 3065,
      "столько": 3066,
      "возвра": 3067,
      "чета": 3068,
      "пления": 3069,
      "смотрите": 3070,
      "солн": 3071,
      "олимпи": 3072,
      "вечером": 3073,
      "lo": 3074,
      "ауди": 3075,
      "улы": 3076,
      "яр": 3077,
      "вании": 3078,
      "горо": 3079,
      "заставить": 3080,
      "выми": 3081,
      "боли": 3082,
      "цело": 3083,
      "слад": 3084,
      "прям": 3085,
      "сентя": 3086,
      "оригина": 3087,
      "подойдет": 3088,
      "ил": 3089,
      "почитать": 3090,
      "номе": 3091,
      "кух": 3092,
      "жел": 3093,
      "скиньте": 3094,
      "метро": 3095,
      "самом": 3096,
      "плюсы": 3097,
      "искать": 3098,
      "ve": 3099,
      "пож": 3100,
      "посовето": 3101,
      "зал": 3102,
      "силь": 3103,
      "приче": 3104,
      "ктов": 3105,
      "разобра": 3106,
      "возраст": 3107,
      "играл": 3108,
      "желание": 3109,
      "любимые": 3110,
      "становить": 3111,
      "ногти": 3112,
      "интересует": 3113,
      "300": 3114,
      "нский": 3115,
      "сходить": 3116,
      "кафе": 3117,
      "новой": 3118,
      "дал": 3119,
      "чий": 3120,
      "сидеть": 3121,
      "самой": 3122,
      "подума": 3123,
      "живу": 3124,
      "легче": 3125,
      "настояще": 3126,
      "стороны": 3127,
      "египет": 3128,
      "бь": 3129,
      "блу": 3130,
      "сма": 3131,
      "распо": 3132,
      "рек": 3133,
      "воде": 3134,
      "киньте": 3135,
      "гам": 3136,
      "зии": 3137,
      "расста": 3138,
      "клад": 3139,
      "иметь": 3140,
      "считать": 3141,
      "подобрать": 3142,
      "баллов": 3143,
      "подскажет": 3144,
      "ex": 3145,
      "ом": 3146,
      "роль": 3147,
      "рекомен": 3148,
      "масла": 3149,
      "проте": 3150,
      "титься": 3151,
      "разли": 3152,
      "цией": 3153,
      "рять": 3154,
      "возраста": 3155,
      "выйдет": 3156,
      "скучно": 3157,
      "актри": 3158,
      "тяги": 3159,
      "девочка": 3160,
      "двигателя": 3161,
      "добрые": 3162,
      "популяр": 3163,
      "набрать": 3164,
      "дения": 3165,
      "реаль": 3166,
      "рина": 3167,
      "давайте": 3168,
      "мето": 3169,
      "хода": 3170,
      "стало": 3171,
      "сиг": 3172,
      "сигаре": 3173,
      "грани": 3174,
      "класса": 3175,
      "готов": 3176,
      "получа": 3177,
      "животное": 3178,
      "хорошее": 3179,
      "конечно": 3180,
      "цветок": 3181,
      "сбербанка": 3182,
      "пробовал": 3183,
      "скольки": 3184,
      "vi": 3185,
      "дни": 3186,
      "хуже": 3187,
      "пробе": 3188,
      "отказа": 3189,
      "обма": 3190,
      "аквари": 3191,
      "одежду": 3192,
      "оформ": 3193,
      "do": 3194,
      "ука": 3195,
      "пот": 3196,
      "пола": 3197,
      "насту": 3198,
      "честно": 3199,
      "жей": 3200,
      "чика": 3201,
      "пан": 3202,
      "берут": 3203,
      "души": 3204,
      "тых": 3205,
      "сухо": 3206,
      "брали": 3207,
      "ствовать": 3208,
      "ственный": 3209,
      "емся": 3210,
      "2012": 3211,
      "ницей": 3212,
      "котенка": 3213,
      "француз": 3214,
      "пки": 3215,
      "пья": 3216,
      "мора": 3217,
      "вень": 3218,
      "тива": 3219,
      "жены": 3220,
      "фин": 3221,
      "пресс": 3222,
      "летки": 3223,
      "мужчиной": 3224,
      "футболу": 3225,
      "отдыхал": 3226,
      "добраться": 3227,
      "девчонки": 3228,
      "фри": 3229,
      "кало": 3230,
      "режи": 3231,
      "чен": 3232,
      "читал": 3233,
      "хорошая": 3234,
      "февра": 3235,
      "one": 3236,
      "словами": 3237,
      "беременность": 3238,
      "офици": 3239,
      "любимого": 3240,
      "математи": 3241,
      "ассоциа": 3242,
      ":)))": 3243,
      "среди": 3244,
      "услу": 3245,
      "роста": 3246,
      "говари": 3247,
      "чении": 3248,
      "лой": 3249,
      "вили": 3250,
      "сия": 3251,
      "пира": 3252,
      "гах": 3253,
      "цион": 3254,
      "котором": 3255,
      "зуб": 3256,
      "футболь": 3257,
      "породы": 3258,
      "написано": 3259,
      "профессиона": 3260,
      "опытом": 3261,
      "блюдо": 3262,
      "чемпио": 3263,
      "ситуация": 3264,
      "уважаемые": 3265,
      "приобрести": 3266,
      "постави": 3267,
      "кок": 3268,
      "кова": 3269,
      "зам": 3270,
      "выпа": 3271,
      "плани": 3272,
      "чное": 3273,
      "начале": 3274,
      "отношение": 3275,
      "цов": 3276,
      "зарплата": 3277,
      "tp": 3278,
      "еться": 3279,
      "шкой": 3280,
      "энер": 3281,
      "пок": 3282,
      "поможет": 3283,
      "радо": 3284,
      "моему": 3285,
      "масса": 3286,
      "зная": 3287,
      "фило": 3288,
      "жига": 3289,
      "инже": 3290,
      "инди": 3291,
      "ваших": 3292,
      "экзаме": 3293,
      "принимать": 3294,
      "билеты": 3295,
      "общаться": 3296,
      "комедию": 3297,
      "you": 3298,
      "едет": 3299,
      "шёл": 3300,
      "воли": 3301,
      "вокруг": 3302,
      "ческое": 3303,
      "печа": 3304,
      "утро": 3305,
      "фера": 3306,
      "торго": 3307,
      "пояс": 3308,
      "программу": 3309,
      "мечта": 3310,
      "нарко": 3311,
      "тысяч": 3312,
      "__": 3313,
      "op": 3314,
      "жё": 3315,
      "сна": 3316,
      "кошку": 3317,
      "шер": 3318,
      "пил": 3319,
      "нья": 3320,
      "жил": 3321,
      "разные": 3322,
      "слома": 3323,
      "школы": 3324,
      "менедже": 3325,
      "мл": 3326,
      "остро": 3327,
      "около": 3328,
      "сля": 3329,
      "кал": 3330,
      "наоборот": 3331,
      "тела": 3332,
      "тело": 3333,
      "моби": 3334,
      "туру": 3335,
      "делал": 3336,
      "детям": 3337,
      "фер": 3338,
      "зубы": 3339,
      "стые": 3340,
      "подруга": 3341,
      "становится": 3342,
      "салат": 3343,
      "сериала": 3344,
      "гря": 3345,
      "щую": 3346,
      "каме": 3347,
      "досто": 3348,
      "чивать": 3349,
      "шах": 3350,
      "лети": 3351,
      "гулять": 3352,
      "вашего": 3353,
      "смс": 3354,
      "таких": 3355,
      "сделали": 3356,
      "радио": 3357,
      "изменить": 3358,
      "страшно": 3359,
      "выпуск": 3360,
      "прогноз": 3361,
      "подобие": 3362,
      "яйца": 3363,
      "se": 3364,
      "ищ": 3365,
      "тв": 3366,
      "уча": 3367,
      "тона": 3368,
      "торы": 3369,
      "тором": 3370,
      "кара": 3371,
      "кость": 3372,
      "стры": 3373,
      "нул": 3374,
      "пев": 3375,
      "петь": 3376,
      "разбира": 3377,
      "своё": 3378,
      "надое": 3379,
      "называют": 3380,
      "ездил": 3381,
      "собственно": 3382,
      "туалет": 3383,
      "иностра": 3384,
      "au": 3385,
      "ay": 3386,
      "фы": 3387,
      "неве": 3388,
      "таб": 3389,
      "мут": 3390,
      "))))))": 3391,
      "трен": 3392,
      "лых": 3393,
      "работаю": 3394,
      "щать": 3395,
      "голова": 3396,
      "прямо": 3397,
      "пользоваться": 3398,
      "мужики": 3399,
      "финан": 3400,
      "смерти": 3401,
      "стоимость": 3402,
      "аге": 3403,
      "игре": 3404,
      "инете": 3405,
      "огу": 3406,
      "фет": 3407,
      "чным": 3408,
      "капу": 3409,
      "повто": 3410,
      "дешь": 3411,
      "госу": 3412,
      "лежит": 3413,
      "бое": 3414,
      "вит": 3415,
      "руках": 3416,
      "микро": 3417,
      "дура": 3418,
      "груди": 3419,
      "относи": 3420,
      "ждение": 3421,
      "марки": 3422,
      "молоды": 3423,
      "2008": 3424,
      "начинается": 3425,
      "кризи": 3426,
      "объяснить": 3427,
      "характер": 3428,
      "магни": 3429,
      "http": 3430,
      "ипоте": 3431,
      "рту": 3432,
      "употреб": 3433,
      "хл": 3434,
      "чм": 3435,
      "эл": 3436,
      "маз": 3437,
      "жешь": 3438,
      "никам": 3439,
      "пишут": 3440,
      "рецепты": 3441,
      "коллек": 3442,
      "начинает": 3443,
      "исполняет": 3444,
      "симпа": 3445,
      "съездить": 3446,
      "мелоди": 3447,
      "температура": 3448,
      "адрес": 3449,
      "://": 3450,
      "цес": 3451,
      "голове": 3452,
      "знамени": 3453,
      "стихи": 3454,
      "акку": 3455,
      "2000": 3456,
      "умеете": 3457,
      "отношений": 3458,
      "помню": 3459,
      "профессии": 3460,
      "отношениях": 3461,
      "съе": 3462,
      "егип": 3463,
      "пове": 3464,
      "муля": 3465,
      "прока": 3466,
      "чисто": 3467,
      "песе": 3468,
      "разо": 3469,
      "границу": 3470,
      "страны": 3471,
      "круп": 3472,
      "женщинам": 3473,
      "электри": 3474,
      "угадайте": 3475,
      "взрослы": 3476,
      "черепа": 3477,
      "господа": 3478,
      "нкой": 3479,
      "ябло": 3480,
      "ному": 3481,
      "руете": 3482,
      "стол": 3483,
      "скур": 3484,
      "голос": 3485,
      "молоко": 3486,
      "2107": 3487,
      "семье": 3488,
      "профессия": 3489,
      "пользовался": 3490,
      "результат": 3491,
      "оформить": 3492,
      "государ": 3493,
      "ion": 3494,
      "sp": 3495,
      "ов": 3496,
      "сдавать": 3497,
      "сначала": 3498,
      "выйти": 3499,
      "кисло": 3500,
      "ительно": 3501,
      "руга": 3502,
      "своему": 3503,
      "план": 3504,
      "работал": 3505,
      "2010": 3506,
      "банков": 3507,
      "таким": 3508,
      "истории": 3509,
      "ужасов": 3510,
      "принци": 3511,
      "искус": 3512,
      "бухгал": 3513,
      "sh": 3514,
      "вза": 3515,
      "дю": 3516,
      "зм": 3517,
      "окон": 3518,
      "рка": 3519,
      "умер": 3520,
      "точки": 3521,
      "мою": 3522,
      "мости": 3523,
      "значение": 3524,
      "детстве": 3525,
      "лучшая": 3526,
      "компози": 3527,
      "первую": 3528,
      "мяг": 3529,
      "любишь": 3530,
      "карье": 3531,
      "названия": 3532,
      "1000": 3533,
      "зависит": 3534,
      "шампу": 3535,
      "динамо": 3536,
      "листья": 3537,
      "?))))))))": 3538,
      "ото": 3539,
      "окру": 3540,
      "теста": 3541,
      "вил": 3542,
      "отме": 3543,
      "хожу": 3544,
      "стиле": 3545,
      "делали": 3546,
      "живут": 3547,
      "шар": 3548,
      "трена": 3549,
      "одним": 3550,
      "предста": 3551,
      "2011": 3552,
      "языка": 3553,
      "случае": 3554,
      "пользуетесь": 3555,
      "ожида": 3556,
      "ck": 3557,
      "спу": 3558,
      "нень": 3559,
      "локо": 3560,
      "мато": 3561,
      "кин": 3562,
      "стика": 3563,
      "гиб": 3564,
      "шься": 3565,
      "ровку": 3566,
      "готовите": 3567,
      "полностью": 3568,
      "молоде": 3569,
      "пишет": 3570,
      "экскур": 3571,
      "and": 3572,
      "игро": 3573,
      "отвеча": 3574,
      "+++": 3575,
      "собираюсь": 3576,
      "текст": 3577,
      "свобод": 3578,
      "ужин": 3579,
      "35": 3580,
      "45": 3581,
      "bo": 3582,
      "ne": 3583,
      "повы": 3584,
      "москов": 3585,
      "льщи": 3586,
      "ческую": 3587,
      "вее": 3588,
      "паспорт": 3589,
      "изобра": 3590,
      "душа": 3591,
      "называются": 3592,
      "слабо": 3593,
      "марта": 3594,
      "проблем": 3595,
      "казах": 3596,
      "владель": 3597,
      "накачать": 3598,
      "безопасно": 3599,
      "авиа": 3600,
      "хло": 3601,
      "штра": 3602,
      "эн": 3603,
      "кача": 3604,
      "погода": 3605,
      "кожи": 3606,
      "костю": 3607,
      "мамы": 3608,
      "дого": 3609,
      "кушать": 3610,
      "прово": 3611,
      "жении": 3612,
      "жают": 3613,
      "раздра": 3614,
      "пожалуста": 3615,
      "краса": 3616,
      "сын": 3617,
      "щас": 3618,
      "правиться": 3619,
      "английский": 3620,
      "праздник": 3621,
      "жная": 3622,
      "юри": 3623,
      "яи": 3624,
      "поса": 3625,
      "коми": 3626,
      "нести": 3627,
      "валю": 3628,
      "лечи": 3629,
      "доехать": 3630,
      "гим": 3631,
      "большие": 3632,
      "конкре": 3633,
      "строить": 3634,
      "клас": 3635,
      "ответах": 3636,
      "последнее": 3637,
      "мальчик": 3638,
      "авгу": 3639,
      "соверше": 3640,
      "тяжело": 3641,
      "сможет": 3642,
      "шту": 3643,
      "росте": 3644,
      "зала": 3645,
      "мую": 3646,
      "витами": 3647,
      "тится": 3648,
      "дьми": 3649,
      "лучшие": 3650,
      "тельный": 3651,
      "ing": 3652,
      "растения": 3653,
      "танце": 3654,
      "квартиры": 3655,
      "норм": 3656,
      "com": 3657,
      "устраи": 3658,
      "we": 3659,
      "ится": 3660,
      "очки": 3661,
      "капита": 3662,
      "поп": 3663,
      "лад": 3664,
      "составить": 3665,
      "видели": 3666,
      "отга": 3667,
      "отмет": 3668,
      "тип": 3669,
      "тина": 3670,
      "шения": 3671,
      "зит": 3672,
      "контро": 3673,
      "случи": 3674,
      "фар": 3675,
      "считается": 3676,
      "марка": 3677,
      "2007": 3678,
      "канчи": 3679,
      "идёт": 3680,
      "проек": 3681,
      "татуи": 3682,
      "22": 3683,
      "ta": 3684,
      "вста": 3685,
      "одеть": 3686,
      "осень": 3687,
      "уж": 3688,
      "депресси": 3689,
      "запи": 3690,
      "заклю": 3691,
      "дан": 3692,
      "кия": 3693,
      "кило": 3694,
      "купили": 3695,
      "есте": 3696,
      "поднима": 3697,
      "подходит": 3698,
      "щих": 3699,
      ")))))))": 3700,
      "гер": 3701,
      "женщиной": 3702,
      "предмет": 3703,
      "самому": 3704,
      "добро": 3705,
      "растут": 3706,
      "слышала": 3707,
      ";)": 3708,
      "no": 3709,
      "ока": 3710,
      "оре": 3711,
      "тс": 3712,
      "увере": 3713,
      "чок": 3714,
      "эт": 3715,
      "топли": 3716,
      "необы": 3717,
      "забыть": 3718,
      "зарубе": 3719,
      "датель": 3720,
      "выпол": 3721,
      "куро": 3722,
      "типо": 3723,
      "буты": 3724,
      "духов": 3725,
      "бит": 3726,
      "генера": 3727,
      "кроли": 3728,
      "хими": 3729,
      "курсе": 3730,
      "рождение": 3731,
      "смотрит": 3732,
      "понравилось": 3733,
      "ющего": 3734,
      "выглядит": 3735,
      "разобраться": 3736,
      "?.": 3737,
      "алек": 3738,
      "джет": 3739,
      "нём": 3740,
      "уходит": 3741,
      "натура": 3742,
      "ваешь": 3743,
      "отправ": 3744,
      "числа": 3745,
      "нули": 3746,
      "людьми": 3747,
      "гия": 3748,
      "суб": 3749,
      "первое": 3750,
      "первого": 3751,
      "шок": 3752,
      "имею": 3753,
      "красивый": 3754,
      "начал": 3755,
      "квартире": 3756,
      "английского": 3757,
      "собесе": 3758,
      "создать": 3759,
      "выпуска": 3760,
      "результаты": 3761,
      "описание": 3762,
      "необходимо": 3763,
      "далеко": 3764,
      "ss": 3765,
      "дея": 3766,
      "гол": 3767,
      "льник": 3768,
      "честве": 3769,
      "вывести": 3770,
      "дизай": 3771,
      "стая": 3772,
      "белый": 3773,
      "ктора": 3774,
      "нье": 3775,
      "зия": 3776,
      "слушать": 3777,
      "действия": 3778,
      "нормальный": 3779,
      "русские": 3780,
      "занимается": 3781,
      "психи": 3782,
      "семья": 3783,
      "образом": 3784,
      "английском": 3785,
      "смотрели": 3786,
      "2110": 3787,
      "mail": 3788,
      "учеб": 3789,
      "выходные": 3790,
      "продукты": 3791,
      "ремонт": 3792,
      "чне": 3793,
      "эль": 3794,
      "порт": 3795,
      "риф": 3796,
      "руют": 3797,
      "лями": 3798,
      "разных": 3799,
      "работо": 3800,
      "мужу": 3801,
      "лым": 3802,
      "советы": 3803,
      "цами": 3804,
      "телем": 3805,
      "2009": 3806,
      "другого": 3807,
      "задачу": 3808,
      "влади": 3809,
      "бензин": 3810,
      "счастья": 3811,
      "варианты": 3812,
      "жной": 3813,
      "ово": 3814,
      "удоволь": 3815,
      "начи": 3816,
      "наших": 3817,
      "носит": 3818,
      "тепло": 3819,
      "мона": 3820,
      "ланд": 3821,
      "зап": 3822,
      "даете": 3823,
      "процен": 3824,
      "отучить": 3825,
      "станда": 3826,
      "приз": 3827,
      "бума": 3828,
      "жид": 3829,
      "тым": 3830,
      "инсти": 3831,
      "которое": 3832,
      "зим": 3833,
      "дорогу": 3834,
      "фана": 3835,
      "умеет": 3836,
      "ссылка": 3837,
      "котё": 3838,
      "глупы": 3839,
      "старше": 3840,
      "выгодно": 3841,
      "хочешь": 3842,
      "филосо": 3843,
      "ge": 3844,
      "сет": 3845,
      "уров": 3846,
      "ратор": 3847,
      "родов": 3848,
      "нется": 3849,
      "дека": 3850,
      "регу": 3851,
      "реак": 3852,
      "дат": 3853,
      "вич": 3854,
      "читы": 3855,
      "подклю": 3856,
      "жима": 3857,
      "льном": 3858,
      "сыпа": 3859,
      "фон": 3860,
      "студен": 3861,
      "площа": 3862,
      "банки": 3863,
      "хотим": 3864,
      "сексом": 3865,
      "отличаются": 3866,
      "произо": 3867,
      "логии": 3868,
      "сборной": 3869,
      "\"...": 3870,
      "тку": 3871,
      "насе": 3872,
      "тесто": 3873,
      "годи": 3874,
      "ческих": 3875,
      "высту": 3876,
      "пау": 3877,
      "нят": 3878,
      "скри": 3879,
      "одни": 3880,
      "одном": 3881,
      "однокласс": 3882,
      "понимаете": 3883,
      "идеи": 3884,
      "рекламы": 3885,
      "специали": 3886,
      "бизнеса": 3887,
      "ухаживать": 3888,
      "количество": 3889,
      "ur": 3890,
      "ср": 3891,
      "сдать": 3892,
      "уволь": 3893,
      "роз": 3894,
      "рование": 3895,
      "стили": 3896,
      "лак": 3897,
      "заве": 3898,
      "замет": 3899,
      "заканчи": 3900,
      "дон": 3901,
      "мум": 3902,
      "дире": 3903,
      "стади": 3904,
      "сих": 3905,
      "каковы": 3906,
      "щен": 3907,
      "щик": 3908,
      "персона": 3909,
      "карбю": 3910,
      "правду": 3911,
      "везде": 3912,
      "похоже": 3913,
      "тически": 3914,
      "аааа": 3915,
      "мальчика": 3916,
      "февраля": 3917,
      "ава": 3918,
      "гл": 3919,
      "йор": 3920,
      "мв": 3921,
      "оказа": 3922,
      "юр": 3923,
      "поцелу": 3924,
      "вало": 3925,
      "маме": 3926,
      "купа": 3927,
      "бель": 3928,
      "жие": 3929,
      "суток": 3930,
      "време": 3931,
      "большая": 3932,
      "работают": 3933,
      "ходил": 3934,
      "вьте": 3935,
      "русском": 3936,
      "умень": 3937,
      "опыта": 3938,
      "серьёз": 3939,
      "петербурге": 3940,
      "джинсы": 3941,
      "be": 3942,
      "ir": 3943,
      "аде": 3944,
      "сети": 3945,
      "лиги": 3946,
      "лишь": 3947,
      "ваетесь": 3948,
      "моря": 3949,
      "рее": 3950,
      "ребу": 3951,
      "заводится": 3952,
      "сижу": 3953,
      "мит": 3954,
      "жай": 3955,
      "вопросов": 3956,
      "цам": 3957,
      "первой": 3958,
      "жизне": 3959,
      "крым": 3960,
      "любой": 3961,
      "самым": 3962,
      "((((": 3963,
      "желания": 3964,
      "турцию": 3965,
      "подруге": 3966,
      "картинка": 3967,
      "отпуска": 3968,
      "земле": 3969,
      "бюджет": 3970,
      "категории": 3971,
      "будто": 3972,
      "совершенно": 3973,
      "37": 3974,
      "дд": 3975,
      "жес": 3976,
      "ита": 3977,
      "мся": 3978,
      "фру": 3979,
      "лаге": 3980,
      "риться": 3981,
      "запу": 3982,
      "вылечить": 3983,
      "сятся": 3984,
      "сик": 3985,
      "памя": 3986,
      "певи": 3987,
      "изменя": 3988,
      "газо": 3989,
      "разговари": 3990,
      "любимой": 3991,
      "фамили": 3992,
      "считают": 3993,
      "простой": 3994,
      "армии": 3995,
      "другим": 3996,
      "блюда": 3997,
      "понравился": 3998,
      "звезд": 3999,
      "состояние": 4000,
      "контакте": 4001,
      "солнце": 4002,
      "осо": 4003,
      "хла": 4004,
      "помина": 4005,
      "незнаю": 4006,
      "мопе": 4007,
      "водо": 4008,
      "ческого": 4009,
      "лома": 4010,
      "мак": 4011,
      "кир": 4012,
      "веро": 4013,
      "довать": 4014,
      "курт": 4015,
      "боитесь": 4016,
      "прой": 4017,
      "проще": 4018,
      "провод": 4019,
      "соля": 4020,
      "сталки": 4021,
      "можна": 4022,
      "гео": 4023,
      "первая": 4024,
      "зывается": 4025,
      "представля": 4026,
      "помощи": 4027,
      "никах": 4028,
      "украин": 4029,
      "вкусный": 4030,
      "украины": 4031,
      "скорость": 4032,
      "поезд": 4033,
      "советом": 4034,
      "сбербанк": 4035,
      "познакомиться": 4036,
      "произведения": 4037,
      "япон": 4038,
      "наиболее": 4039,
      ":))": 4040,
      ">>": 4041,
      "гна": 4042,
      "зла": 4043,
      "иль": 4044,
      "огром": 4045,
      "участ": 4046,
      "поменя": 4047,
      "кора": 4048,
      "годов": 4049,
      "данный": 4050,
      "выпи": 4051,
      "проходит": 4052,
      "стихот": 4053,
      "парней": 4054,
      "актив": 4055,
      "служ": 4056,
      "худож": 4057,
      "детьми": 4058,
      "альбом": 4059,
      "одинако": 4060,
      "спит": 4061,
      "картинки": 4062,
      "достаточно": 4063,
      "предложение": 4064,
      "зависи": 4065,
      "рисовать": 4066,
      "шоколад": 4067,
      "стихотво": 4068,
      "ab": 4069,
      "go": 4070,
      "лке": 4071,
      "уши": 4072,
      "поко": 4073,
      "наме": 4074,
      "нова": 4075,
      "теря": 4076,
      "ета": 4077,
      "чества": 4078,
      "дания": 4079,
      "макия": 4080,
      "собра": 4081,
      "руется": 4082,
      "пиц": 4083,
      "знато": 4084,
      "сына": 4085,
      "детский": 4086,
      "ровка": 4087,
      "предприя": 4088,
      "терье": 4089,
      "марш": 4090,
      "растет": 4091,
      "2106": 4092,
      "исполните": 4093,
      "сказала": 4094,
      "---": 4095,
      "существуют": 4096,
      "ведение": 4097,
      "ооо": 4098,
      "мужик": 4099,
      "запах": 4100,
      "добавить": 4101,
      "зарабатывать": 4102,
      "период": 4103,
      "регистрации": 4104,
      "рекоменду": 4105,
      "рта": 4106,
      "смогли": 4107,
      "фраза": 4108,
      "тое": 4109,
      "нашей": 4110,
      "носят": 4111,
      "модно": 4112,
      "тара": 4113,
      "соль": 4114,
      "отде": 4115,
      "скажете": 4116,
      "саду": 4117,
      "думы": 4118,
      "бара": 4119,
      "фиг": 4120,
      "цене": 4121,
      "грамо": 4122,
      "карта": 4123,
      "хуа": 4124,
      "дорога": 4125,
      "серви": 4126,
      "смысле": 4127,
      "лететь": 4128,
      "навеяло": 4129,
      "послушать": 4130,
      "ассоциации": 4131,
      "26": 4132,
      "ала": 4133,
      "апре": 4134,
      "ина": 4135,
      "хво": 4136,
      "чнее": 4137,
      "эм": 4138,
      "ятся": 4139,
      "направ": 4140,
      "недо": 4141,
      "ревно": 4142,
      "рефера": 4143,
      "лоша": 4144,
      "соста": 4145,
      "види": 4146,
      "пам": 4147,
      "скор": 4148,
      "живе": 4149,
      "обья": 4150,
      "трек": 4151,
      "думать": 4152,
      "думает": 4153,
      "груз": 4154,
      "скутер": 4155,
      "метров": 4156,
      "положить": 4157,
      "качество": 4158,
      "магазинах": 4159,
      "ужас": 4160,
      "дерево": 4161,
      "сюда": 4162,
      "фотки": 4163,
      "информацию": 4164,
      "симпати": 4165,
      "жных": 4166,
      "уг": 4167,
      "фк": 4168,
      "теа": 4169,
      "тером": 4170,
      "рем": 4171,
      "заку": 4172,
      "вечера": 4173,
      "хом": 4174,
      "привлека": 4175,
      "белые": 4176,
      "стих": 4177,
      "шают": 4178,
      "такси": 4179,
      "гуля": 4180,
      "временно": 4181,
      "ступ": 4182,
      "чками": 4183,
      "холоди": 4184,
      "показа": 4185,
      "отвечать": 4186,
      "замеча": 4187,
      "девче": 4188,
      "качества": 4189,
      "?)))))": 4190,
      "оцените": 4191,
      "компьютер": 4192,
      "египте": 4193,
      "отметить": 4194,
      "ka": 4195,
      "mp": 4196,
      "арен": 4197,
      "зь": 4198,
      "тд": 4199,
      "нашла": 4200,
      "деб": 4201,
      "дене": 4202,
      "мей": 4203,
      "лера": 4204,
      "вец": 4205,
      "дочь": 4206,
      "мур": 4207,
      "фирма": 4208,
      "краска": 4209,
      "первом": 4210,
      "расши": 4211,
      "актё": 4212,
      "самого": 4213,
      "тормо": 4214,
      "экс": 4215,
      "глазами": 4216,
      "медици": 4217,
      "рэп": 4218,
      "наращи": 4219,
      "аку": 4220,
      "жок": 4221,
      "зма": 4222,
      "успо": 4223,
      "товари": 4224,
      "тобой": 4225,
      "рон": 4226,
      "розо": 4227,
      "варить": 4228,
      "зажига": 4229,
      "таком": 4230,
      "выпла": 4231,
      "содержа": 4232,
      "гали": 4233,
      "град": 4234,
      "гран": 4235,
      "человеке": 4236,
      "получать": 4237,
      "играют": 4238,
      "сегодняш": 4239,
      "стыдно": 4240,
      "врача": 4241,
      "посмотре": 4242,
      "света": 4243,
      "устрой": 4244,
      "телефона": 4245,
      "команды": 4246,
      "выражение": 4247,
      "любимое": 4248,
      "исполнитель": 4249,
      "fe": 4250,
      "of": 4251,
      "si": 4252,
      "жке": 4253,
      "зрения": 4254,
      "ксе": 4255,
      "охот": 4256,
      "ограни": 4257,
      "эпи": 4258,
      "кала": 4259,
      "поста": 4260,
      "кори": 4261,
      "забере": 4262,
      "прош": 4263,
      "нуться": 4264,
      "пает": 4265,
      "шение": 4266,
      "прио": 4267,
      "приходи": 4268,
      "пива": 4269,
      "фика": 4270,
      "крат": 4271,
      "перестать": 4272,
      "ментов": 4273,
      "самостоя": 4274,
      "врач": 4275,
      "голов": 4276,
      "матча": 4277,
      "история": 4278,
      "растя": 4279,
      "продолжите": 4280,
      "ad": 4281,
      "po": 4282,
      "дне": 4283,
      "ева": 4284,
      "исти": 4285,
      "кно": 4286,
      "кает": 4287,
      "пото": 4288,
      "навли": 4289,
      "новых": 4290,
      "тема": 4291,
      "ниц": 4292,
      "нили": 4293,
      "стите": 4294,
      "забо": 4295,
      "лога": 4296,
      "дование": 4297,
      "тус": 4298,
      "практи": 4299,
      "краску": 4300,
      "граду": 4301,
      "скре": 4302,
      "классе": 4303,
      "щает": 4304,
      "серия": 4305,
      "хотела": 4306,
      "матче": 4307,
      "ственное": 4308,
      "подруги": 4309,
      "убий": 4310,
      "вариант": 4311,
      "болезнь": 4312,
      "случайно": 4313,
      "тренаже": 4314,
      "28": 4315,
      "еды": 4316,
      "пка": 4317,
      "пку": 4318,
      "умира": 4319,
      "повыше": 4320,
      "наш": 4321,
      "варе": 4322,
      "мощ": 4323,
      "вому": 4324,
      "дав": 4325,
      "дор": 4326,
      "дока": 4327,
      "допусти": 4328,
      "сестра": 4329,
      "тил": 4330,
      "милые": 4331,
      "папа": 4332,
      "приучить": 4333,
      "бела": 4334,
      "буль": 4335,
      "тую": 4336,
      "большин": 4337,
      "имеют": 4338,
      "помогают": 4339,
      "общения": 4340,
      "влять": 4341,
      "броса": 4342,
      "испы": 4343,
      "возможность": 4344,
      "ent": 4345,
      "команда": 4346,
      "ющей": 4347,
      "звучит": 4348,
      "гитаре": 4349,
      "районе": 4350,
      "поздно": 4351,
      "старый": 4352,
      "агент": 4353,
      "mo": 4354,
      "ива": 4355,
      "нными": 4356,
      "пю": 4357,
      "чко": 4358,
      "потра": 4359,
      "напря": 4360,
      "рано": 4361,
      "редь": 4362,
      "достать": 4363,
      "прочита": 4364,
      "руками": 4365,
      "лую": 4366,
      "мию": 4367,
      "пала": 4368,
      "пришла": 4369,
      "знаешь": 4370,
      "разы": 4371,
      "щим": 4372,
      "возника": 4373,
      "акту": 4374,
      "полный": 4375,
      "тянет": 4376,
      "альбо": 4377,
      "осталось": 4378,
      "150": 4379,
      "украина": 4380,
      "концерт": 4381,
      "футболист": 4382,
      "учитель": 4383,
      "бензи": 4384,
      "полезно": 4385,
      "проверить": 4386,
      "хозяй": 4387,
      "другую": 4388,
      "рестора": 4389,
      "ke": 4390,
      "идут": 4391,
      "уз": 4392,
      "уйти": 4393,
      "ями": 4394,
      "тока": 4395,
      "поги": 4396,
      "пошли": 4397,
      "код": 4398,
      "недоста": 4399,
      "вати": 4400,
      "мотор": 4401,
      "дая": 4402,
      "мень": 4403,
      "провер": 4404,
      "викто": 4405,
      "стати": 4406,
      "паро": 4407,
      "паца": 4408,
      "изви": 4409,
      "бежать": 4410,
      "душу": 4411,
      "гаи": 4412,
      "бак": 4413,
      "бам": 4414,
      "любим": 4415,
      "конфет": 4416,
      "говори": 4417,
      "правила": 4418,
      "дороге": 4419,
      "фами": 4420,
      "никами": 4421,
      "молодой": 4422,
      "колба": 4423,
      "ответов": 4424,
      "похож": 4425,
      "волни": 4426,
      "поезде": 4427,
      "барсе": 4428,
      "свадьбу": 4429,
      "сильнее": 4430,
      "финансо": 4431,
      "ap": 4432,
      "ni": 4433,
      "днем": 4434,
      "дверь": 4435,
      "пж": 4436,
      "уговорить": 4437,
      "робо": 4438,
      "ровали": 4439,
      "реал": 4440,
      "гон": 4441,
      "гос": 4442,
      "годы": 4443,
      "зале": 4444,
      "заставля": 4445,
      "мари": 4446,
      "мастер": 4447,
      "выпить": 4448,
      "менее": 4449,
      "дово": 4450,
      "куса": 4451,
      "процес": 4452,
      "дизе": 4453,
      "гара": 4454,
      "бана": 4455,
      "брал": 4456,
      "чном": 4457,
      "сможете": 4458,
      "мета": 4459,
      "дороже": 4460,
      "полно": 4461,
      "стый": 4462,
      "альная": 4463,
      "остано": 4464,
      "использо": 4465,
      "магазина": 4466,
      "летать": 4467,
      "появились": 4468,
      "www": 4469,
      "сентября": 4470,
      "магнито": 4471,
      "аккумуля": 4472,
      "ребус": 4473,
      "\"???": 4474,
      "бке": 4475,
      "жного": 4476,
      "кнуть": 4477,
      "опу": 4478,
      "свер": 4479,
      "сбросить": 4480,
      "товар": 4481,
      "роваться": 4482,
      "вов": 4483,
      "зация": 4484,
      "мамо": 4485,
      "лена": 4486,
      "визу": 4487,
      "стам": 4488,
      "подъ": 4489,
      "буть": 4490,
      "будем": 4491,
      "делах": 4492,
      "мнения": 4493,
      "превра": 4494,
      "мужской": 4495,
      "конца": 4496,
      "грузо": 4497,
      "предпоч": 4498,
      "тельные": 4499,
      "испор": 4500,
      "продаже": 4501,
      "продажи": 4502,
      "слышать": 4503,
      "умные": 4504,
      "породу": 4505,
      "европе": 4506,
      "предложения": 4507,
      "регистри": 4508,
      "эффект": 4509,
      "прогнозы": 4510,
      "попугай": 4511,
      "решение": 4512,
      "германии": 4513,
      "жалко": 4514,
      "огур": 4515,
      "оконча": 4516,
      "ed": 4517,
      "ver": 4518,
      "еже": 4519,
      "рку": 4520,
      "твер": 4521,
      "торе": 4522,
      "пое": 4523,
      "ковой": 4524,
      "рому": 4525,
      "мани": 4526,
      "выиграет": 4527,
      "лев": 4528,
      "верить": 4529,
      "вик": 4530,
      "сибир": 4531,
      "ляют": 4532,
      "чаться": 4533,
      "люсь": 4534,
      "мыс": 4535,
      "скими": 4536,
      "сыр": 4537,
      "способы": 4538,
      "брат": 4539,
      "играла": 4540,
      "вье": 4541,
      "красивее": 4542,
      "начало": 4543,
      "борь": 4544,
      "маркет": 4545,
      "любимым": 4546,
      "историю": 4547,
      "питания": 4548,
      "компанию": 4549,
      "программа": 4550,
      "зарплату": 4551,
      "сумму": 4552,
      "комедии": 4553,
      "супру": 4554,
      "здоровья": 4555,
      "жут": 4556,
      "рк": 4557,
      "тря": 4558,
      "фф": 4559,
      "ясь": 4560,
      "наль": 4561,
      "ковые": 4562,
      "лик": 4563,
      "модели": 4564,
      "можешь": 4565,
      "секу": 4566,
      "сочета": 4567,
      "отсут": 4568,
      "тику": 4569,
      "ходу": 4570,
      "числи": 4571,
      "поднять": 4572,
      "каков": 4573,
      "биат": 4574,
      "стик": 4575,
      "зию": 4576,
      "россию": 4577,
      "худо": 4578,
      "книг": 4579,
      "черно": 4580,
      "ешься": 4581,
      "везти": 4582,
      "октя": 4583,
      "образования": 4584,
      "маленькие": 4585,
      "питание": 4586,
      "ребёнок": 4587,
      "слышали": 4588,
      "сборная": 4589,
      "комнат": 4590,
      "ехал": 4591,
      "таблетки": 4592,
      "вро": 4593,
      "иди": 4594,
      "кари": 4595,
      "покры": 4596,
      "коре": 4597,
      "раду": 4598,
      "реть": 4599,
      "ческим": 4600,
      "масте": 4601,
      "мешает": 4602,
      "лежа": 4603,
      "процент": 4604,
      "видно": 4605,
      "??)": 4606,
      "русь": 4607,
      "жену": 4608,
      "чиков": 4609,
      "шем": 4610,
      "песен": 4611,
      "щего": 4612,
      "посет": 4613,
      "пушки": 4614,
      "край": 4615,
      "брак": 4616,
      "груст": 4617,
      "болельщи": 4618,
      "тельности": 4619,
      "стых": 4620,
      "начали": 4621,
      "марку": 4622,
      "объе": 4623,
      "ine": 4624,
      "бесплат": 4625,
      "ственного": 4626,
      "all": 4627,
      "маленький": 4628,
      "сделал": 4629,
      "земля": 4630,
      "сезоне": 4631,
      "водителя": 4632,
      "хлеб": 4633,
      "кризис": 4634,
      ".,": 4635,
      "иду": 4636,
      "пс": 4637,
      "сфе": 4638,
      "уве": 4639,
      "шно": 4640,
      "кости": 4641,
      "роды": 4642,
      "нина": 4643,
      "нении": 4644,
      "невозможно": 4645,
      "лах": 4646,
      "выходит": 4647,
      "прости": 4648,
      "??)))": 4649,
      "руку": 4650,
      "бые": 4651,
      "сидит": 4652,
      "прили": 4653,
      "прибы": 4654,
      "стику": 4655,
      "мые": 4656,
      "пуль": 4657,
      "первым": 4658,
      "консу": 4659,
      "трав": 4660,
      "форме": 4661,
      "новое": 4662,
      "покупаете": 4663,
      "лицен": 4664,
      "большое": 4665,
      "ребёнку": 4666,
      "тренировки": 4667,
      "приятно": 4668,
      "диету": 4669,
      "беременна": 4670,
      "велосипед": 4671,
      "чемпионов": 4672,
      "овча": 4673,
      "аз": 4674,
      "установить": 4675,
      "поря": 4676,
      "нашли": 4677,
      "нож": 4678,
      "лист": 4679,
      "воспо": 4680,
      "зацию": 4681,
      "заморо": 4682,
      "менной": 4683,
      "ляю": 4684,
      "изо": 4685,
      "бед": 4686,
      "духи": 4687,
      "бая": 4688,
      "циф": 4689,
      "предо": 4690,
      "пути": 4691,
      "краски": 4692,
      "степе": 4693,
      "очередь": 4694,
      "ходили": 4695,
      "актер": 4696,
      "крос": 4697,
      "езд": 4698,
      "доброе": 4699,
      "черный": 4700,
      "продажа": 4701,
      "грамм": 4702,
      "спортсме": 4703,
      "связи": 4704,
      "словом": 4705,
      "избавится": 4706,
      "получилось": 4707,
      "подробнее": 4708,
      "квадра": 4709,
      "высшее": 4710,
      "дружба": 4711,
      "семьи": 4712,
      "возвраща": 4713,
      "барсело": 4714,
      "?\"": 4715,
      "ct": 4716,
      "вк": 4717,
      "дры": 4718,
      "ик": 4719,
      "мю": 4720,
      "фразу": 4721,
      "щь": 4722,
      "каль": 4723,
      "качать": 4724,
      "посо": 4725,
      "темы": 4726,
      "нигде": 4727,
      "нен": 4728,
      "рис": 4729,
      "меха": 4730,
      "ведите": 4731,
      "сел": 4732,
      "середи": 4733,
      "прочитать": 4734,
      "просит": 4735,
      "соответ": 4736,
      "сау": 4737,
      "приходит": 4738,
      "бегать": 4739,
      "пин": 4740,
      "гари": 4741,
      "бас": 4742,
      "чужо": 4743,
      "герой": 4744,
      "ственные": 4745,
      "имея": 4746,
      "хие": 4747,
      "болеть": 4748,
      "считает": 4749,
      "совки": 4750,
      "след": 4751,
      "ближе": 4752,
      "исправить": 4753,
      "начинать": 4754,
      "опти": 4755,
      "встречаться": 4756,
      "характери": 4757,
      "сериалы": 4758,
      "сюжет": 4759,
      "шанс": 4760,
      "шансы": 4761,
      "хоккей": 4762,
      "организации": 4763,
      "плз": 4764,
      "стандарт": 4765,
      "''": 4766,
      "55": 4767,
      "te": 4768,
      "аген": 4769,
      "вши": 4770,
      "твой": 4771,
      "участи": 4772,
      "чите": 4773,
      "покрасить": 4774,
      "вашу": 4775,
      "завод": 4776,
      "даёт": 4777,
      "вечно": 4778,
      "кули": 4779,
      "бокс": 4780,
      "сель": 4781,
      "вина": 4782,
      "тим": 4783,
      "жений": 4784,
      "стане": 4785,
      "мимо": 4786,
      "пришли": 4787,
      "поддер": 4788,
      "бел": 4789,
      "бега": 4790,
      "стого": 4791,
      "нью": 4792,
      "цели": 4793,
      "щенок": 4794,
      "прекрас": 4795,
      "перево": 4796,
      "зиму": 4797,
      "страну": 4798,
      "анге": 4799,
      "акте": 4800,
      "вяз": 4801,
      "внутрен": 4802,
      "влечь": 4803,
      "красивое": 4804,
      "телеви": 4805,
      "ссср": 4806,
      "гресси": 4807,
      "одежда": 4808,
      "магазины": 4809,
      "дорогой": 4810,
      "понятно": 4811,
      "функ": 4812,
      "модера": 4813,
      "попугая": 4814,
      "спросить": 4815,
      "мотоцикл": 4816,
      "диплом": 4817,
      "посоветовать": 4818,
      "сигнали": 4819,
      "исполнителя": 4820,
      "27": 4821,
      "mi": 4822,
      "жь": 4823,
      "звать": 4824,
      "охо": 4825,
      "юме": 4826,
      "кома": 4827,
      "теме": 4828,
      "моно": 4829,
      "ресни": 4830,
      "дай": 4831,
      "догово": 4832,
      "провере": 4833,
      "вида": 4834,
      "отчего": 4835,
      "желу": 4836,
      "чист": 4837,
      "диско": 4838,
      "сию": 4839,
      "ляется": 4840,
      "питом": 4841,
      "жар": 4842,
      "...)": 4843,
      "стики": 4844,
      "также": 4845,
      "контра": 4846,
      "строитель": 4847,
      "расстоя": 4848,
      "карте": 4849,
      "родствен": 4850,
      "говорите": 4851,
      "предпринима": 4852,
      "играли": 4853,
      "остаться": 4854,
      "список": 4855,
      "пление": 4856,
      "животные": 4857,
      "хватит": 4858,
      "благо": 4859,
      "друзьями": 4860,
      "гарри": 4861,
      "футболиста": 4862,
      "система": 4863,
      "увидеть": 4864,
      "свидание": 4865,
      "сталкивался": 4866,
      "ека": 4867,
      "мё": 4868,
      "ого": 4869,
      "оса": 4870,
      "смогу": 4871,
      "схе": 4872,
      "учу": 4873,
      "торт": 4874,
      "пости": 4875,
      "научить": 4876,
      "наконец": 4877,
      "рос": 4878,
      "рот": 4879,
      "дент": 4880,
      "вале": 4881,
      "мок": 4882,
      "маму": 4883,
      "маски": 4884,
      "домо": 4885,
      "прогу": 4886,
      "вирту": 4887,
      "изу": 4888,
      "обло": 4889,
      "цель": 4890,
      "прак": 4891,
      "спосо": 4892,
      "рассказ": 4893,
      "шоу": 4894,
      "чья": 4895,
      "общение": 4896,
      "группе": 4897,
      "цом": 4898,
      "последствия": 4899,
      "ндии": 4900,
      "ставки": 4901,
      "продуктов": 4902,
      "един": 4903,
      "сочинение": 4904,
      "ощущения": 4905,
      "испыты": 4906,
      "фамилия": 4907,
      "ами": 4908,
      "дри": 4909,
      "джу": 4910,
      "едят": 4911,
      "зв": 4912,
      "уволи": 4913,
      "поряд": 4914,
      "наподобие": 4915,
      "ноя": 4916,
      "рав": 4917,
      "нечего": 4918,
      "ремон": 4919,
      "горит": 4920,
      "тала": 4921,
      "мали": 4922,
      "выпе": 4923,
      "лес": 4924,
      "лекар": 4925,
      "веса": 4926,
      "прожи": 4927,
      "сой": 4928,
      "руль": 4929,
      "диете": 4930,
      "шед": 4931,
      "прие": 4932,
      "приня": 4933,
      "жаю": 4934,
      "делаю": 4935,
      "границей": 4936,
      "возник": 4937,
      "хим": 4938,
      "2014": 4939,
      "посмотри": 4940,
      "девочку": 4941,
      "плохой": 4942,
      "техно": 4943,
      "завтрак": 4944,
      "победит": 4945,
      "мозг": 4946,
      "апте": 4947,
      "проект": 4948,
      "алкоголь": 4949,
      "увеличить": 4950,
      "важнее": 4951,
      "фотографии": 4952,
      "решил": 4953,
      "секрет": 4954,
      "выбором": 4955,
      "добиться": 4956,
      "карбюратор": 4957,
      "ag": 4958,
      "per": 4959,
      "вший": 4960,
      "ими": 4961,
      "кля": 4962,
      "рд": 4963,
      "хро": 4964,
      "шут": 4965,
      "тории": 4966,
      "наро": 4967,
      "тет": 4968,
      "деви": 4969,
      "дется": 4970,
      "льше": 4971,
      "маник": 4972,
      "допол": 4973,
      "сос": 4974,
      "вижу": 4975,
      "рука": 4976,
      "подня": 4977,
      "подгото": 4978,
      "жале": 4979,
      "гих": 4980,
      "суши": 4981,
      "зени": 4982,
      "метр": 4983,
      "метра": 4984,
      "вязать": 4985,
      "водитель": 4986,
      "новке": 4987,
      "любители": 4988,
      "весной": 4989,
      "среднем": 4990,
      "другому": 4991,
      "удалить": 4992,
      "помни": 4993,
      "помнит": 4994,
      "начинают": 4995,
      "окна": 4996,
      "пойму": 4997,
      "пойдет": 4998,
      "свете": 4999,
      "компания": 5000,
      "фирму": 5001,
      "выращи": 5002,
      "условия": 5003,
      "смотрю": 5004,
      "красоты": 5005,
      "старые": 5006,
      "кредита": 5007,
      "чувствуете": 5008,
      "bmw": 5009,
      "калорий": 5010,
      "разбирается": 5011,
      "девченки": 5012,
      "посетить": 5013,
      "31": 5014,
      "400": 5015,
      "ti": 5016,
      "аф": 5017,
      "ору": 5018,
      "снег": 5019,
      "тите": 5020,
      "улуч": 5021,
      "узи": 5022,
      "тони": 5023,
      "национа": 5024,
      "нибуть": 5025,
      "дес": 5026,
      "заго": 5027,
      "заработ": 5028,
      "видеть": 5029,
      "отдать": 5030,
      "руба": 5031,
      "присут": 5032,
      "будешь": 5033,
      "жим": 5034,
      "цем": 5035,
      "пережи": 5036,
      "трех": 5037,
      "плане": 5038,
      "четы": 5039,
      "альные": 5040,
      "учили": 5041,
      "русскому": 5042,
      "отличие": 5043,
      "встретить": 5044,
      "автомобили": 5045,
      "одному": 5046,
      "маленькая": 5047,
      "обучение": 5048,
      "получится": 5049,
      "сторону": 5050,
      "следует": 5051,
      "граждан": 5052,
      "финля": 5053,
      "38": 5054,
      "man": 5055,
      "ter": 5056,
      "вные": 5057,
      "лле": 5058,
      "што": 5059,
      "назна": 5060,
      "находя": 5061,
      "росто": 5062,
      "ваем": 5063,
      "вакан": 5064,
      "запе": 5065,
      "массу": 5066,
      "вызывает": 5067,
      "достой": 5068,
      "состав": 5069,
      "виза": 5070,
      "подсказать": 5071,
      "знают": 5072,
      "зелё": 5073,
      "вяза": 5074,
      "имени": 5075,
      "2013": 5076,
      "держит": 5077,
      "названием": 5078,
      "совме": 5079,
      "форд": 5080,
      "обратно": 5081,
      "творо": 5082,
      "европы": 5083,
      "ужасно": 5084,
      "толсте": 5085,
      "центра": 5086,
      "сбербанке": 5087,
      "двор": 5088,
      "выглядеть": 5089,
      "талии": 5090,
      "смерть": 5091,
      "внешность": 5092,
      "причины": 5093,
      "похожие": 5094,
      "живота": 5095,
      "благодар": 5096,
      "oney": 5097,
      "инжектор": 5098,
      "екатери": 5099,
      "av": 5100,
      "ака": 5101,
      "ано": 5102,
      "браз": 5103,
      "джо": 5104,
      "ота": 5105,
      "укре": 5106,
      "цили": 5107,
      "№№": 5108,
      "пов": 5109,
      "наказа": 5110,
      "нико": 5111,
      "недви": 5112,
      "декре": 5113,
      "ванию": 5114,
      "рено": 5115,
      "речь": 5116,
      "заму": 5117,
      "выбрали": 5118,
      "века": 5119,
      "бора": 5120,
      "проце": 5121,
      "простить": 5122,
      "виды": 5123,
      "салон": 5124,
      "пила": 5125,
      "жая": 5126,
      "бах": 5127,
      "знания": 5128,
      "цену": 5129,
      "посла": 5130,
      "хам": 5131,
      "лучшим": 5132,
      "утвер": 5133,
      "автора": 5134,
      "клапа": 5135,
      "относятся": 5136,
      "москву": 5137,
      "красивой": 5138,
      "собаке": 5139,
      "месячные": 5140,
      "чках": 5141,
      "школь": 5142,
      "клиен": 5143,
      "продают": 5144,
      "написал": 5145,
      "страшный": 5146,
      "футболисты": 5147,
      "букв": 5148,
      "отец": 5149,
      "жанр": 5150,
      "салоне": 5151,
      "навеяно": 5152,
      "требуется": 5153,
      "наверное": 5154,
      "сохранить": 5155,
      "сахар": 5156,
      "относится": 5157,
      "гнать": 5158,
      "39": 5159,
      "впервые": 5160,
      "жнее": 5161,
      "хри": 5162,
      "канику": 5163,
      "пова": 5164,
      "ваюсь": 5165,
      "забы": 5166,
      "выучить": 5167,
      "прось": 5168,
      "отры": 5169,
      "женой": 5170,
      "хоб": 5171,
      "чил": 5172,
      "силу": 5173,
      "силы": 5174,
      "ляете": 5175,
      "часы": 5176,
      "рынке": 5177,
      "фит": 5178,
      "стен": 5179,
      "парк": 5180,
      "бесит": 5181,
      "ближай": 5182,
      "витесь": 5183,
      "русских": 5184,
      "умный": 5185,
      "другое": 5186,
      "спорте": 5187,
      "длинные": 5188,
      "согласи": 5189,
      "главный": 5190,
      "придумал": 5191,
      "команду": 5192,
      "ющее": 5193,
      "пробовать": 5194,
      "емый": 5195,
      "примеру": 5196,
      "появилась": 5197,
      "начальник": 5198,
      "герои": 5199,
      "боятся": 5200,
      "уровень": 5201,
      "долларов": 5202,
      "жениться": 5203,
      "университе": 5204,
      "решили": 5205,
      "математике": 5206,
      "коктей": 5207,
      "макияж": 5208,
      "обьяс": 5209,
      "77": 5210,
      ":-)": 5211,
      "ph": 5212,
      "ата": 5213,
      "жную": 5214,
      "учет": 5215,
      "эле": 5216,
      "кака": 5217,
      "водит": 5218,
      "заре": 5219,
      "даче": 5220,
      "лочку": 5221,
      "мака": 5222,
      "выки": 5223,
      "кими": 5224,
      "договор": 5225,
      "широ": 5226,
      "гии": 5227,
      "хая": 5228,
      "детства": 5229,
      "вопросик": 5230,
      "требо": 5231,
      "третий": 5232,
      "скром": 5233,
      "мян": 5234,
      "стран": 5235,
      "парф": 5236,
      "аллер": 5237,
      "вляет": 5238,
      "новки": 5239,
      "формы": 5240,
      "показывать": 5241,
      "интересное": 5242,
      "подругой": 5243,
      "родителям": 5244,
      "2114": 5245,
      "истори": 5246,
      "съесть": 5247,
      "бурге": 5248,
      "пробовали": 5249,
      "проверя": 5250,
      "свадьбы": 5251,
      "связано": 5252,
      "чемпионат": 5253,
      "максима": 5254,
      "платят": 5255,
      "витамины": 5256,
      "случилось": 5257,
      "память": 5258,
      "заберемене": 5259,
      ")???": 5260,
      "=)))": 5261,
      "met": 5262,
      "so": 5263,
      "su": 5264,
      "ара": 5265,
      "ер": 5266,
      "ели": 5267,
      "ента": 5268,
      "пру": 5269,
      "сцеп": 5270,
      "построить": 5271,
      "коля": 5272,
      "реали": 5273,
      "чест": 5274,
      "бог": 5275,
      "болят": 5276,
      "соли": 5277,
      "шему": 5278,
      "сара": 5279,
      "принять": 5280,
      "бели": 5281,
      "пир": 5282,
      "рыбу": 5283,
      "жила": 5284,
      "разно": 5285,
      "разби": 5286,
      "хай": 5287,
      "переста": 5288,
      "актера": 5289,
      "чьи": 5290,
      "футболе": 5291,
      "оставить": 5292,
      "каждого": 5293,
      "показывают": 5294,
      "евровиде": 5295,
      "девствен": 5296,
      "хер": 5297,
      "украину": 5298,
      "настоящий": 5299,
      "ворот": 5300,
      "чувствую": 5301,
      "диета": 5302,
      "ota": 5303,
      "развития": 5304,
      "красота": 5305,
      "удобно": 5306,
      "ube": 5307,
      "появляются": 5308,
      "официально": 5309,
      "котёнка": 5310,
      "недвижи": 5311,
      "ето": 5312,
      "кв": 5313,
      "кну": 5314,
      "сб": 5315,
      "шите": 5316,
      "тош": 5317,
      "торов": 5318,
      "коп": 5319,
      "коф": 5320,
      "носи": 5321,
      "новым": 5322,
      "расти": 5323,
      "нис": 5324,
      "мода": 5325,
      "заби": 5326,
      "мел": 5327,
      "ленд": 5328,
      "проща": 5329,
      "прожить": 5330,
      "сокра": 5331,
      "видите": 5332,
      "желез": 5333,
      "числе": 5334,
      "стара": 5335,
      "обес": 5336,
      "сур": 5337,
      "летнего": 5338,
      "женский": 5339,
      "путь": 5340,
      "зона": 5341,
      "своем": 5342,
      "губы": 5343,
      "фель": 5344,
      "парт": 5345,
      "месячных": 5346,
      "фильмах": 5347,
      "сайтах": 5348,
      "положите": 5349,
      "занимаюсь": 5350,
      "порту": 5351,
      "198": 5352,
      "такими": 5353,
      "ственность": 5354,
      "похудения": 5355,
      "становятся": 5356,
      "хранить": 5357,
      "2112": 5358,
      "понял": 5359,
      "iss": 5360,
      "ногтей": 5361,
      "рекламе": 5362,
      "футболистов": 5363,
      "комнате": 5364,
      "напиток": 5365,
      "доверя": 5366,
      "самостоятельно": 5367,
      "биатло": 5368,
      "художе": 5369,
      "my": 5370,
      "mar": 5371,
      "ада": 5372,
      "клей": 5373,
      "опо": 5374,
      "уй": 5375,
      "чными": 5376,
      "каблу": 5377,
      "раство": 5378,
      "вае": 5379,
      "водой": 5380,
      "замен": 5381,
      "ветери": 5382,
      "вещь": 5383,
      "видела": 5384,
      "лук": 5385,
      "минима": 5386,
      "пен": 5387,
      "пило": 5388,
      "гается": 5389,
      "шаг": 5390,
      "чудо": 5391,
      "которому": 5392,
      "скла": 5393,
      "страх": 5394,
      "креп": 5395,
      "киев": 5396,
      "круче": 5397,
      "нормальная": 5398,
      "футбола": 5399,
      "ключ": 5400,
      "обратиться": 5401,
      "новосибир": 5402,
      "отличить": 5403,
      "понимает": 5404,
      "древ": 5405,
      "ведения": 5406,
      "программы": 5407,
      "праздно": 5408,
      "мультик": 5409,
      "джек": 5410,
      "пятна": 5411,
      "праздники": 5412,
      "сериале": 5413,
      "устроится": 5414,
      "дёте": 5415,
      "ассоции": 5416,
      "испании": 5417,
      "журна": 5418,
      "вложить": 5419,
      "комисси": 5420,
      "мысль": 5421,
      "32": 5422,
      "par": 5423,
      "tube": 5424,
      "еда": 5425,
      "едите": 5426,
      "иму": 5427,
      "исте": 5428,
      "ллер": 5429,
      "одо": 5430,
      "убор": 5431,
      "посу": 5432,
      "кожу": 5433,
      "носа": 5434,
      "носите": 5435,
      "лировать": 5436,
      "челя": 5437,
      "рица": 5438,
      "мам": 5439,
      "мане": 5440,
      "маты": 5441,
      "левой": 5442,
      "доче": 5443,
      "муз": 5444,
      "соци": 5445,
      "отзо": 5446,
      "отправить": 5447,
      "дили": 5448,
      "син": 5449,
      "сана": 5450,
      "бей": 5451,
      "беру": 5452,
      "няется": 5453,
      "скорее": 5454,
      "цей": 5455,
      "пределах": 5456,
      "летний": 5457,
      "плакать": 5458,
      "мяса": 5459,
      "конди": 5460,
      "спасти": 5461,
      "ственной": 5462,
      "москви": 5463,
      "общего": 5464,
      "тяну": 5465,
      "тянуть": 5466,
      "подарили": 5467,
      "подарки": 5468,
      "резюме": 5469,
      "врата": 5470,
      "врачи": 5471,
      "сайта": 5472,
      "темно": 5473,
      "бирать": 5474,
      "появится": 5475,
      "существо": 5476,
      "ственную": 5477,
      "скорости": 5478,
      "программе": 5479,
      "тические": 5480,
      "обижа": 5481,
      "цветов": 5482,
      "каналу": 5483,
      "сумма": 5484,
      "обороты": 5485,
      "гитару": 5486,
      "появился": 5487,
      "глохнет": 5488,
      "двери": 5489,
      "покупки": 5490,
      "предлагать": 5491,
      "далее": 5492,
      "автобус": 5493,
      "спокойно": 5494,
      "приготовления": 5495,
      "прическу": 5496,
      "сигареты": 5497,
      "гряз": 5498,
      "жесто": 5499,
      "челябин": 5500,
      "fi": 5501,
      "hi": 5502,
      "аж": 5503,
      "всту": 5504,
      "входит": 5505,
      "вклады": 5506,
      "жд": 5507,
      "зрение": 5508,
      "иться": 5509,
      "охра": 5510,
      "пью": 5511,
      "смог": 5512,
      "сцена": 5513,
      "тп": 5514,
      "фак": 5515,
      "яя": 5516,
      "топ": 5517,
      "копи": 5518,
      "дера": 5519,
      "даю": 5520,
      "давление": 5521,
      "ложить": 5522,
      "выде": 5523,
      "лени": 5524,
      "дора": 5525,
      "доход": 5526,
      "боится": 5527,
      "руси": 5528,
      "жек": 5529,
      "желе": 5530,
      "скажет": 5531,
      "причё": 5532,
      "душ": 5533,
      "жало": 5534,
      "рыб": 5535,
      "знание": 5536,
      "скинуть": 5537,
      "женской": 5538,
      "вопроса": 5539,
      "хорошей": 5540,
      "груд": 5541,
      "получает": 5542,
      "терри": 5543,
      "труда": 5544,
      "новка": 5545,
      "умно": 5546,
      "твоя": 5547,
      "порно": 5548,
      "клубы": 5549,
      "питера": 5550,
      "парням": 5551,
      "красный": 5552,
      "медве": 5553,
      "знакомства": 5554,
      "покупке": 5555,
      "увеличи": 5556,
      "подобии": 5557,
      "подростков": 5558,
      "исклю": 5559,
      "серьезно": 5560,
      "звёз": 5561,
      "хобби": 5562,
      "!))": 5563,
      "99": 5564,
      "fa": 5565,
      "hel": 5566,
      "mer": 5567,
      "pe": 5568,
      "ul": 5569,
      "yota": 5570,
      "ввиду": 5571,
      "иж": 5572,
      "йо": 5573,
      "мье": 5574,
      "пять": 5575,
      "каса": 5576,
      "пога": 5577,
      "коту": 5578,
      "никого": 5579,
      "деду": 5580,
      "резать": 5581,
      "заправ": 5582,
      "задер": 5583,
      "дала": 5584,
      "выда": 5585,
      "вышел": 5586,
      "кубок": 5587,
      "оти": 5588,
      "жест": 5589,
      "бывал": 5590,
      "падает": 5591,
      "поду": 5592,
      "стомато": 5593,
      "мыше": 5594,
      "гине": 5595,
      "мнее": 5596,
      "нному": 5597,
      "пусть": 5598,
      "хал": 5599,
      "мужские": 5600,
      "слове": 5601,
      "сном": 5602,
      "зен": 5603,
      "крыму": 5604,
      "акпп": 5605,
      "служи": 5606,
      "книжку": 5607,
      "алге": 5608,
      "тельность": 5609,
      "головы": 5610,
      "любовью": 5611,
      "русского": 5612,
      "весна": 5613,
      "свадеб": 5614,
      "ставят": 5615,
      "мечты": 5616,
      "внимания": 5617,
      "продолжение": 5618,
      "снимать": 5619,
      "малыша": 5620,
      "оплачи": 5621,
      "взросло": 5622,
      "решила": 5623,
      "парик": 5624,
      "инструк": 5625,
      "микровол": 5626,
      "употреблять": 5627,
      "костюм": 5628,
      "суббо": 5629,
      "=))": 5630,
      "sk": 5631,
      "ас": 5632,
      "або": 5633,
      "агресси": 5634,
      "зда": 5635,
      "имо": 5636,
      "ук": 5637,
      "шпа": 5638,
      "пост": 5639,
      "научится": 5640,
      "тения": 5641,
      "вость": 5642,
      "тал": 5643,
      "скачи": 5644,
      "рыбы": 5645,
      "сутки": 5646,
      "йтесь": 5647,
      "пуга": 5648,
      "харь": 5649,
      "фоль": 5650,
      "плате": 5651,
      "стекло": 5652,
      "больни": 5653,
      "страна": 5654,
      "автомат": 5655,
      "думают": 5656,
      "читали": 5657,
      "зубов": 5658,
      "имена": 5659,
      "нормальные": 5660,
      "молока": 5661,
      "экзамен": 5662,
      "обычный": 5663,
      "стребо": 5664,
      "плиззз": 5665,
      "горь": 5666,
      "хел": 5667,
      "мульти": 5668,
      "прыщей": 5669,
      "впечатление": 5670,
      "звезда": 5671,
      "утрам": 5672,
      "сказки": 5673,
      "лампо": 5674,
      "здоровье": 5675,
      "довольны": 5676,
      "будущем": 5677,
      "млн": 5678,
      "ищет": 5679,
      "окружа": 5680,
      "духовке": 5681,
      "реакция": 5682,
      "холодиль": 5683,
      "успоко": 5684,
      "тренажер": 5685,
      "29": 5686,
      "na": 5687,
      "вной": 5688,
      "ек": 5689,
      "млад": 5690,
      "чков": 5691,
      "шё": 5692,
      "точнее": 5693,
      "нашел": 5694,
      "конь": 5695,
      "телю": 5696,
      "рачи": 5697,
      "небольшой": 5698,
      "стях": 5699,
      "валась": 5700,
      "век": 5701,
      "вел": 5702,
      "доми": 5703,
      "тихо": 5704,
      "пал": 5705,
      "ились": 5706,
      "няк": 5707,
      "няют": 5708,
      "...\"": 5709,
      "разде": 5710,
      "развод": 5711,
      "дыха": 5712,
      "лучшее": 5713,
      "второго": 5714,
      "странно": 5715,
      "термина": 5716,
      "спец": 5717,
      "сексе": 5718,
      "любимых": 5719,
      "свечи": 5720,
      "семью": 5721,
      "получил": 5722,
      "атр": 5723,
      "toyota": 5724,
      "оцени": 5725,
      "случаях": 5726,
      "диагно": 5727,
      "чувствовать": 5728,
      "взяли": 5729,
      "найдите": 5730,
      "сосед": 5731,
      "впечатлениями": 5732,
      "автобусе": 5733,
      "мультфильм": 5734,
      "kia": 5735,
      "миллион": 5736,
      "челси": 5737,
      "аквариум": 5738,
      "услуги": 5739,
      "youtube": 5740,
      "осенью": 5741,
      "подключить": 5742,
      "допустим": 5743,
      "практически": 5744,
      "34": 5745,
      "est": 5746,
      "pro": 5747,
      "бля": 5748,
      "зме": 5749,
      "ог": 5750,
      "уку": 5751,
      "усы": 5752,
      "точку": 5753,
      "налого": 5754,
      "рования": 5755,
      "нений": 5756,
      "востребо": 5757,
      "зах": 5758,
      "заря": 5759,
      "записа": 5760,
      "мега": 5761,
      "лец": 5762,
      "мура": 5763,
      "север": 5764,
      "отца": 5765,
      "отжима": 5766,
      "рубли": 5767,
      "сило": 5768,
      "сильный": 5769,
      "пах": 5770,
      "сада": 5771,
      "педи": 5772,
      "дур": 5773,
      "льность": 5774,
      "???)": 5775,
      "леты": 5776,
      "вторая": 5777,
      "времен": 5778,
      "песне": 5779,
      "конкурс": 5780,
      "акции": 5781,
      "худеть": 5782,
      "резко": 5783,
      "альной": 5784,
      "врачу": 5785,
      ")))))))))": 5786,
      "занимаетесь": 5787,
      "умею": 5788,
      "средств": 5789,
      "вкуснень": 5790,
      "ste": 5791,
      "тический": 5792,
      "транспорт": 5793,
      "подскажете": 5794,
      "краснодар": 5795,
      "любимому": 5796,
      "комнату": 5797,
      "примеры": 5798,
      "романти": 5799,
      "убить": 5800,
      "подойдёт": 5801,
      "пользуется": 5802,
      "21099": 5803,
      "анализ": 5804,
      "настоящее": 5805,
      "протеин": 5806,
      "локомо": 5807,
      "штраф": 5808,
      "работода": 5809,
      "вероят": 5810,
      "реферат": 5811,
      "екатерин": 5812,
      "36": 5813,
      ":-": 5814,
      "ia": 5815,
      "бмв": 5816,
      "вконтакте": 5817,
      "дный": 5818,
      "дря": 5819,
      "нхл": 5820,
      "оке": 5821,
      "шлы": 5822,
      "эр": 5823,
      "пошло": 5824,
      "навсегда": 5825,
      "реша": 5826,
      "честь": 5827,
      "загран": 5828,
      "массы": 5829,
      "дис": 5830,
      "диски": 5831,
      "ляции": 5832,
      "чаю": 5833,
      "шель": 5834,
      "приходится": 5835,
      "пишу": 5836,
      "нией": 5837,
      "бага": 5838,
      "бина": 5839,
      "биле": 5840,
      "фио": 5841,
      "летней": 5842,
      "пожалуйсто": 5843,
      "возле": 5844,
      "тради": 5845,
      "говорили": 5846,
      "книге": 5847,
      "волосами": 5848,
      "тельной": 5849,
      "школа": 5850,
      "клипе": 5851,
      "клубе": 5852,
      "стричь": 5853,
      "стрижка": 5854,
      "сварить": 5855,
      "обуви": 5856,
      "рублях": 5857,
      "видят": 5858,
      "землю": 5859,
      "понравилась": 5860,
      "звук": 5861,
      "мороже": 5862,
      "слушаете": 5863,
      "следующий": 5864,
      "смотр": 5865,
      "аппет": 5866,
      "состоянии": 5867,
      "обеща": 5868,
      "литературе": 5869,
      "петербург": 5870,
      "будущее": 5871,
      "специальности": 5872,
      "заявление": 5873,
      "аудио": 5874,
      "номера": 5875,
      "располо": 5876,
      "актриса": 5877,
      "летие": 5878,
      "гибдд": 5879,
      "кирпи": 5880,
      "апреля": 5881,
      ":\"": 5882,
      "car": 5883,
      "tra": 5884,
      "бры": 5885,
      "дэ": 5886,
      "обез": 5887,
      "опишите": 5888,
      "рва": 5889,
      "рты": 5890,
      "смен": 5891,
      "уте": 5892,
      "хру": 5893,
      "кат": 5894,
      "коты": 5895,
      "неф": 5896,
      "деся": 5897,
      "варя": 5898,
      "ватель": 5899,
      "голь": 5900,
      "зарегистри": 5901,
      "тае": 5902,
      "тащи": 5903,
      "мах": 5904,
      "выши": 5905,
      "мели": 5906,
      "лево": 5907,
      "ведет": 5908,
      "проходить": 5909,
      "рулем": 5910,
      "хол": 5911,
      "чили": 5912,
      "число": 5913,
      "пахнет": 5914,
      "привести": 5915,
      "подтяги": 5916,
      "писы": 5917,
      "газа": 5918,
      "знак": 5919,
      "шари": 5920,
      "инвали": 5921,
      "фильму": 5922,
      "краской": 5923,
      "форе": 5924,
      "0000": 5925,
      "цах": 5926,
      "брасы": 5927,
      "мерсе": 5928,
      "грустно": 5929,
      "менти": 5930,
      "англ": 5931,
      "машин": 5932,
      "водки": 5933,
      "остались": 5934,
      "брови": 5935,
      "одежде": 5936,
      "арсе": 5937,
      "исче": 5938,
      "умеют": 5939,
      "продавать": 5940,
      "интересного": 5941,
      "интересную": 5942,
      "2108": 5943,
      "европей": 5944,
      "минус": 5945,
      "вкусного": 5946,
      "картины": 5947,
      "гриб": 5948,
      "солне": 5949,
      "сумку": 5950,
      "физике": 5951,
      "предлагают": 5952,
      "решите": 5953,
      "взаимо": 5954,
      "шампунь": 5955,
      "товарищи": 5956,
      "большинство": 5957,
      "учусь": 5958,
      "sub": 5959,
      "vol": 5960,
      "вный": 5961,
      "двой": 5962,
      "ел": 5963,
      "зре": 5964,
      "рг": 5965,
      "услышать": 5966,
      "чника": 5967,
      "ющая": 5968,
      "нега": 5969,
      "некоторых": 5970,
      "вах": 5971,
      "задумы": 5972,
      "лови": 5973,
      "ведли": 5974,
      "купле": 5975,
      "сере": 5976,
      "руча": 5977,
      "жерт": 5978,
      "пасса": 5979,
      "газе": 5980,
      "шит": 5981,
      "шими": 5982,
      "бия": 5983,
      "льности": 5984,
      "щем": 5985,
      "шашлы": 5986,
      "премье": 5987,
      "постели": 5988,
      "сложный": 5989,
      "большую": 5990,
      "очеред": 5991,
      "работаете": 5992,
      "рассу": 5993,
      "войны": 5994,
      "влении": 5995,
      "фабри": 5996,
      "тормоз": 5997,
      "2003": 5998,
      "матчи": 5999,
      "объем": 6000,
      "ндр": 6001,
      "покупал": 6002,
      "ждает": 6003,
      "понимать": 6004,
      "литров": 6005,
      "профессию": 6006,
      "идея": 6007,
      "che": 6008,
      "способны": 6009,
      "психологии": 6010,
      "сердца": 6011,
      "ошибки": 6012,
      "обед": 6013,
      "виноват": 6014,
      "попросить": 6015,
      "брюнет": 6016,
      "появляется": 6017,
      "радость": 6018,
      "раздражает": 6019,
      "гимна": 6020,
      "webm": 6021,
      "проекте": 6022,
      "лагерь": 6023,
      "посмотрите": 6024,
      "!\"": 6025,
      "\"-": 6026,
      ":(": 6027,
      "cor": 6028,
      "ha": 6029,
      "аре": 6030,
      "дню": 6031,
      "оба": 6032,
      "оскор": 6033,
      "тных": 6034,
      "уехать": 6035,
      "хит": 6036,
      "каран": 6037,
      "попы": 6038,
      "попробовать": 6039,
      "находи": 6040,
      "кошке": 6041,
      "рости": 6042,
      "неш": 6043,
      "мого": 6044,
      "чехи": 6045,
      "лаз": 6046,
      "зао": 6047,
      "замети": 6048,
      "дадут": 6049,
      "маску": 6050,
      "вики": 6051,
      "жено": 6052,
      "нула": 6053,
      "гин": 6054,
      "щика": 6055,
      "сыну": 6056,
      "трене": 6057,
      "гель": 6058,
      "назвали": 6059,
      "крылья": 6060,
      "война": 6061,
      "хиру": 6062,
      "самолете": 6063,
      "самых": 6064,
      "вляют": 6065,
      "альфа": 6066,
      "спек": 6067,
      "новом": 6068,
      "одновременно": 6069,
      "180": 6070,
      "похожа": 6071,
      "двигателе": 6072,
      "глубо": 6073,
      "грибы": 6074,
      "сезона": 6075,
      "мышц": 6076,
      "должность": 6077,
      "людях": 6078,
      "двоих": 6079,
      "одиночество": 6080,
      "ииии": 6081,
      "письмо": 6082,
      "литератур": 6083,
      "загадка": 6084,
      "сравни": 6085,
      "июня": 6086,
      "смешные": 6087,
      "центр": 6088,
      "***": 6089,
      "живёт": 6090,
      "наверно": 6091,
      "остров": 6092,
      "конкретно": 6093,
      "удовольствие": 6094,
      "процентов": 6095,
      "декабря": 6096,
      "уменьшить": 6097,
      "возникает": 6098,
      "парфю": 6099,
      "забеременеть": 6100,
      "имуще": 6101,
      "65": 6102,
      "75": 6103,
      "he": 6104,
      "hot": 6105,
      "зве": 6106,
      "ито": 6107,
      "кхл": 6108,
      "мс": 6109,
      "мч": 6110,
      "озе": 6111,
      "освет": 6112,
      "штан": 6113,
      "каре": 6114,
      "розы": 6115,
      "рожать": 6116,
      "дение": 6117,
      "вана": 6118,
      "лька": 6119,
      "рин": 6120,
      "зача": 6121,
      "откро": 6122,
      "отклю": 6123,
      "чия": 6124,
      "лятор": 6125,
      "чам": 6126,
      "бабо": 6127,
      "туфли": 6128,
      "инве": 6129,
      "женские": 6130,
      "женская": 6131,
      "коммента": 6132,
      "мужья": 6133,
      "трей": 6134,
      "цара": 6135,
      "любил": 6136,
      "расписа": 6137,
      "нрав": 6138,
      "крема": 6139,
      "химии": 6140,
      "2015": 6141,
      "доброй": 6142,
      "тельное": 6143,
      "головой": 6144,
      "интернета": 6145,
      "блоки": 6146,
      "автомобиле": 6147,
      "клуба": 6148,
      "котят": 6149,
      "ссан": 6150,
      "глазах": 6151,
      "сделала": 6152,
      "идею": 6153,
      "настоящая": 6154,
      "жом": 6155,
      "определиться": 6156,
      "земли": 6157,
      "салата": 6158,
      "транс": 6159,
      "картошку": 6160,
      "настроения": 6161,
      "маслом": 6162,
      "золото": 6163,
      "смотрят": 6164,
      "шампан": 6165,
      "января": 6166,
      "произведение": 6167,
      "возьмут": 6168,
      "улыба": 6169,
      "прическа": 6170,
      "разоча": 6171,
      "капитал": 6172,
      "отгадайте": 6173,
      "театра": 6174,
      "мамочки": 6175,
      "отзовитесь": 6176,
      "sa": 6177,
      "son": 6178,
      "um": 6179,
      "vis": 6180,
      "вд": 6181,
      "дные": 6182,
      "ист": 6183,
      "ох": 6184,
      "сре": 6185,
      "тят": 6186,
      "уско": 6187,
      "улит": 6188,
      "цкий": 6189,
      "шники": 6190,
      "моско": 6191,
      "лада": 6192,
      "заба": 6193,
      "запол": 6194,
      "лее": 6195,
      "веще": 6196,
      "серы": 6197,
      "отрица": 6198,
      "синг": 6199,
      "биться": 6200,
      "жира": 6201,
      "развле": 6202,
      "цита": 6203,
      "ционе": 6204,
      "прекра": 6205,
      "детские": 6206,
      "лучших": 6207,
      "стесня": 6208,
      "слову": 6209,
      "зима": 6210,
      "мяч": 6211,
      "странах": 6212,
      "хороших": 6213,
      "показывает": 6214,
      "обозна": 6215,
      "продав": 6216,
      "курса": 6217,
      "ствии": 6218,
      "языку": 6219,
      "ссылки": 6220,
      "последние": 6221,
      "задача": 6222,
      "вкусные": 6223,
      "вкуснее": 6224,
      "лёг": 6225,
      "предложить": 6226,
      "ственная": 6227,
      "ужастик": 6228,
      "поездки": 6229,
      "деревя": 6230,
      "поликли": 6231,
      "колесо": 6232,
      "колеса": 6233,
      "мороз": 6234,
      "буквы": 6235,
      "карточку": 6236,
      "офис": 6237,
      "финал": 6238,
      "вкусное": 6239,
      "взял": 6240,
      "ощущение": 6241,
      "поздравить": 6242,
      "путешествие": 6243,
      "прививки": 6244,
      "кухне": 6245,
      "сматри": 6246,
      "поставил": 6247,
      "ипотеку": 6248,
      "августе": 6249,
      "произошло": 6250,
      "фамилию": 6251,
      "геомет": 6252,
      "маршрут": 6253,
      "маркетин": 6254,
      "бассей": 6255,
      "250": 6256,
      "hon": 6257,
      "ry": 6258,
      "жы": 6259,
      "клы": 6260,
      "тного": 6261,
      "учё": 6262,
      "шля": 6263,
      "♠♠": 6264,
      "точный": 6265,
      "поэ": 6266,
      "пожела": 6267,
      "понедель": 6268,
      "ногах": 6269,
      "нек": 6270,
      "неожида": 6271,
      "декс": 6272,
      "мони": 6273,
      "чее": 6274,
      "заводить": 6275,
      "вышла": 6276,
      "лесу": 6277,
      "кус": 6278,
      "профи": 6279,
      "просро": 6280,
      "солю": 6281,
      "жене": 6282,
      "дин": 6283,
      "старая": 6284,
      "скока": 6285,
      "...(": 6286,
      "каково": 6287,
      "рыв": 6288,
      "библи": 6289,
      "???))))": 6290,
      "сумер": 6291,
      "интим": 6292,
      "препара": 6293,
      "плачу": 6294,
      "читайте": 6295,
      "хорошим": 6296,
      "получения": 6297,
      "четвер": 6298,
      "терпеть": 6299,
      "тельства": 6300,
      "стоять": 6301,
      "водку": 6302,
      "черные": 6303,
      "корни": 6304,
      "спирт": 6305,
      "бросил": 6306,
      "открытия": 6307,
      "твои": 6308,
      "звонит": 6309,
      "2115": 6310,
      "ственных": 6311,
      "хорошем": 6312,
      "родился": 6313,
      "признаки": 6314,
      "стартер": 6315,
      "звезды": 6316,
      "ставит": 6317,
      "другая": 6318,
      "котенок": 6319,
      "подробно": 6320,
      "подробности": 6321,
      "ехала": 6322,
      "кольцо": 6323,
      "представите": 6324,
      "топлива": 6325,
      "насеко": 6326,
      "приходилось": 6327,
      "викторина": 6328,
      "help": 6329,
      "webmoney": 6330,
      "bi": 6331,
      "ii": 6332,
      "qu": 6333,
      "ась": 6334,
      "вшие": 6335,
      "лч": 6336,
      "нё": 6337,
      "уво": 6338,
      "усили": 6339,
      "фрук": 6340,
      "чком": 6341,
      "эго": 6342,
      "точек": 6343,
      "пого": 6344,
      "пошла": 6345,
      "погулять": 6346,
      "поведение": 6347,
      "ноты": 6348,
      "лига": 6349,
      "родо": 6350,
      "никому": 6351,
      "вато": 6352,
      "моне": 6353,
      "заце": 6354,
      "зарабо": 6355,
      "данные": 6356,
      "выигры": 6357,
      "меро": 6358,
      "лении": 6359,
      "лечения": 6360,
      "дочка": 6361,
      "просту": 6362,
      "проявля": 6363,
      "соеди": 6364,
      "чих": 6365,
      "лут": 6366,
      "стари": 6367,
      "сидя": 6368,
      "шеб": 6369,
      "сапоги": 6370,
      "припе": 6371,
      "приез": 6372,
      "пел": 6373,
      "педа": 6374,
      "изра": 6375,
      "гай": 6376,
      "гаю": 6377,
      "мых": 6378,
      "жится": 6379,
      "тывать": 6380,
      "всей": 6381,
      "прези": 6382,
      "прежде": 6383,
      "зок": 6384,
      "вторую": 6385,
      "скет": 6386,
      "большим": 6387,
      "перспе": 6388,
      "страха": 6389,
      "андре": 6390,
      "фотошо": 6391,
      "худе": 6392,
      "краситься": 6393,
      "красивых": 6394,
      "действует": 6395,
      "общество": 6396,
      "тельного": 6397,
      "крутить": 6398,
      "черного": 6399,
      "альных": 6400,
      "каждой": 6401,
      "отвечает": 6402,
      "картинку": 6403,
      "пети": 6404,
      "поняли": 6405,
      "струк": 6406,
      "сторон": 6407,
      "чемпион": 6408,
      "материа": 6409,
      "аппара": 6410,
      "передача": 6411,
      "знакомые": 6412,
      "штаны": 6413,
      "основном": 6414,
      "выборе": 6415,
      "держится": 6416,
      "грыз": 6417,
      "экскурсии": 6418,
      "депрессия": 6419,
      "курорт": 6420,
      "алекса": 6421,
      "грамотно": 6422,
      "сегодняшний": 6423,
      "четыре": 6424,
      "аро": 6425,
      "вт": 6426,
      "двое": 6427,
      "свиде": 6428,
      "уто": 6429,
      "фла": 6430,
      "полюбить": 6431,
      "порекоменду": 6432,
      "ната": 6433,
      "кови": 6434,
      "корей": 6435,
      "рож": 6436,
      "рожда": 6437,
      "ронал": 6438,
      "нена": 6439,
      "ваний": 6440,
      "моих": 6441,
      "монта": 6442,
      "можем": 6443,
      "чесно": 6444,
      "забыл": 6445,
      "занять": 6446,
      "запомни": 6447,
      "таться": 6448,
      "танец": 6449,
      "мена": 6450,
      "веду": 6451,
      "дость": 6452,
      "сереб": 6453,
      "проколо": 6454,
      "русы": 6455,
      "ходы": 6456,
      "дио": 6457,
      "скар": 6458,
      "мия": 6459,
      "пас": 6460,
      "прило": 6461,
      "подмоско": 6462,
      "пище": 6463,
      "жаре": 6464,
      "стира": 6465,
      "фици": 6466,
      "переса": 6467,
      "лыми": 6468,
      "долг": 6469,
      "нках": 6470,
      "щается": 6471,
      "смотра": 6472,
      "аккор": 6473,
      "езде": 6474,
      "самолет": 6475,
      "музыке": 6476,
      "ального": 6477,
      "корпора": 6478,
      "редко": 6479,
      "шками": 6480,
      ":):)": 6481,
      "курсо": 6482,
      "возможности": 6483,
      "замена": 6484,
      "технику": 6485,
      "картину": 6486,
      "рованный": 6487,
      "?))))))": 6488,
      "психологический": 6489,
      "медле": 6490,
      "характера": 6491,
      "удивить": 6492,
      "прыщи": 6493,
      "российские": 6494,
      "спарта": 6495,
      "дождь": 6496,
      "нашего": 6497,
      "размера": 6498,
      "доверять": 6499,
      "болезни": 6500,
      "уравне": 6501,
      "обращаться": 6502,
      "руковод": 6503,
      "влюбился": 6504,
      "влюбилась": 6505,
      "просну": 6506,
      "учителя": 6507,
      "абха": 6508,
      "сентябре": 6509,
      "реальные": 6510,
      "надоело": 6511,
      "безопасности": 6512,
      "мопед": 6513,
      "расшиф": 6514,
      "бензина": 6515,
      "кроссовки": 6516,
      "вшись": 6517,
      "порядке": 6518,
      "ассоциируется": 6519,
      "парикма": 6520,
      "хелп": 6521,
      "cl": 6522,
      "ho": 6523,
      "wat": 6524,
      "бкой": 6525,
      "брен": 6526,
      "клет": 6527,
      "кпп": 6528,
      "нче": 6529,
      "рга": 6530,
      "ун": 6531,
      "шве": 6532,
      "экра": 6533,
      "кавка": 6534,
      "пон": 6535,
      "поиграть": 6536,
      "напомните": 6537,
      "коз": 6538,
      "течении": 6539,
      "лили": 6540,
      "нил": 6541,
      "нитель": 6542,
      "неуда": 6543,
      "вален": 6544,
      "забыла": 6545,
      "выска": 6546,
      "вера": 6547,
      "мудро": 6548,
      "боре": 6549,
      "сете": 6550,
      "пропу": 6551,
      "видит": 6552,
      "отте": 6553,
      "ходе": 6554,
      "стаж": 6555,
      "пакет": 6556,
      "приста": 6557,
      "пец": 6558,
      "вуз": 6559,
      "жий": 6560,
      "обнару": 6561,
      "цер": 6562,
      "рабочий": 6563,
      "инвести": 6564,
      "женные": 6565,
      "посы": 6566,
      "меняется": 6567,
      "форт": 6568,
      "мужская": 6569,
      "вопросом": 6570,
      "второе": 6571,
      "брата": 6572,
      "возра": 6573,
      "любили": 6574,
      "выйгра": 6575,
      "говой": 6576,
      "интересо": 6577,
      "дороги": 6578,
      "торта": 6579,
      "берет": 6580,
      "польза": 6581,
      "ствием": 6582,
      "картинке": 6583,
      "занятия": 6584,
      "волшеб": 6585,
      "красной": 6586,
      "деревь": 6587,
      "психологически": 6588,
      "дрож": 6589,
      "ющиеся": 6590,
      "всякие": 6591,
      "всяких": 6592,
      "мальчики": 6593,
      "современно": 6594,
      "известно": 6595,
      "знакомств": 6596,
      "диеты": 6597,
      "счастливы": 6598,
      "пропал": 6599,
      "успеш": 6600,
      "операции": 6601,
      "навига": 6602,
      "передачи": 6603,
      "отече": 6604,
      "героев": 6605,
      "?:)))": 6606,
      "благодарю": 6607,
      "творчество": 6608,
      "производства": 6609,
      "современные": 6610,
      "улицу": 6611,
      "максимум": 6612,
      "абсолю": 6613,
      "ресторан": 6614,
      "настоящему": 6615,
      "заключается": 6616,
      "стихотворение": 6617,
      "медицин": 6618,
      "коричне": 6619,
      "градусов": 6620,
      "охота": 6621,
      "акаде": 6622,
      "сумерки": 6623,
      "120": 6624,
      "68": 6625,
      "ms": 6626,
      "niss": 6627,
      "ty": 6628,
      "ya": 6629,
      "брить": 6630,
      "ие": 6631,
      "йлу": 6632,
      "опрос": 6633,
      "сх": 6634,
      "сные": 6635,
      "швей": 6636,
      "кап": 6637,
      "поля": 6638,
      "поют": 6639,
      "почистить": 6640,
      "тел": 6641,
      "раск": 6642,
      "ровал": 6643,
      "ниссан": 6644,
      "реп": 6645,
      "речи": 6646,
      "ремень": 6647,
      "ческом": 6648,
      "заг": 6649,
      "даст": 6650,
      "кузов": 6651,
      "просят": 6652,
      "собрать": 6653,
      "отреаги": 6654,
      "диться": 6655,
      "стана": 6656,
      "сиби": 6657,
      "синте": 6658,
      "ляться": 6659,
      "сал": 6660,
      "любя": 6661,
      "подряд": 6662,
      "белье": 6663,
      "жается": 6664,
      "баскет": 6665,
      "тупы": 6666,
      "разум": 6667,
      "гип": 6668,
      "суд": 6669,
      "преду": 6670,
      "зон": 6671,
      "коммер": 6672,
      "гене": 6673,
      "зывали": 6674,
      "ванием": 6675,
      "красивую": 6676,
      "вашим": 6677,
      "2006": 6678,
      "движения": 6679,
      "исправ": 6680,
      "глядя": 6681,
      "удар": 6682,
      "твоей": 6683,
      "плохое": 6684,
      "ссылочку": 6685,
      "грамма": 6686,
      "порта": 6687,
      "поступили": 6688,
      "критери": 6689,
      "танцу": 6690,
      "международ": 6691,
      "ужасы": 6692,
      "симп": 6693,
      "понятие": 6694,
      "реклама": 6695,
      "вороне": 6696,
      "плюс": 6697,
      "франции": 6698,
      "семена": 6699,
      "восстановить": 6700,
      "культур": 6701,
      "смотря": 6702,
      "пьют": 6703,
      "игрушки": 6704,
      "птица": 6705,
      "причине": 6706,
      "описанию": 6707,
      "выгоднее": 6708,
      "недорогой": 6709,
      "определение": 6710,
      "организма": 6711,
      "обманы": 6712,
      "сухой": 6713,
      "чемпионом": 6714,
      "массаж": 6715,
      "знаменито": 6716,
      "проверки": 6717,
      "талант": 6718,
      "праздновать": 6719,
      "каранда": 6720,
      "honda": 6721,
      "nissan": 6722,
      ")...": 6723,
      "48": 6724,
      "tv": 6725,
      "авари": 6726,
      "афри": 6727,
      "жным": 6728,
      "жье": 6729,
      "испе": 6730,
      "йста": 6731,
      "лл": 6732,
      "сму": 6733,
      "кашу": 6734,
      "пои": 6735,
      "напа": 6736,
      "налог": 6737,
      "литра": 6738,
      "моем": 6739,
      "лабра": 6740,
      "дается": 6741,
      "месси": 6742,
      "нынче": 6743,
      "куби": 6744,
      "сестры": 6745,
      "пропи": 6746,
      "руке": 6747,
      "чали": 6748,
      "пало": 6749,
      "пришло": 6750,
      "подви": 6751,
      "жаться": 6752,
      "туро": 6753,
      "бие": 6754,
      "обмен": 6755,
      "пожайлу": 6756,
      "перво": 6757,
      "спаса": 6758,
      "правильный": 6759,
      "водка": 6760,
      "фаль": 6761,
      "ждете": 6762,
      "))))))))))": 6763,
      "учился": 6764,
      "занимаются": 6765,
      "рецептом": 6766,
      "средняя": 6767,
      "ствий": 6768,
      "задачи": 6769,
      "блок": 6770,
      "подругу": 6771,
      "логия": 6772,
      "смотрела": 6773,
      "надё": 6774,
      "красная": 6775,
      "многих": 6776,
      "ланде": 6777,
      "льян": 6778,
      "краснода": 6779,
      "гитары": 6780,
      "золотой": 6781,
      "дворе": 6782,
      "вокзала": 6783,
      "пальто": 6784,
      "подойдут": 6785,
      "кататься": 6786,
      "болга": 6787,
      "зарабатывает": 6788,
      "июля": 6789,
      "знакомый": 6790,
      "испан": 6791,
      "брюки": 6792,
      "спокойной": 6793,
      "вернуться": 6794,
      "основные": 6795,
      "трудовой": 6796,
      "справку": 6797,
      "садик": 6798,
      "уснуть": 6799,
      "подобное": 6800,
      "достоин": 6801,
      "бухгалтера": 6802,
      "отмечать": 6803,
      "повысить": 6804,
      "танцевать": 6805,
      "аватар": 6806,
      "живете": 6807,
      "пжл": 6808,
      "уверен": 6809,
      "консульта": 6810,
      "3d": 6811,
      "95": 6812,
      "ba": 6813,
      "dy": 6814,
      "gu": 6815,
      "бред": 6816,
      "вке": 6817,
      "звере": 6818,
      "ир": 6819,
      "окра": 6820,
      "сный": 6821,
      "указа": 6822,
      "фили": 6823,
      "кале": 6824,
      "нада": 6825,
      "нало": 6826,
      "наду": 6827,
      "наша": 6828,
      "нагруз": 6829,
      "театр": 6830,
      "неприят": 6831,
      "стят": 6832,
      "ревну": 6833,
      "таре": 6834,
      "дарить": 6835,
      "вешу": 6836,
      "соц": 6837,
      "сомне": 6838,
      "сопер": 6839,
      "шевро": 6840,
      "прием": 6841,
      "подходят": 6842,
      "бедра": 6843,
      "белая": 6844,
      "жат": 6845,
      "баль": 6846,
      "всему": 6847,
      "целый": 6848,
      "пость": 6849,
      "детского": 6850,
      "перевоз": 6851,
      "верно": 6852,
      "возбу": 6853,
      "ковь": 6854,
      "креа": 6855,
      "получают": 6856,
      "фай": 6857,
      "общем": 6858,
      "стым": 6859,
      "серий": 6860,
      "занимался": 6861,
      "соблаз": 6862,
      "последняя": 6863,
      "поймать": 6864,
      "спортсмен": 6865,
      "самим": 6866,
      "заказ": 6867,
      "придумали": 6868,
      "дальней": 6869,
      "понравиться": 6870,
      "праздни": 6871,
      "батывать": 6872,
      "комедия": 6873,
      "пьет": 6874,
      "внешности": 6875,
      "создания": 6876,
      "познакомится": 6877,
      "уроки": 6878,
      "германия": 6879,
      "велосипеде": 6880,
      "весело": 6881,
      "ненавижу": 6882,
      "воздух": 6883,
      "свидании": 6884,
      "иллю": 6885,
      "пробег": 6886,
      "отказаться": 6887,
      "экзамены": 6888,
      "молодые": 6889,
      "казахстан": 6890,
      "институ": 6891,
      "особо": 6892,
      "зажигания": 6893,
      "октября": 6894,
      "мастера": 6895,
      "саунд": 6896,
      "маникюр": 6897,
      "улучшить": 6898,
      "просьба": 6899,
      "тошнит": 6900,
      "hotel": 6901,
      "инвесто": 6902,
      "watch": 6903,
      "33": 6904,
      "wi": 6905,
      "вная": 6906,
      "гети": 6907,
      "ент": 6908,
      "звали": 6909,
      "ив": 6910,
      "кта": 6911,
      "кете": 6912,
      "нн": 6913,
      "плы": 6914,
      "спер": 6915,
      "сверх": 6916,
      "тным": 6917,
      "тём": 6918,
      "хре": 6919,
      "чник": 6920,
      "лимо": 6921,
      "расто": 6922,
      "росла": 6923,
      "ростов": 6924,
      "ровок": 6925,
      "декора": 6926,
      "ванной": 6927,
      "годо": 6928,
      "льки": 6929,
      "рим": 6930,
      "затра": 6931,
      "запя": 6932,
      "табли": 6933,
      "вызвать": 6934,
      "киа": 6935,
      "дога": 6936,
      "доступ": 6937,
      "дольше": 6938,
      "сеть": 6939,
      "селе": 6940,
      "проч": 6941,
      "проигры": 6942,
      "отправи": 6943,
      "тировать": 6944,
      "тимати": 6945,
      "бывать": 6946,
      "бывало": 6947,
      "скажи": 6948,
      "сидят": 6949,
      "бую": 6950,
      "духо": 6951,
      "жанра": 6952,
      "жарить": 6953,
      "знали": 6954,
      "жих": 6955,
      "обсу": 6956,
      "разру": 6957,
      "разгово": 6958,
      "всеми": 6959,
      "кен": 6960,
      "цел": 6961,
      "???))": 6962,
      "вампи": 6963,
      "переклю": 6964,
      "триллер": 6965,
      "сное": 6966,
      "строе": 6967,
      "строите": 6968,
      "распро": 6969,
      "расход": 6970,
      "мерз": 6971,
      "говоря": 6972,
      "студент": 6973,
      "именем": 6974,
      "езда": 6975,
      "ответа": 6976,
      "2016": 6977,
      "болеет": 6978,
      "месяце": 6979,
      "серти": 6980,
      "арша": 6981,
      "армию": 6982,
      "эксп": 6983,
      "плизз": 6984,
      "поступать": 6985,
      "англии": 6986,
      "домашние": 6987,
      "квартира": 6988,
      "маленьких": 6989,
      "почту": 6990,
      "спс": 6991,
      "вчераш": 6992,
      "другими": 6993,
      "радиа": 6994,
      "родила": 6995,
      "пользова": 6996,
      "высоко": 6997,
      "зарплаты": 6998,
      "мальчику": 6999,
      "британ": 7000,
      "министра": 7001,
      "минимум": 7002,
      "оплатить": 7003,
      "потерял": 7004,
      "потерять": 7005,
      "пяти": 7006,
      "ухажи": 7007,
      "ехали": 7008,
      "решения": 7009,
      "требует": 7010,
      "уууу": 7011,
      "рисунок": 7012,
      "судьба": 7013,
      "помимо": 7014,
      "песенку": 7015,
      "жидкость": 7016,
      "датчик": 7017,
      "памят": 7018,
      "аккумулятор": 7019,
      "степени": 7020,
      "!)))": 7021,
      "2х": 7022,
      "800": 7023,
      "?!!!": 7024,
      "ca": 7025,
      "fo": 7026,
      "pa": 7027,
      "ps": 7028,
      "pal": 7029,
      "дз": 7030,
      "жное": 7031,
      "лла": 7032,
      "оз": 7033,
      "оны": 7034,
      "очи": 7035,
      "рте": 7036,
      "сё": 7037,
      "сной": 7038,
      "справиться": 7039,
      "умо": 7040,
      "фло": 7041,
      "фразы": 7042,
      "шни": 7043,
      "шник": 7044,
      "ял": 7045,
      "кай": 7046,
      "попол": 7047,
      "поправиться": 7048,
      "набор": 7049,
      "набира": 7050,
      "напомина": 7051,
      "коша": 7052,
      "рада": 7053,
      "стую": 7054,
      "репети": 7055,
      "заряд": 7056,
      "мала": 7057,
      "лечение": 7058,
      "дования": 7059,
      "куб": 7060,
      "куба": 7061,
      "просыпа": 7062,
      "соревно": 7063,
      "вита": 7064,
      "тиве": 7065,
      "рубин": 7066,
      "диск": 7067,
      "чал": 7068,
      "прине": 7069,
      "приклю": 7070,
      "житель": 7071,
      "тупой": 7072,
      "мый": 7073,
      "гию": 7074,
      "лету": 7075,
      "летнему": 7076,
      "женского": 7077,
      "хан": 7078,
      "ряется": 7079,
      "геленд": 7080,
      "советский": 7081,
      "мерт": 7082,
      "крест": 7083,
      "самолё": 7084,
      "факуль": 7085,
      "молодё": 7086,
      "брони": 7087,
      "холодно": 7088,
      "греции": 7089,
      "обычной": 7090,
      "отвечают": 7091,
      "окно": 7092,
      "согласен": 7093,
      "питаться": 7094,
      "устроить": 7095,
      "графии": 7096,
      "поездка": 7097,
      "настоящие": 7098,
      "область": 7099,
      "центре": 7100,
      "пятно": 7101,
      "клеить": 7102,
      "майоне": 7103,
      "российский": 7104,
      "личности": 7105,
      "свадьба": 7106,
      "алкоголя": 7107,
      "вечери": 7108,
      "эффективно": 7109,
      "доллар": 7110,
      "линзы": 7111,
      "бабушка": 7112,
      "сахара": 7113,
      "посоветовали": 7114,
      "поставили": 7115,
      "____": 7116,
      "выпускной": 7117,
      "дорогую": 7118,
      "заканчивается": 7119,
      "купаться": 7120,
      "серьёзно": 7121,
      "адеква": 7122,
      "куртку": 7123,
      "пройдет": 7124,
      "предохра": 7125,
      "чужой": 7126,
      "зенита": 7127,
      "каникулы": 7128,
      "билетов": 7129,
      "visa": 7130,
      "эксплу": 7131,
      "600": 7132,
      "98": 7133,
      "?!!": 7134,
      "bla": 7135,
      "ci": 7136,
      "vo": 7137,
      "брит": 7138,
      "вшего": 7139,
      "едем": 7140,
      "зделать": 7141,
      "отеле": 7142,
      "псе": 7143,
      "ппи": 7144,
      "сну": 7145,
      "ул": 7146,
      "ушел": 7147,
      "чна": 7148,
      "юби": 7149,
      "яться": 7150,
      "пома": 7151,
      "наблю": 7152,
      "тео": 7153,
      "росли": 7154,
      "монета": 7155,
      "честву": 7156,
      "ласко": 7157,
      "задума": 7158,
      "замени": 7159,
      "забил": 7160,
      "дак": 7161,
      "кине": 7162,
      "проя": 7163,
      "сора": 7164,
      "тию": 7165,
      "тиви": 7166,
      "сидите": 7167,
      "мил": 7168,
      "палец": 7169,
      "природе": 7170,
      "писи": 7171,
      "ктом": 7172,
      "жали": 7173,
      "бали": 7174,
      "размно": 7175,
      "щении": 7176,
      "пожал": 7177,
      "детском": 7178,
      "компли": 7179,
      "своём": 7180,
      "плавать": 7181,
      "утю": 7182,
      "зывал": 7183,
      "читают": 7184,
      "конку": 7185,
      "кончи": 7186,
      "работала": 7187,
      "нками": 7188,
      "стук": 7189,
      "аква": 7190,
      "тивный": 7191,
      "черная": 7192,
      "остался": 7193,
      "трой": 7194,
      "2004": 7195,
      "клипа": 7196,
      "показать": 7197,
      "девочке": 7198,
      "короче": 7199,
      "короле": 7200,
      "бесплатные": 7201,
      "надпись": 7202,
      "классные": 7203,
      "обучения": 7204,
      "парамет": 7205,
      "победить": 7206,
      "едино": 7207,
      "америке": 7208,
      "банках": 7209,
      "бороть": 7210,
      "российских": 7211,
      "платья": 7212,
      "обычное": 7213,
      ",,,": 7214,
      "систему": 7215,
      "внешне": 7216,
      "информация": 7217,
      "героя": 7218,
      "металли": 7219,
      "узнали": 7220,
      "животе": 7221,
      "администра": 7222,
      "грм": 7223,
      "влюбиться": 7224,
      "помидо": 7225,
      "олимпиа": 7226,
      "олимпий": 7227,
      "футбольный": 7228,
      "предметы": 7229,
      "глупый": 7230,
      "уровня": 7231,
      "йорк": 7232,
      "певица": 7233,
      "знатоки": 7234,
      "прошлом": 7235,
      "доказать": 7236,
      "конфеты": 7237,
      "модератором": 7238,
      "благодарна": 7239,
      "аллергия": 7240,
      "дочери": 7241,
      "заработок": 7242,
      "42": 7243,
      "ks": 7244,
      "mit": 7245,
      "вного": 7246,
      "ждет": 7247,
      "охла": 7248,
      "св": 7249,
      "сбы": 7250,
      "схва": 7251,
      "увлека": 7252,
      "шот": 7253,
      "каби": 7254,
      "подать": 7255,
      "поговорить": 7256,
      "потолсте": 7257,
      "научите": 7258,
      "конья": 7259,
      "теть": 7260,
      "тение": 7261,
      "нила": 7262,
      "нинг": 7263,
      "немогу": 7264,
      "вани": 7265,
      "годом": 7266,
      "ланди": 7267,
      "зади": 7268,
      "зами": 7269,
      "загар": 7270,
      "лобо": 7271,
      "мамой": 7272,
      "выклю": 7273,
      "леди": 7274,
      "весить": 7275,
      "курит": 7276,
      "вила": 7277,
      "отда": 7278,
      "ходов": 7279,
      "чаете": 7280,
      "пат": 7281,
      "падают": 7282,
      "паспорта": 7283,
      "пришел": 7284,
      "белого": 7285,
      "нях": 7286,
      "столе": 7287,
      "бами": 7288,
      "шина": 7289,
      "шивать": 7290,
      "делается": 7291,
      "обслужи": 7292,
      "разговор": 7293,
      "преж": 7294,
      "препода": 7295,
      "спон": 7296,
      "переди": 7297,
      "стекла": 7298,
      "скло": 7299,
      "вреден": 7300,
      "браке": 7301,
      "читает": 7302,
      "конфли": 7303,
      "говорю": 7304,
      "киеве": 7305,
      "делить": 7306,
      "действу": 7307,
      "полное": 7308,
      "серге": 7309,
      "ствуйте": 7310,
      "2005": 7311,
      "турни": 7312,
      "открывать": 7313,
      "обору": 7314,
      "умереть": 7315,
      "психо": 7316,
      "рецептик": 7317,
      "написала": 7318,
      "растений": 7319,
      "передние": 7320,
      "определе": 7321,
      "звонить": 7322,
      "маленького": 7323,
      "поделиться": 7324,
      "ааа": 7325,
      "неделе": 7326,
      "пятницу": 7327,
      "реклам": 7328,
      "документов": 7329,
      "знакомиться": 7330,
      "мозги": 7331,
      "системе": 7332,
      "системы": 7333,
      "адреса": 7334,
      "образованием": 7335,
      "бояться": 7336,
      "тюрь": 7337,
      "уголь": 7338,
      "чёрный": 7339,
      "туристи": 7340,
      "зеленый": 7341,
      "специальность": 7342,
      "воздуха": 7343,
      "организм": 7344,
      "новогодние": 7345,
      "мелодия": 7346,
      "августа": 7347,
      "деятельности": 7348,
      "запчасти": 7349,
      "проценты": 7350,
      "поцелуй": 7351,
      "потратить": 7352,
      "остановиться": 7353,
      "идиот": 7354,
      "середине": 7355,
      "наказание": 7356,
      "послать": 7357,
      "локомотив": 7358,
      "монеты": 7359,
      "кавказ": 7360,
      "высказыва": 7361,
      "туропера": 7362,
      "геленджи": 7363,
      "\"!": 7364,
      "\")": 7365,
      "08": 7366,
      "53": 7367,
      "92": 7368,
      "des": 7369,
      "lan": 7370,
      "ple": 7371,
      "ran": 7372,
      "rol": 7373,
      "ая": 7374,
      "еле": 7375,
      "опель": 7376,
      "рё": 7377,
      "свар": 7378,
      "считы": 7379,
      "учат": 7380,
      "устано": 7381,
      "фэ": 7382,
      "фра": 7383,
      "хих": 7384,
      "шпи": 7385,
      "товой": 7386,
      "понравится": 7387,
      "порой": 7388,
      "постав": 7389,
      "колы": 7390,
      "котя": 7391,
      "носу": 7392,
      "лиф": 7393,
      "листо": 7394,
      "лиге": 7395,
      "рока": 7396,
      "валь": 7397,
      "варень": 7398,
      "моим": 7399,
      "гора": 7400,
      "гори": 7401,
      "гоня": 7402,
      "воскре": 7403,
      "чению": 7404,
      "рие": 7405,
      "рика": 7406,
      "задать": 7407,
      "лова": 7408,
      "лость": 7409,
      "выходить": 7410,
      "киви": 7411,
      "нынеш": 7412,
      "куку": 7413,
      "боди": 7414,
      "сесть": 7415,
      "сестре": 7416,
      "проз": 7417,
      "проехать": 7418,
      "соле": 7419,
      "составля": 7420,
      "отдавать": 7421,
      "тира": 7422,
      "тила": 7423,
      "сильная": 7424,
      "подве": 7425,
      "подвод": 7426,
      "изгото": 7427,
      "избежать": 7428,
      "жала": 7429,
      "рыбка": 7430,
      "жилье": 7431,
      "общий": 7432,
      "кера": 7433,
      "цени": 7434,
      "???!": 7435,
      "летнюю": 7436,
      "пуши": 7437,
      "фона": 7438,
      "комфорт": 7439,
      "перестал": 7440,
      "гули": 7441,
      "больших": 7442,
      "автома": 7443,
      "рассла": 7444,
      "которыми": 7445,
      "шоке": 7446,
      "терпе": 7447,
      "плохая": 7448,
      "красивым": 7449,
      "действие": 7450,
      "музыкан": 7451,
      "шум": 7452,
      "альное": 7453,
      "блины": 7454,
      "групп": 7455,
      "игрок": 7456,
      "приветик": 7457,
      "задание": 7458,
      "танцы": 7459,
      "свето": 7460,
      "связь": 7461,
      "домашний": 7462,
      "задние": 7463,
      "родителями": 7464,
      "предложили": 7465,
      "большого": 7466,
      "заказывать": 7467,
      "телефону": 7468,
      "настроить": 7469,
      "барса": 7470,
      "вспомина": 7471,
      "совесть": 7472,
      "букву": 7473,
      "сборную": 7474,
      "офисе": 7475,
      "сюр": 7476,
      "талию": 7477,
      "бывший": 7478,
      "район": 7479,
      "птицы": 7480,
      "пляж": 7481,
      "чувствует": 7482,
      "трё": 7483,
      "используют": 7484,
      "прошлое": 7485,
      "целовать": 7486,
      "режим": 7487,
      "энергети": 7488,
      "индивиду": 7489,
      "audi": 7490,
      "юриди": 7491,
      "яиц": 7492,
      "штука": 7493,
      "директор": 7494,
      "временем": 7495,
      "фигня": 7496,
      "ресторане": 7497,
      "недостатки": 7498,
      "дизель": 7499,
      "сверху": 7500,
      "прибыль": 7501,
      "пришлите": 7502,
      "телевизо": 7503,
      "осаго": 7504,
      "багаж": 7505,
      "аппетит": 7506,
      "подмосковье": 7507,
      "пожайлуста": 7508,
      "юбилей": 7509,
      "\"(": 7510,
      ".(": 7511,
      "=(": 7512,
      "gi": 7513,
      "hy": 7514,
      "вкой": 7515,
      "вклад": 7516,
      "гнуть": 7517,
      "зверь": 7518,
      "крю": 7519,
      "оа": 7520,
      "озву": 7521,
      "спря": 7522,
      "тная": 7523,
      "фраз": 7524,
      "точные": 7525,
      "кастри": 7526,
      "поки": 7527,
      "повез": 7528,
      "намного": 7529,
      "ночка": 7530,
      "ночной": 7531,
      "лигу": 7532,
      "личный": 7533,
      "родить": 7534,
      "дешё": 7535,
      "мотива": 7536,
      "реле": 7537,
      "лап": 7538,
      "заки": 7539,
      "зайти": 7540,
      "дание": 7541,
      "..)": 7542,
      "лега": 7543,
      "состоит": 7544,
      "типу": 7545,
      "тиков": 7546,
      "рукой": 7547,
      "чиво": 7548,
      "чихуа": 7549,
      "ляются": 7550,
      "пая": 7551,
      "приносит": 7552,
      "перы": 7553,
      "бегу": 7554,
      "гат": 7555,
      "гаран": 7556,
      "билета": 7557,
      "обменять": 7558,
      "правой": 7559,
      "фильтр": 7560,
      "хами": 7561,
      "зоо": 7562,
      "переводится": 7563,
      "перечисли": 7564,
      "стены": 7565,
      "лучшей": 7566,
      "губ": 7567,
      "конкурсы": 7568,
      "возмож": 7569,
      "рассказать": 7570,
      "ровке": 7571,
      "анжи": 7572,
      "парке": 7573,
      "терна": 7574,
      "собакой": 7575,
      "считаю": 7576,
      "голоса": 7577,
      "2001": 7578,
      "форте": 7579,
      "жности": 7580,
      "обойти": 7581,
      "смесь": 7582,
      "сменить": 7583,
      "здраствуйте": 7584,
      "соблю": 7585,
      "объеди": 7586,
      "девочек": 7587,
      "украшения": 7588,
      "коробка": 7589,
      "игно": 7590,
      "160": 7591,
      "великий": 7592,
      "пойду": 7593,
      "длина": 7594,
      "картина": 7595,
      "волго": 7596,
      "домашнее": 7597,
      "классный": 7598,
      "ственным": 7599,
      "придумайте": 7600,
      "график": 7601,
      "победы": 7602,
      "бург": 7603,
      "материал": 7604,
      "дешево": 7605,
      "справедли": 7606,
      "краснояр": 7607,
      "нтези": 7608,
      "известные": 7609,
      "случаи": 7610,
      "воспринима": 7611,
      "реале": 7612,
      "малыш": 7613,
      "ошибка": 7614,
      "напит": 7615,
      "интересуют": 7616,
      "особенности": 7617,
      "половину": 7618,
      "кольца": 7619,
      "американский": 7620,
      "ционер": 7621,
      "анализы": 7622,
      "будущего": 7623,
      "резину": 7624,
      "заболел": 7625,
      "пояснения": 7626,
      "спустя": 7627,
      "владельцы": 7628,
      "красави": 7629,
      "записи": 7630,
      "кролика": 7631,
      "собеседование": 7632,
      "философи": 7633,
      "сервис": 7634,
      "актуаль": 7635,
      "процесс": 7636,
      "отсутствие": 7637,
      "болельщики": 7638,
      "барселона": 7639,
      "обьясните": 7640,
      "микроволновке": 7641,
      "холодильнике": 7642,
      "екатеринбурге": 7643,
      "испечь": 7644,
      "шевроле": 7645,
      "-\"": 7646,
      "ber": 7647,
      "dj": 7648,
      "iq": 7649,
      "land": 7650,
      "vs": 7651,
      "wor": 7652,
      "бл": 7653,
      "бру": 7654,
      "глю": 7655,
      "италии": 7656,
      "кстати": 7657,
      "осу": 7658,
      "онов": 7659,
      "пк": 7660,
      "рс": 7661,
      "сгу": 7662,
      "тник": 7663,
      "ур": 7664,
      "ушла": 7665,
      "умнее": 7666,
      "фре": 7667,
      "хто": 7668,
      "ый": 7669,
      "юю": 7670,
      "точка": 7671,
      "почки": 7672,
      "нарисовать": 7673,
      "коже": 7674,
      "косто": 7675,
      "колен": 7676,
      "носки": 7677,
      "теп": 7678,
      "дед": 7679,
      "деток": 7680,
      "льными": 7681,
      "чено": 7682,
      "лат": 7683,
      "запись": 7684,
      "ловить": 7685,
      "мал": 7686,
      "марок": 7687,
      "массо": 7688,
      "весит": 7689,
      "дочки": 7690,
      "дочке": 7691,
      "куша": 7692,
      "кубка": 7693,
      "просить": 7694,
      "видом": 7695,
      "ходом": 7696,
      "читься": 7697,
      "дии": 7698,
      "дия": 7699,
      "прибо": 7700,
      "присе": 7701,
      "принад": 7702,
      "бек": 7703,
      "жалу": 7704,
      "бары": 7705,
      "шится": 7706,
      "бицеп": 7707,
      "мысле": 7708,
      "тыми": 7709,
      "гиа": 7710,
      "прекрасно": 7711,
      "чужие": 7712,
      "граф": 7713,
      "граде": 7714,
      "вампира": 7715,
      "комму": 7716,
      "брала": 7717,
      "щают": 7718,
      "писал": 7719,
      "термо": 7720,
      "плохие": 7721,
      "имеется": 7722,
      "тельная": 7723,
      "2018": 7724,
      "круто": 7725,
      "следова": 7726,
      "беременной": 7727,
      "ближ": 7728,
      "покажите": 7729,
      "обои": 7730,
      "арх": 7731,
      "продаются": 7732,
      "колго": 7733,
      "плохого": 7734,
      "жением": 7735,
      "ster": 7736,
      "свекровь": 7737,
      "потен": 7738,
      "оптом": 7739,
      "170": 7740,
      "поезда": 7741,
      "обита": 7742,
      "измена": 7743,
      "счета": 7744,
      "оценки": 7745,
      "потребле": 7746,
      "слушает": 7747,
      "культуры": 7748,
      "местах": 7749,
      "устанавли": 7750,
      "бизнесом": 7751,
      "алкоголи": 7752,
      "потеряла": 7753,
      "чом": 7754,
      "напитки": 7755,
      "знакомых": 7756,
      "германию": 7757,
      "яйцо": 7758,
      "салона": 7759,
      "пластико": 7760,
      "семьей": 7761,
      "уходу": 7762,
      "реагировать": 7763,
      "взрослых": 7764,
      "регуляр": 7765,
      "представляете": 7766,
      "хвост": 7767,
      "ксено": 7768,
      "извините": 7769,
      "довольно": 7770,
      "сфере": 7771,
      "порядок": 7772,
      "училище": 7773,
      "алгебре": 7774,
      "диагноз": 7775,
      "находиться": 7776,
      "лутше": 7777,
      "целлю": 7778,
      "43": 7779,
      "47": 7780,
      "700": 7781,
      "lu": 7782,
      "lin": 7783,
      "up": 7784,
      "ure": 7785,
      "бет": 7786,
      "ец": 7787,
      "нду": 7788,
      "нги": 7789,
      "осен": 7790,
      "отели": 7791,
      "очистить": 7792,
      "рный": 7793,
      "сче": 7794,
      "сми": 7795,
      "тной": 7796,
      "тное": 7797,
      "чительно": 7798,
      "эп": 7799,
      "поры": 7800,
      "поэтому": 7801,
      "нала": 7802,
      "нове": 7803,
      "ногу": 7804,
      "тесты": 7805,
      "деса": 7806,
      "рекор": 7807,
      "говя": 7808,
      "воб": 7809,
      "таи": 7810,
      "мае": 7811,
      "мас": 7812,
      "масле": 7813,
      "откли": 7814,
      "тике": 7815,
      "жению": 7816,
      "сканда": 7817,
      "лягу": 7818,
      "самую": 7819,
      "приба": 7820,
      "привод": 7821,
      "приходят": 7822,
      "печь": 7823,
      "поддержи": 7824,
      "изм": 7825,
      "пик": 7826,
      "ктором": 7827,
      "...)))": 7828,
      "бабы": 7829,
      "балан": 7830,
      "фига": 7831,
      "житься": 7832,
      "могло": 7833,
      "разуме": 7834,
      "работой": 7835,
      "шается": 7836,
      "предоста": 7837,
      "посвя": 7838,
      "пута": 7839,
      "детских": 7840,
      "гера": 7841,
      "первому": 7842,
      "говорил": 7843,
      "чье": 7844,
      "имел": 7845,
      "правило": 7846,
      "дорож": 7847,
      "тивные": 7848,
      "банко": 7849,
      "альтерна": 7850,
      "турнике": 7851,
      "арбу": 7852,
      "испыта": 7853,
      "уметь": 7854,
      "отношению": 7855,
      "кредитной": 7856,
      "попал": 7857,
      "фирме": 7858,
      "обидно": 7859,
      "ндай": 7860,
      "ребёнком": 7861,
      "летают": 7862,
      "джей": 7863,
      "признаться": 7864,
      "основе": 7865,
      "канале": 7866,
      "зеркало": 7867,
      "появилось": 7868,
      "защитить": 7869,
      "операцию": 7870,
      "австра": 7871,
      "жанре": 7872,
      "сравне": 7873,
      "ass": 7874,
      "фантастика": 7875,
      "благодарен": 7876,
      "блондинки": 7877,
      "ford": 7878,
      "упаков": 7879,
      "love": 7880,
      "сладкое": 7881,
      "поклон": 7882,
      "менеджер": 7883,
      "красав": 7884,
      "италия": 7885,
      "разговаривать": 7886,
      "дорогая": 7887,
      "посмотрел": 7888,
      "умирает": 7889,
      "способом": 7890,
      "бразили": 7891,
      "клапана": 7892,
      "клиентов": 7893,
      "аборт": 7894,
      "вероятность": 7895,
      "мерседес": 7896,
      "арсенал": 7897,
      "эксплуата": 7898,
      "ds": 7899,
      "pla": 7900,
      "ron": 7901,
      "wo": 7902,
      "вдох": 7903,
      "вверх": 7904,
      "ивать": 7905,
      "лкой": 7906,
      "мтс": 7907,
      "ржа": 7908,
      "трас": 7909,
      "тную": 7910,
      "уаз": 7911,
      "фле": 7912,
      "член": 7913,
      "яз": 7914,
      "каши": 7915,
      "пох": 7916,
      "повре": 7917,
      "называть": 7918,
      "ково": 7919,
      "тени": 7920,
      "течение": 7921,
      "литься": 7922,
      "роке": 7923,
      "небо": 7924,
      "депози": 7925,
      "ваго": 7926,
      "ваще": 7927,
      "вон": 7928,
      "рики": 7929,
      "рится": 7930,
      "захва": 7931,
      "давай": 7932,
      "лоп": 7933,
      "лохот": 7934,
      "выя": 7935,
      "медо": 7936,
      "верит": 7937,
      "ведут": 7938,
      "вещей": 7939,
      "купю": 7940,
      "боти": 7941,
      "прогре": 7942,
      "простите": 7943,
      "соло": 7944,
      "чии": 7945,
      "дим": 7946,
      "дика": 7947,
      "нутри": 7948,
      "лука": 7949,
      "сий": 7950,
      "миф": 7951,
      "мила": 7952,
      "частей": 7953,
      "патри": 7954,
      "панель": 7955,
      "подши": 7956,
      "гала": 7957,
      "баб": 7958,
      "бала": 7959,
      "бавари": 7960,
      "стит": 7961,
      "общ": 7962,
      "могла": 7963,
      "льному": 7964,
      "помоги": 7965,
      "женскую": 7966,
      "крае": 7967,
      "хар": 7968,
      "хах": 7969,
      "фоне": 7970,
      "фору": 7971,
      "плата": 7972,
      "плату": 7973,
      "вреда": 7974,
      "цар": 7975,
      "думаешь": 7976,
      "родные": 7977,
      "фей": 7978,
      "полне": 7979,
      "вляю": 7980,
      "подар": 7981,
      "ваясь": 7982,
      ")))))))))))": 7983,
      "пишется": 7984,
      "клипы": 7985,
      "плении": 7986,
      "насчет": 7987,
      "удачи": 7988,
      "начинаю": 7989,
      "ort": 7990,
      "европу": 7991,
      "пойдёт": 7992,
      "ственном": 7993,
      "частный": 7994,
      "----": 7995,
      "английски": 7996,
      "надца": 7997,
      "психолога": 7998,
      "формате": 7999,
      "собираемся": 8000,
      "курицу": 8001,
      "двумя": 8002,
      "боксе": 8003,
      "пьете": 8004,
      "молча": 8005,
      "покупка": 8006,
      "нашем": 8007,
      "?:))": 8008,
      "июне": 8009,
      "яндекс": 8010,
      "узнал": 8011,
      "внизу": 8012,
      "белору": 8013,
      "бабушки": 8014,
      "средствами": 8015,
      "используете": 8016,
      "противополо": 8017,
      "методы": 8018,
      "аквариуме": 8019,
      "ченко": 8020,
      "отвечайте": 8021,
      "свободное": 8022,
      "посадить": 8023,
      "овощи": 8024,
      "институт": 8025,
      "площади": 8026,
      "терьера": 8027,
      "маршру": 8028,
      "содержание": 8029,
      "актеров": 8030,
      "склады": 8031,
      "санато": 8032,
      "задержка": 8033,
      "шампанское": 8034,
      "рождень": 8035,
      "сертифика": 8036,
      "3000": 8037,
      "?))))))))))))))))": 8038,
      "ren": 8039,
      "zz": 8040,
      "освобо": 8041,
      "рр": 8042,
      "уси": 8043,
      "фл": 8044,
      "флей": 8045,
      "ящик": 8046,
      "насмо": 8047,
      "научи": 8048,
      "кош": 8049,
      "ножки": 8050,
      "новень": 8051,
      "ночам": 8052,
      "рово": 8053,
      "стря": 8054,
      "рейти": 8055,
      "реальный": 8056,
      "ладно": 8057,
      "лазаре": 8058,
      "рик": 8059,
      "загру": 8060,
      "залить": 8061,
      "запомина": 8062,
      "заинтересо": 8063,
      "данной": 8064,
      "кио": 8065,
      "китае": 8066,
      "куп": 8067,
      "кузо": 8068,
      "куплю": 8069,
      "купаль": 8070,
      "бори": 8071,
      "промы": 8072,
      "вие": 8073,
      "нуля": 8074,
      "прика": 8075,
      "прикол": 8076,
      "педаль": 8077,
      "подчи": 8078,
      "подкиньте": 8079,
      "пия": 8080,
      "пищи": 8081,
      "пищу": 8082,
      "нями": 8083,
      "нько": 8084,
      "жаете": 8085,
      "била": 8086,
      "кефир": 8087,
      "щее": 8088,
      "щенку": 8089,
      "???.": 8090,
      "презер": 8091,
      "летние": 8092,
      "посред": 8093,
      "грана": 8094,
      "фокус": 8095,
      "лывать": 8096,
      "зирова": 8097,
      "больницу": 8098,
      "очереди": 8099,
      "гламур": 8100,
      "трам": 8101,
      "называеться": 8102,
      "чью": 8103,
      "крой": 8104,
      "поможете": 8105,
      "книжки": 8106,
      "любого": 8107,
      "хищ": 8108,
      "полную": 8109,
      "сроке": 8110,
      "чкам": 8111,
      "борщ": 8112,
      "маргари": 8113,
      "турция": 8114,
      "открытие": 8115,
      "125": 8116,
      "любителей": 8117,
      "новому": 8118,
      "женщинами": 8119,
      "проблему": 8120,
      "нормальное": 8121,
      "встречи": 8122,
      "встречается": 8123,
      "языком": 8124,
      "портре": 8125,
      "девчё": 8126,
      "светло": 8127,
      "анапе": 8128,
      "тайланде": 8129,
      "морской": 8130,
      "предложите": 8131,
      "опто": 8132,
      "рубль": 8133,
      "снится": 8134,
      "являются": 8135,
      "продукт": 8136,
      "праздником": 8137,
      "оценку": 8138,
      "тенни": 8139,
      "бывшего": 8140,
      "снегу": 8141,
      "позвоно": 8142,
      "мелодра": 8143,
      "вредны": 8144,
      "письма": 8145,
      "пропала": 8146,
      "стями": 8147,
      "здоровью": 8148,
      "отзыв": 8149,
      "похожий": 8150,
      "упражнений": 8151,
      "срав": 8152,
      "соседей": 8153,
      "испания": 8154,
      "велосипеда": 8155,
      "отрастить": 8156,
      "современных": 8157,
      "исполнителей": 8158,
      "выбирать": 8159,
      "париж": 8160,
      "привычка": 8161,
      "воздуш": 8162,
      "пирог": 8163,
      "заливать": 8164,
      "журнал": 8165,
      "сыграть": 8166,
      "целоваться": 8167,
      "наступа": 8168,
      "камень": 8169,
      "капусту": 8170,
      "игроков": 8171,
      "лечится": 8172,
      "оказывается": 8173,
      "владивосто": 8174,
      "одинаковые": 8175,
      "терьер": 8176,
      "актёр": 8177,
      "заставляет": 8178,
      "секунд": 8179,
      "воспомина": 8180,
      "ресниц": 8181,
      "дискоте": 8182,
      "жарко": 8183,
      "схема": 8184,
      "макаро": 8185,
      "metal": 8186,
      "пирсинг": 8187,
      "разнообраз": 8188,
      "недвижимости": 8189,
      "форекс": 8190,
      "премьер": 8191,
      "понедельник": 8192,
      "абсолютно": 8193,
      "краснодаре": 8194,
      "соревнования": 8195,
      "конкурен": 8196,
      "архите": 8197,
      "\"?)": 8198,
      "49": 8199,
      "66": 8200,
      "pay": 8201,
      "»?": 8202,
      "вших": 8203,
      "гет": 8204,
      "дс": 8205,
      "жкой": 8206,
      "злые": 8207,
      "инет": 8208,
      "лс": 8209,
      "мите": 8210,
      "осе": 8211,
      "отом": 8212,
      "уе": 8213,
      "фт": 8214,
      "юмора": 8215,
      "почи": 8216,
      "поверх": 8217,
      "кона": 8218,
      "ноче": 8219,
      "никаких": 8220,
      "дец": 8221,
      "можен": 8222,
      "горы": 8223,
      "вось": 8224,
      "какту": 8225,
      "чеш": 8226,
      "честер": 8227,
      "зато": 8228,
      "засо": 8229,
      "завя": 8230,
      "мазать": 8231,
      "лест": 8232,
      "веру": 8233,
      "кусо": 8234,
      "прохо": 8235,
      "прошел": 8236,
      "прокля": 8237,
      "визи": 8238,
      "тиза": 8239,
      "тием": 8240,
      "чим": 8241,
      "чип": 8242,
      "дила": 8243,
      "динами": 8244,
      "стату": 8245,
      "чак": 8246,
      "чала": 8247,
      "придет": 8248,
      "прилично": 8249,
      "приведите": 8250,
      "подтвер": 8251,
      "изве": 8252,
      "пина": 8253,
      "кторы": 8254,
      "рынок": 8255,
      "баба": 8256,
      "обстоя": 8257,
      "гидро": 8258,
      "щенные": 8259,
      "щины": 8260,
      "шай": 8261,
      "шали": 8262,
      "пусто": 8263,
      "детской": 8264,
      "вопросе": 8265,
      "пересе": 8266,
      "переведите": 8267,
      "плачет": 8268,
      "стере": 8269,
      "дружить": 8270,
      "больнице": 8271,
      "брака": 8272,
      "ходила": 8273,
      "расчет": 8274,
      "феро": 8275,
      "писали": 8276,
      "тельных": 8277,
      "фары": 8278,
      "трусы": 8279,
      "каждому": 8280,
      "хотеть": 8281,
      "русской": 8282,
      "русским": 8283,
      "брон": 8284,
      "орхи": 8285,
      "открывается": 8286,
      "любителям": 8287,
      "встрече": 8288,
      "обычные": 8289,
      "реальность": 8290,
      "минуты": 8291,
      "домашнего": 8292,
      "компанией": 8293,
      "настрой": 8294,
      "завиду": 8295,
      "страшная": 8296,
      "ющем": 8297,
      "ющему": 8298,
      "ногтя": 8299,
      "toki": 8300,
      "учре": 8301,
      "ill": 8302,
      "бензо": 8303,
      "сердцу": 8304,
      "продолжать": 8305,
      "надеюсь": 8306,
      "современной": 8307,
      "пропадает": 8308,
      "пытается": 8309,
      "категори": 8310,
      "романа": 8311,
      "узнала": 8312,
      "хоккею": 8313,
      "смешной": 8314,
      "организовать": 8315,
      "спрашиваю": 8316,
      "немецкий": 8317,
      "выбирают": 8318,
      "трудоустрой": 8319,
      "чемпионате": 8320,
      "блондинка": 8321,
      "нижнем": 8322,
      "opel": 8323,
      "молодым": 8324,
      "устраивает": 8325,
      "работодатель": 8326,
      "мвд": 8327,
      "времена": 8328,
      "зависимость": 8329,
      "тарака": 8330,
      "живем": 8331,
      "kak": 8332,
      "окончания": 8333,
      "порядо": 8334,
      "девиз": 8335,
      "финляндии": 8336,
      "фитне": 8337,
      "требования": 8338,
      "сцепление": 8339,
      "доверяете": 8340,
      "опознать": 8341,
      "александр": 8342,
      "порекомендуйте": 8343,
      "black": 8344,
      "tokio": 8345,
      "01": 8346,
      "cer": 8347,
      "ut": 8348,
      "ави": 8349,
      "брь": 8350,
      "брусь": 8351,
      "вдо": 8352,
      "вкла": 8353,
      "гне": 8354,
      "дке": 8355,
      "джен": 8356,
      "йт": 8357,
      "кту": 8358,
      "лёт": 8359,
      "осуще": 8360,
      "снуть": 8361,
      "снего": 8362,
      "уса": 8363,
      "уез": 8364,
      "шлю": 8365,
      "кадро": 8366,
      "пору": 8367,
      "кошкой": 8368,
      "ноут": 8369,
      "лиде": 8370,
      "личного": 8371,
      "ростом": 8372,
      "несе": 8373,
      "демо": 8374,
      "стр": 8375,
      "ресур": 8376,
      "зает": 8377,
      "загля": 8378,
      "забыли": 8379,
      "загоре": 8380,
      "лопа": 8381,
      "лотку": 8382,
      "выжить": 8383,
      "леге": 8384,
      "веж": 8385,
      "дональ": 8386,
      "боло": 8387,
      "провода": 8388,
      "простые": 8389,
      "просмотра": 8390,
      "чиком": 8391,
      "быстры": 8392,
      "старого": 8393,
      "сино": 8394,
      "сити": 8395,
      "причем": 8396,
      "природы": 8397,
      "привлечь": 8398,
      "изобре": 8399,
      "ньки": 8400,
      "бат": 8401,
      "обно": 8402,
      "кефи": 8403,
      "щики": 8404,
      "летит": 8405,
      "пунк": 8406,
      "тренера": 8407,
      "планета": 8408,
      "деньгами": 8409,
      "зываете": 8410,
      "анкет": 8411,
      "худ": 8412,
      "общении": 8413,
      "полной": 8414,
      "совмест": 8415,
      "слезы": 8416,
      "девушками": 8417,
      "спина": 8418,
      "2002": 8419,
      "гречне": 8420,
      "народные": 8421,
      "интересны": 8422,
      "поступа": 8423,
      "ore": 8424,
      "горло": 8425,
      "техни": 8426,
      "звонок": 8427,
      "спят": 8428,
      "поняла": 8429,
      "понятия": 8430,
      "неделя": 8431,
      "съем": 8432,
      "друзьям": 8433,
      "команд": 8434,
      "ситуацию": 8435,
      "чувств": 8436,
      "собирается": 8437,
      "курица": 8438,
      "мозга": 8439,
      "венти": 8440,
      "восстано": 8441,
      "фотка": 8442,
      "счастливым": 8443,
      "магнит": 8444,
      "пытаются": 8445,
      "передач": 8446,
      "категорию": 8447,
      "джон": 8448,
      "газет": 8449,
      "угол": 8450,
      "подростку": 8451,
      "сотрудников": 8452,
      "спортивный": 8453,
      "косметикой": 8454,
      "грн": 8455,
      "закончится": 8456,
      "привычки": 8457,
      "биологии": 8458,
      "начнут": 8459,
      "прошлого": 8460,
      "forex": 8461,
      "городу": 8462,
      "композиция": 8463,
      "казахстане": 8464,
      "естественно": 8465,
      "предприятия": 8466,
      "аренду": 8467,
      "пособие": 8468,
      "функции": 8469,
      "гинеколо": 8470,
      "газель": 8471,
      "фрукты": 8472,
      "умоляю": 8473,
      "кукуру": 8474,
      "44": 8475,
      "72": 8476,
      "93": 8477,
      "?,": 8478,
      "fl": 8479,
      "але": 8480,
      "дтп": 8481,
      "зри": 8482,
      "ора": 8483,
      "отор": 8484,
      "ппа": 8485,
      "сшить": 8486,
      "тнт": 8487,
      "удов": 8488,
      "хрень": 8489,
      "эх": 8490,
      "юбку": 8491,
      "тома": 8492,
      "каба": 8493,
      "кату": 8494,
      "капли": 8495,
      "повод": 8496,
      "побороть": 8497,
      "лимон": 8498,
      "рады": 8499,
      "ранет": 8500,
      "радости": 8501,
      "некси": 8502,
      "делом": 8503,
      "ворачи": 8504,
      "чеб": 8505,
      "ченные": 8506,
      "ладу": 8507,
      "рила": 8508,
      "маска": 8509,
      "выиграть": 8510,
      "мель": 8511,
      "леть": 8512,
      "веб": 8513,
      "веке": 8514,
      "дое": 8515,
      "дону": 8516,
      "пром": 8517,
      "пропор": 8518,
      "сою": 8519,
      "сото": 8520,
      "соса": 8521,
      "отвер": 8522,
      "тита": 8523,
      "бых": 8524,
      "скай": 8525,
      "статус": 8526,
      "пато": 8527,
      "примет": 8528,
      "приблиз": 8529,
      "стон": 8530,
      "обви": 8531,
      "обман": 8532,
      "раздо": 8533,
      "суть": 8534,
      "праве": 8535,
      "презе": 8536,
      "претен": 8537,
      "преодо": 8538,
      "летво": 8539,
      "детки": 8540,
      "фол": 8541,
      "своя": 8542,
      "перейти": 8543,
      "тренер": 8544,
      "планы": 8545,
      "стерили": 8546,
      "сложнее": 8547,
      "зил": 8548,
      "первых": 8549,
      "любимую": 8550,
      "читала": 8551,
      "ровкой": 8552,
      "ссии": 8553,
      "кремом": 8554,
      "дность": 8555,
      "евге": 8556,
      "будучи": 8557,
      "1500": 8558,
      "одеваться": 8559,
      "экстра": 8560,
      "псих": 8561,
      "матчей": 8562,
      "средней": 8563,
      "приветству": 8564,
      "ственности": 8565,
      "похуде": 8566,
      "музыкальные": 8567,
      "свеже": 8568,
      "полезен": 8569,
      "занятий": 8570,
      "лицей": 8571,
      "английскому": 8572,
      "добрым": 8573,
      "maz": 8574,
      "получился": 8575,
      "ishi": 8576,
      "измену": 8577,
      "изменения": 8578,
      "?)))))))": 8579,
      "рекламу": 8580,
      "буква": 8581,
      "материнский": 8582,
      "канал": 8583,
      "докумен": 8584,
      "гитара": 8585,
      "скольких": 8586,
      "фотку": 8587,
      "позвонить": 8588,
      "ошиба": 8589,
      "развитие": 8590,
      "защиты": 8591,
      "кровью": 8592,
      "литературы": 8593,
      "калина": 8594,
      "пускают": 8595,
      "подростка": 8596,
      "эмоции": 8597,
      "рыбалку": 8598,
      "мотоцикла": 8599,
      "увидела": 8600,
      "спрашивать": 8601,
      "громко": 8602,
      "лишний": 8603,
      "ремонта": 8604,
      "зомби": 8605,
      "улицы": 8606,
      "диплома": 8607,
      "короткий": 8608,
      "солнца": 8609,
      "шерсть": 8610,
      "относиться": 8611,
      "мелодию": 8612,
      "карьеру": 8613,
      "владельцам": 8614,
      "дизайн": 8615,
      "регули": 8616,
      "заметили": 8617,
      "поменял": 8618,
      "иначе": 8619,
      "направление": 8620,
      "тормоза": 8621,
      "кнове": 8622,
      "овчарки": 8623,
      "желудок": 8624,
      "расстояние": 8625,
      "целью": 8626,
      "финлянди": 8627,
      "совмести": 8628,
      "sos": 8629,
      "евровидение": 8630,
      "москвичи": 8631,
      "субботу": 8632,
      "subishi": 8633,
      "хирур": 8634,
      "серебря": 8635,
      "mitsubishi": 8636,
      "потолстеть": 8637,
      "сергея": 8638,
      "удовлетво": 8639,
      "\"??": 8640,
      "der": 8641,
      "dan": 8642,
      "den": 8643,
      "jo": 8644,
      "wh": 8645,
      "~~": 8646,
      "встать": 8647,
      "днём": 8648,
      "жую": 8649,
      "жрать": 8650,
      "зря": 8651,
      "ила": 8652,
      "мка": 8653,
      "ода": 8654,
      "онер": 8655,
      "пнев": 8656,
      "птс": 8657,
      "сзади": 8658,
      "уль": 8659,
      "уша": 8660,
      "ъесте": 8661,
      "юту": 8662,
      "кашель": 8663,
      "пота": 8664,
      "погоду": 8665,
      "пошел": 8666,
      "поиска": 8667,
      "наг": 8668,
      "космо": 8669,
      "копей": 8670,
      "лии": 8671,
      "равен": 8672,
      "раскры": 8673,
      "делки": 8674,
      "рент": 8675,
      "религи": 8676,
      "годова": 8677,
      "вока": 8678,
      "чена": 8679,
      "чений": 8680,
      "риск": 8681,
      "зало": 8682,
      "замужем": 8683,
      "маза": 8684,
      "маны": 8685,
      "макс": 8686,
      "выпрям": 8687,
      "лере": 8688,
      "дохода": 8689,
      "муки": 8690,
      "купе": 8691,
      "бои": 8692,
      "борода": 8693,
      "визы": 8694,
      "отре": 8695,
      "отпраздновать": 8696,
      "руйте": 8697,
      "хор": 8698,
      "бывали": 8699,
      "мило": 8700,
      "пали": 8701,
      "пары": 8702,
      "садо": 8703,
      "прила": 8704,
      "любую": 8705,
      "бера": 8706,
      "бегает": 8707,
      "нятся": 8708,
      "дурак": 8709,
      "жах": 8710,
      "рыбки": 8711,
      "тушь": 8712,
      "стирать": 8713,
      "фик": 8714,
      "разре": 8715,
      "цикл": 8716,
      "суль": 8717,
      "помогло": 8718,
      "преды": 8719,
      "публи": 8720,
      "пустить": 8721,
      "краше": 8722,
      "детство": 8723,
      "мужское": 8724,
      "вопросу": 8725,
      "пережить": 8726,
      "слом": 8727,
      "котов": 8728,
      "чному": 8729,
      "последова": 8730,
      "возможна": 8731,
      "распре": 8732,
      "расчитать": 8733,
      "рассчиты": 8734,
      "тратите": 8735,
      "фек": 8736,
      "называет": 8737,
      "щаете": 8738,
      "тельство": 8739,
      "ответственность": 8740,
      "болел": 8741,
      "вляете": 8742,
      "кручи": 8743,
      "ждении": 8744,
      "сергей": 8745,
      "беспоко": 8746,
      "корре": 8747,
      "коррек": 8748,
      "манчестер": 8749,
      "остальные": 8750,
      "интернету": 8751,
      "спине": 8752,
      "русская": 8753,
      "клинику": 8754,
      "обожаю": 8755,
      "встрети": 8756,
      "колё": 8757,
      "казани": 8758,
      "легкий": 8759,
      "ждают": 8760,
      "блока": 8761,
      "тойота": 8762,
      "минуту": 8763,
      "понимают": 8764,
      "полезна": 8765,
      "камни": 8766,
      "занятся": 8767,
      "стрижки": 8768,
      "программи": 8769,
      "растёт": 8770,
      "ставка": 8771,
      "летает": 8772,
      "вырастить": 8773,
      "гарде": 8774,
      "однажды": 8775,
      "собираетесь": 8776,
      "курицы": 8777,
      "российского": 8778,
      "запад": 8779,
      "ставил": 8780,
      "dai": 8781,
      "добавлять": 8782,
      "тренировок": 8783,
      "текста": 8784,
      "городах": 8785,
      "свадьбе": 8786,
      "водители": 8787,
      "начальника": 8788,
      "влияют": 8789,
      "вредна": 8790,
      "причину": 8791,
      "литературу": 8792,
      "влиять": 8793,
      "кредиту": 8794,
      "калинин": 8795,
      "грозит": 8796,
      "производство": 8797,
      "мотоцикле": 8798,
      "пельмени": 8799,
      "чемпионата": 8800,
      "семейный": 8801,
      "справки": 8802,
      "резина": 8803,
      "прививку": 8804,
      "организме": 8805,
      "управления": 8806,
      "прикольные": 8807,
      "ярко": 8808,
      "кухни": 8809,
      "расстаться": 8810,
      "актрису": 8811,
      "поясните": 8812,
      "собственного": 8813,
      "таблет": 8814,
      "молодых": 8815,
      "песенки": 8816,
      "взрослый": 8817,
      "представьте": 8818,
      "new": 8819,
      "проекта": 8820,
      "уверены": 8821,
      "фамилии": 8822,
      "солярий": 8823,
      "пиццу": 8824,
      "беларусь": 8825,
      "кальма": 8826,
      "актеры": 8827,
      "проверенный": 8828,
      "находятся": 8829,
      "берутся": 8830,
      "челябинске": 8831,
      "тащить": 8832,
      "нравлюсь": 8833,
      "педаго": 8834,
      "аромат": 8835,
      "схему": 8836,
      "сверхъесте": 8837,
      "трёх": 8838,
      "эксплуатации": 8839,
      "предыду": 8840,
      "03": 8841,
      "05": 8842,
      "110": 8843,
      "58": 8844,
      "5000": 8845,
      ";-": 8846,
      "du": 8847,
      "ga": 8848,
      "ju": 8849,
      "mm": 8850,
      "min": 8851,
      "амор": 8852,
      "вперед": 8853,
      "гности": 8854,
      "евой": 8855,
      "жёл": 8856,
      "ллек": 8857,
      "оль": 8858,
      "отеля": 8859,
      "тке": 8860,
      "ух": 8861,
      "учит": 8862,
      "уходить": 8863,
      "уходят": 8864,
      "угро": 8865,
      "цкого": 8866,
      "ээ": 8867,
      "юшки": 8868,
      "юбка": 8869,
      "яросла": 8870,
      "ёшь": 8871,
      "кадры": 8872,
      "поту": 8873,
      "поход": 8874,
      "повести": 8875,
      "покаж": 8876,
      "кока": 8877,
      "лина": 8878,
      "лицу": 8879,
      "ровы": 8880,
      "нину": 8881,
      "неров": 8882,
      "независи": 8883,
      "деда": 8884,
      "ваку": 8885,
      "чева": 8886,
      "зают": 8887,
      "засы": 8888,
      "заказа": 8889,
      "таль": 8890,
      "..))": 8891,
      "логу": 8892,
      "ведёт": 8893,
      "сели": 8894,
      "прошла": 8895,
      "совой": 8896,
      "виш": 8897,
      "вича": 8898,
      "руби": 8899,
      "диска": 8900,
      "ляция": 8901,
      "сапо": 8902,
      "присла": 8903,
      "прибор": 8904,
      "припев": 8905,
      "печки": 8906,
      "подра": 8907,
      "извра": 8908,
      "пиджа": 8909,
      "дуб": 8910,
      "рыбок": 8911,
      "бака": 8912,
      "бакла": 8913,
      "шил": 8914,
      "шир": 8915,
      "знаем": 8916,
      "стил": 8917,
      "мыло": 8918,
      "жиль": 8919,
      "тык": 8920,
      "гинал": 8921,
      "щина": 8922,
      "предатель": 8923,
      "женское": 8924,
      "хаба": 8925,
      "менял": 8926,
      "фонд": 8927,
      "дым": 8928,
      "перестала": 8929,
      "котом": 8930,
      "гени": 8931,
      ")))...": 8932,
      "мясом": 8933,
      "годности": 8934,
      "думала": 8935,
      "одних": 8936,
      "травы": 8937,
      "анна": 8938,
      "слух": 8939,
      "полтора": 8940,
      "тяжё": 8941,
      "жусь": 8942,
      "банку": 8943,
      "цветные": 8944,
      "слез": 8945,
      "голосо": 8946,
      "останови": 8947,
      "серию": 8948,
      "футболку": 8949,
      "обой": 8950,
      "продается": 8951,
      "весё": 8952,
      "слышно": 8953,
      "отлично": 8954,
      "зарание": 8955,
      "удалось": 8956,
      "производителя": 8957,
      "породи": 8958,
      "покупали": 8959,
      "задали": 8960,
      "задавать": 8961,
      "кристи": 8962,
      "автомобилей": 8963,
      "техника": 8964,
      "рован": 8965,
      "обязанности": 8966,
      "большом": 8967,
      "175": 8968,
      "отпуске": 8969,
      "мультики": 8970,
      "баллы": 8971,
      "психология": 8972,
      "солны": 8973,
      "ребятки": 8974,
      "эконом": 8975,
      "пальцы": 8976,
      "накачаться": 8977,
      "диагности": 8978,
      "ммм": 8979,
      "магите": 8980,
      "бизнесе": 8981,
      "закрыть": 8982,
      "винова": 8983,
      "загадку": 8984,
      "глазки": 8985,
      "кредиты": 8986,
      "отказыва": 8987,
      "очков": 8988,
      "сотрудники": 8989,
      "спортивные": 8990,
      "влюблен": 8991,
      "холодный": 8992,
      "фигура": 8993,
      "товара": 8994,
      "кладывать": 8995,
      "аэропорта": 8996,
      "убедить": 8997,
      "законно": 8998,
      "хочеться": 8999,
      "сыграл": 9000,
      "бьет": 9001,
      "менеджера": 9002,
      "коллектив": 9003,
      "бухгалтер": 9004,
      "взаим": 9005,
      "лечиться": 9006,
      "классно": 9007,
      "вставать": 9008,
      "генератор": 9009,
      "фанаты": 9010,
      "студентов": 9011,
      "щенков": 9012,
      "театре": 9013,
      "приора": 9014,
      "беларуси": 9015,
      "пюре": 9016,
      "альбомы": 9017,
      "гараж": 9018,
      "остановить": 9019,
      "консуль": 9020,
      "расстоянии": 9021,
      "творог": 9022,
      "цилинд": 9023,
      "№№№№": 9024,
      "мультивар": 9025,
      "брыз": 9026,
      "обозначает": 9027,
      "мероприя": 9028,
      "факультет": 9029,
      "чихуахуа": 9030,
      "колготки": 9031,
      "лохотрон": 9032,
      "подшип": 9033,
      "осущест": 9034,
      ")!": 9035,
      "==": 9036,
      "ght": 9037,
      "iz": 9038,
      "ja": 9039,
      "kin": 9040,
      "mus": 9041,
      "va": 9042,
      "ау": 9043,
      "апель": 9044,
      "влю": 9045,
      "еш": 9046,
      "еде": 9047,
      "ину": 9048,
      "ииз": 9049,
      "ирку": 9050,
      "квали": 9051,
      "оправда": 9052,
      "опуска": 9053,
      "спите": 9054,
      "смета": 9055,
      "узнаете": 9056,
      "утрен": 9057,
      "хм": 9058,
      "ыы": 9059,
      "каш": 9060,
      "каско": 9061,
      "пош": 9062,
      "почто": 9063,
      "покой": 9064,
      "пород": 9065,
      "нагре": 9066,
      "налоги": 9067,
      "нашим": 9068,
      "нарисо": 9069,
      "коко": 9070,
      "ковый": 9071,
      "корма": 9072,
      "ранее": 9073,
      "нением": 9074,
      "вающий": 9075,
      "мота": 9076,
      "рет": 9077,
      "ладо": 9078,
      "лазер": 9079,
      "зараз": 9080,
      "задол": 9081,
      "запуска": 9082,
      "замок": 9083,
      "табле": 9084,
      "такому": 9085,
      "лоб": 9086,
      "выжи": 9087,
      "весом": 9088,
      "дочку": 9089,
      "проси": 9090,
      "проводить": 9091,
      "сорт": 9092,
      "вия": 9093,
      "отмыть": 9094,
      "тиях": 9095,
      "ручной": 9096,
      "дишь": 9097,
      "скажем": 9098,
      "ляцию": 9099,
      "применять": 9100,
      "любые": 9101,
      "печать": 9102,
      "бето": 9103,
      "пис": 9104,
      "сково": 9105,
      "нька": 9106,
      "гаете": 9107,
      "живых": 9108,
      "гий": 9109,
      "целе": 9110,
      "щими": 9111,
      "рабочего": 9112,
      "сущ": 9113,
      "летал": 9114,
      "постель": 9115,
      "послови": 9116,
      "пусты": 9117,
      "града": 9118,
      "зой": 9119,
      "переры": 9120,
      "стеро": 9121,
      "гент": 9122,
      "интеллек": 9123,
      "версия": 9124,
      "меню": 9125,
      "назывался": 9126,
      "скутера": 9127,
      "войне": 9128,
      "писателей": 9129,
      "кровать": 9130,
      "плом": 9131,
      "влением": 9132,
      "любом": 9133,
      "ответит": 9134,
      "начались": 9135,
      "имму": 9136,
      "ющими": 9137,
      "остается": 9138,
      "останавли": 9139,
      "интерье": 9140,
      "футболки": 9141,
      "молоком": 9142,
      "шках": 9143,
      "греет": 9144,
      "ключи": 9145,
      "жность": 9146,
      "обычных": 9147,
      "обычного": 9148,
      "покупают": 9149,
      "животного": 9150,
      "котлеты": 9151,
      "длины": 9152,
      "лём": 9153,
      "рованные": 9154,
      "психолог": 9155,
      "сплю": 9156,
      "тическое": 9157,
      "симс": 9158,
      "победите": 9159,
      "деревне": 9160,
      "команди": 9161,
      "аттеста": 9162,
      "ворота": 9163,
      "водиться": 9164,
      "мужиков": 9165,
      "мальчиков": 9166,
      "справа": 9167,
      "оригинал": 9168,
      "надежда": 9169,
      "выходной": 9170,
      "полезные": 9171,
      "снимают": 9172,
      "бывшей": 9173,
      "малышу": 9174,
      "наруто": 9175,
      "ткани": 9176,
      "покупку": 9177,
      "описании": 9178,
      "совершен": 9179,
      "deo": 9180,
      "фантастику": 9181,
      "тысячи": 9182,
      "спрашивает": 9183,
      "косметика": 9184,
      "косметику": 9185,
      "фигур": 9186,
      "журнали": 9187,
      "управля": 9188,
      "оригинальный": 9189,
      "выпадают": 9190,
      "капусты": 9191,
      "удовольствием": 9192,
      "глупые": 9193,
      "скрип": 9194,
      "стадион": 9195,
      "службы": 9196,
      "художника": 9197,
      "пиццы": 9198,
      "дневно": 9199,
      "прочитала": 9200,
      "пушкин": 9201,
      "участием": 9202,
      "ноябре": 9203,
      "приема": 9204,
      "ростове": 9205,
      "согласились": 9206,
      "комиссия": 9207,
      "территории": 9208,
      "асфаль": 9209,
      "уксу": 9210,
      "окружающих": 9211,
      "дыхание": 9212,
      "развлечения": 9213,
      "геометрии": 9214,
      "симпто": 9215,
      "оаэ": 9216,
      "повезло": 9217,
      "вобще": 9218,
      "paypal": 9219,
      "mazda": 9220,
      "иркут": 9221,
      ",...": 9222,
      "09": 9223,
      "211": 9224,
      "67": 9225,
      ";-)": 9226,
      "line": 9227,
      "pl": 9228,
      "pre": 9229,
      "van": 9230,
      "аха": 9231,
      "арт": 9232,
      "аван": 9233,
      "анек": 9234,
      "вное": 9235,
      "вход": 9236,
      "вставля": 9237,
      "гг": 9238,
      "нга": 9239,
      "сры": 9240,
      "улучше": 9241,
      "чники": 9242,
      "эд": 9243,
      "юпитер": 9244,
      "ющую": 9245,
      "кален": 9246,
      "кашта": 9247,
      "поворот": 9248,
      "помагите": 9249,
      "найте": 9250,
      "напол": 9251,
      "нашу": 9252,
      "надеть": 9253,
      "ковую": 9254,
      "корень": 9255,
      "ливо": 9256,
      "рад": 9257,
      "стка": 9258,
      "стрю": 9259,
      "вак": 9260,
      "важен": 9261,
      "реду": 9262,
      "гостей": 9263,
      "волю": 9264,
      "кактус": 9265,
      "ченный": 9266,
      "лами": 9267,
      "зама": 9268,
      "засыпа": 9269,
      "тари": 9270,
      "дачу": 9271,
      "давали": 9272,
      "давления": 9273,
      "вышли": 9274,
      "выиграл": 9275,
      "выруча": 9276,
      "мекси": 9277,
      "мебель": 9278,
      "ленной": 9279,
      "вете": 9280,
      "вени": 9281,
      "вери": 9282,
      "ветер": 9283,
      "донец": 9284,
      "куча": 9285,
      "сова": 9286,
      "сопли": 9287,
      "содержать": 9288,
      "сознание": 9289,
      "вика": 9290,
      "виски": 9291,
      "тины": 9292,
      "руса": 9293,
      "ручки": 9294,
      "хой": 9295,
      "скажу": 9296,
      "миру": 9297,
      "миха": 9298,
      "минера": 9299,
      "чар": 9300,
      "саб": 9301,
      "сажать": 9302,
      "печка": 9303,
      "пиано": 9304,
      "няться": 9305,
      "бутер": 9306,
      "дует": 9307,
      "жаль": 9308,
      "жару": 9309,
      "шины": 9310,
      "делала": 9311,
      "мым": 9312,
      "мышь": 9313,
      "вету": 9314,
      "развить": 9315,
      "пухо": 9316,
      "края": 9317,
      "халя": 9318,
      "меняют": 9319,
      "комби": 9320,
      "комменти": 9321,
      "вторы": 9322,
      "зировать": 9323,
      "безответ": 9324,
      "вернется": 9325,
      "сноубор": 9326,
      "родной": 9327,
      "шой": 9328,
      "аксе": 9329,
      "машинку": 9330,
      "правится": 9331,
      "езды": 9332,
      "влен": 9333,
      "хип": 9334,
      "действовать": 9335,
      "крутой": 9336,
      "хоти": 9337,
      "цветка": 9338,
      "слева": 9339,
      "циях": 9340,
      "стыми": 9341,
      "берете": 9342,
      "голод": 9343,
      "голосом": 9344,
      "цепь": 9345,
      "русскую": 9346,
      "движок": 9347,
      "грех": 9348,
      "подойти": 9349,
      "одевать": 9350,
      "новорожде": 9351,
      "арти": 9352,
      "экстри": 9353,
      "продаж": 9354,
      "собственный": 9355,
      "собчак": 9356,
      "курсах": 9357,
      "ant": 9358,
      "средний": 9359,
      "ina": 9360,
      "умная": 9361,
      "жизнью": 9362,
      "написали": 9363,
      "поступки": 9364,
      "помнить": 9365,
      "девят": 9366,
      "днях": 9367,
      "10000": 9368,
      "нервни": 9369,
      "занятие": 9370,
      "идеальный": 9371,
      "красную": 9372,
      "главного": 9373,
      "главная": 9374,
      "толк": 9375,
      "победу": 9376,
      "определите": 9377,
      "советов": 9378,
      "салаты": 9379,
      "пятница": 9380,
      "трансля": 9381,
      "встречали": 9382,
      "мужика": 9383,
      "карточки": 9384,
      "документа": 9385,
      "сандра": 9386,
      "подскажи": 9387,
      "личность": 9388,
      "должности": 9389,
      "злой": 9390,
      "культура": 9391,
      "держаться": 9392,
      "молчать": 9393,
      "лампы": 9394,
      "предлагает": 9395,
      "включается": 9396,
      "ческими": 9397,
      "доллары": 9398,
      "вайтесь": 9399,
      "металл": 9400,
      "кормите": 9401,
      "смешно": 9402,
      "организация": 9403,
      "эмоциона": 9404,
      "чёрные": 9405,
      "путешествовать": 9406,
      "вернулся": 9407,
      "искрен": 9408,
      "мультфильма": 9409,
      "справка": 9410,
      "грудью": 9411,
      "станции": 9412,
      "холодную": 9413,
      "закончился": 9414,
      "дневник": 9415,
      "комплекс": 9416,
      "управлять": 9417,
      "мировой": 9418,
      "сигарет": 9419,
      "поттер": 9420,
      "ционный": 9421,
      "планируете": 9422,
      "экзамена": 9423,
      "коллективе": 9424,
      "прокат": 9425,
      "отвечаете": 9426,
      "классов": 9427,
      "отгадать": 9428,
      "директора": 9429,
      "итальян": 9430,
      "макдональ": 9431,
      "стихотворения": 9432,
      "mp3": 9433,
      "пушкина": 9434,
      "восполь": 9435,
      "цифры": 9436,
      "джун": 9437,
      "лекарства": 9438,
      "загорать": 9439,
      "зелёный": 9440,
      "укрепить": 9441,
      "процеду": 9442,
      "кондиционер": 9443,
      "террито": 9444,
      "мороженое": 9445,
      "заметил": 9446,
      "расписание": 9447,
      "бассейн": 9448,
      "проколоть": 9449,
      "санаторий": 9450,
      "анекдо": 9451,
      ")??": 9452,
      "76": 9453,
      "?=)": 9454,
      "con": 9455,
      "can": 9456,
      "dv": 9457,
      "gol": 9458,
      "od": 9459,
      "pi": 9460,
      "sch": 9461,
      "ази": 9462,
      "вниз": 9463,
      "ждой": 9464,
      "идете": 9465,
      "мэ": 9466,
      "нкт": 9467,
      "особы": 9468,
      "рке": 9469,
      "спло": 9470,
      "счё": 9471,
      "сход": 9472,
      "сбере": 9473,
      "твое": 9474,
      "урод": 9475,
      "усту": 9476,
      "чле": 9477,
      "ються": 9478,
      "юбки": 9479,
      "толи": 9480,
      "капи": 9481,
      "пони": 9482,
      "поре": 9483,
      "помы": 9484,
      "поесть": 9485,
      "побывать": 9486,
      "насто": 9487,
      "ковое": 9488,
      "ливер": 9489,
      "рол": 9490,
      "нины": 9491,
      "нели": 9492,
      "неба": 9493,
      "неправильно": 9494,
      "дента": 9495,
      "вателя": 9496,
[...]
